#version: 0.2 - Trained by `huggingface/tokenizers`
Ä ĥ
Ġ d
r e
Ġ c
Ġ a
Ġ p
t e
Ġ s
i n
Ġd e
r i
u l
l e
Ġ Ã
ĠÃ ®
u n
o r
e n
t a
Ġ m
ĠÃ® n
t i
r a
Ġ l
Ġ f
a re
Å £
o n
È Ľ
Ġ e
c e
Å Ł
Ġ n
È Ļ
a r
i e
Ã ¢
a n
a t
i c
s t
u i
Ġ v
r u
Ġ o
a l
r o
i i
en t
Ġl a
Ġc u
ÅŁ i
e r
ÈĻ i
Ġ t
Ã¢ n
i a
â Ģ
Ġ C
e a
s te
Ġ in
Ġs Äĥ
Ġ ÅŁi
t Äĥ
Ġ un
Ġd in
i l
o m
Ġ ÈĻi
Ġp e
Ġ re
Ġ A
c u
i m
o l
Ġm a
ul ui
d e
Ġ P
Ġc e
Ġc are
ent ru
Ġs e
Ġ b
Ġ S
Ġc a
c i
Ġp entru
Ġn u
re a
Ġ D
Ġc Äĥ
r Äĥ
s e
Ġc on
c Äĥ
t u
ÈĽ i
Å£ i
Ġ M
p e
l or
o a
Ġma i
Ġp ro
s i
Ġ g
t o
Ġ âĢ
in e
Ġa l
z i
Ġa ce
m e
Ġe ste
ta te
u ri
a u
i s
u r
o c
m a
l a
Ġp re
Ġa n
Ġa u
Ġ 1
ri i
d i
Ġ 2
Ġf o
Ġ R
Ġ i
Ġf a
Ġ B
v e
c h
f e
d u
m p
Ġ I
ic i
Ġf i
t ul
Ġ (
t re
u m
Ġ T
Ġ E
c a
Ġs i
Ġs u
r in
z Äĥ
s ta
Ġn e
v i
Ġp o
are a
ri e
Ġe x
at Äĥ
a m
Ġ te
v a
Ġd o
Ã¢n d
Ġp u
Ġ N
. .
s c
i z
âĢ Ŀ
Ġa p
t or
Ġ le
a te
Ġc om
Ġp ri
Ġfo st
Ġ L
s ti
Ġ F
Ġs p
g e
Ġa c
Ġm e
s p
a le
m i
u p
s Äĥ
Å£ ii
Ġs un
ar te
z e
ra n
ĠÃ İ
Ġv a
l i
Ġt re
Ġs au
l u
Ġm ul
0 0
un e
Ġ j
Ġa r
Ġ G
Ġn o
en i
ÈĽ ii
ie i
b il
Ġa m
Ġc o
n e
ĠâĢ ŀ
Ġp rin
Ġ V
s a
Ġsun t
te r
Ġ O
ĠÃİ n
m Äĥ
o ri
oa te
il or
ta t
in i
n i
ĠÃ®n t
Ġ im
0 1
Ġm o
u t
e i
l Äĥ
d a
ic Äĥ
Ġt o
Ġ U
c t
st Äĥ
b i
Ġp er
č Ċ
e le
o s
Ġl u
al Äĥ
al i
g i
Ġa le
Ã¢ t
h i
r ul
Ġ or
ra t
Ġ ti
ĠD e
v Äĥ
Ġd i
Å£ Äĥ
in d
ÅŁ ti
g Äĥ
te le
Ġs a
l ic
ÈĻ ti
Ġ ur
Ġd a
p a
tate a
m Ã¢n
g a
ri le
Ġace st
ol o
un i
m ul
Ġa v
Ġv e
Ġ ro
Ġc re
ÈĽ Äĥ
u s
m en
te a
Ġv or
b u
Ġ2 01
f or
e l
z a
ch i
to ri
Ġl ui
o i
t ra
m b
t ri
ĠâĢ ĵ
d Äĥ
en e
f ic
Ġd ar
Ġl oc
ĠR om
c ti
t in
ar Äĥ
p or
Ġf ie
g u
o an
ta n
Ġf Äĥ
Ġs c
d in
Ġ zi
Å£ a
Ã ®
Ġc i
v er
ta re
ol i
up Äĥ
Ġ -
b a
Ġ u
Ġp Äĥ
ÈĽ ie
Å£ ia
Ġa d
Ġm Äĥ
ÈĻ te
ÅŁ te
cu t
Ġ H
o are
Å£ ie
Ġl i
Ġ rÄĥ
ea zÄĥ
Ġ 3
ce p
cu m
Ġa f
.. .
Ġp ar
ÈĽ ia
n a
ÈĽ a
Ġo ri
in a
il i
Ġi ar
ĠC on
Ġde c
p i
g ra
Ġ h
Ġper s
Ġp a
ĠRom Ã¢n
Ġlu c
ti c
Ġti mp
p re
Å£i on
in Äĥ
Ġp oate
Ġa t
Ġace a
ĠI n
p o
Ġd is
Ġm i
Ġan i
d ic
Ġce le
s ul
Ġv i
h e
ĠS e
ĠM a
ri lor
n Äĥ
Ġa j
Ġcu m
ÈĽi on
sp re
u ro
Ã¢ r
Ġd upÄĥ
te n
Ġo b
ĠÃ®n tre
ĠR e
o p
Ġ ra
b e
Ġf e
Ã¢n Äĥ
Ġ ta
Ġce l
u Äĥ
al a
un Äĥ
Ġs pe
uri le
al iz
Ġin ter
g an
Ġc Ã¢nd
m an
Ġa re
Ġ J
c ul
Ġj u
Ġp arte
Ġcom p
Ġmul t
f i
Ġf or
Ġde spre
s cÄĥ
st ru
ta rea
p Äĥ
un c
ti v
Ġfa ce
ĠÃ®nt r
te ri
u a
bu ie
v en
ĠÃ® mp
u ra
l o
in te
Ġace ste
Ġsu b
Ġda cÄĥ
to are
Ġdin tre
c are
Ġt ra
an d
Ġv Äĥ
Ġ z
bil i
b Äĥ
) ,
d o
ta l
Ġn ici
f er
st ra
tu ri
Ġco p
Ġa i
s pe
Ġc Ã¢
Ġe le
d en
Ã® n
âĢĿ ,
Ġp l
ri a
Ġs ta
Ġpu b
t ului
Ġe ra
Ġde s
Ġs t
re n
Ġfo arte
ce a
Ġs im
c o
Ġ "
tor ul
Ġt oate
Ġpro du
Ġm are
Ġun ui
fe l
Ġ 4
Ġpre z
ĠC a
oan e
âĢ ¦
Ġ 5
Ġt ran
Ġdo ar
Ġap ro
Ġno i
m ent
Ġtre buie
fe ri
ce s
o d
ĠA n
Ġ1 9
pe ri
Ġb a
an i
cu r
ch e
me le
) .
un ea
z ul
ĠN u
in g
Ġc hi
ĠÃ®nt Ã¢
or d
Ġmul te
Ġb ine
c on
re p
Ġro mÃ¢n
Ġb u
Å£ e
Ġpro p
s cu
ie r
Ġe i
er v
ÈĽ e
ÅŁ e
c at
re c
Ġto t
Ġpo t
ĠD a
tu ra
ĠRomÃ¢n ia
Ġp Ã¢nÄĥ
Ġmo d
v ol
un ci
ĠL a
en te
Ġce i
Ġor gan
Ġa s
Ġn a
ĠP e
Ġc ea
Ġe l
Ġn i
ti l
ĠâĢ ľ
ĠP ro
Ġl or
fe c
Ġre c
t r
Ġluc ru
Ġm in
Ġacea stÄĥ
oa st
t ro
du ce
Äĥ r
Ġav ea
Ġpe ri
ci p
on a
on i
Ġf in
o v
Ġd u
Ġun ei
Ġ ru
Ġin te
st fel
p u
Â Ń
ĠB u
f ici
p ul
sta n
ĠP entru
Ġde z
Ġv re
Ġp oli
ĠfÄĥ rÄĥ
Ġfa p
Ġ ul
an a
en ta
Ġor a
ru m
Ġspe ci
cu ri
Å£ in
Å£ iei
Ġo am
le a
Ġdo uÄĥ
Ġpri v
Ġle g
Ġur mÄĥ
Ġun de
ĠcÄĥ tre
l ul
Ġv ia
Ġ Å
m at
Ġm ar
ÈĻ e
un a
d ea
Ġchi ar
Ġd om
Ġd rep
u te
p l
Ġpar ti
Ġpu te
olo g
ÈĽ in
po zi
Ġb i
ie c
Ġ 6
ĠD um
ĠÃ®n cep
Ġfi ind
bi le
ti ve
ri c
ui t
Ġc ul
ma i
ti e
Ġca d
ÅŁ a
Ġ È
ĠU n
ĠM i
mb rie
Ġl um
Ġ ri
Ġaj un
Ġs o
ti vi
Ġa b
Ġc Ã¢t
ĠÃ®n ce
ic a
Ġve de
im i
or a
ĠC om
v o
ent ul
Ġl o
b le
for ma
âĢĿ .
at or
st ul
Ġse c
g o
on e
ÈĻ a
pre z
ii le
ĠC u
ne ze
Ġp or
Ġc er
c lu
m n
ene ra
Ġzi le
Ġ K
g ul
sti tu
Ġf unc
Ġpe ste
ĠA r
Ġc un
j a
Ġg Äĥ
tÄĥ Å£i
Ġju de
at ul
Ġm ili
Ġp la
ĠÅ ŀ
m in
Ġat unci
tÄĥ ÈĽi
v eni
Ġorgan iz
lic a
ch im
Ġa cum
tu rÄĥ
Ġm un
Ġd at
ĠU ni
Ġo p
Ġcop ii
Ġf el
Ġperi oa
Ġfa c
Ġpu tea
ĠE uro
m ului
ÈĽ iei
ĠN a
Ġs ol
to rii
ĠP o
Ġan ul
g en
Ġim por
Ġ2 00
ĠÃ®n cÄĥ
Ġn oast
Ġaj u
Ġe uro
f a
Ġre prez
Ġal te
er Äĥ
ĠÃ® i
Ġa de
Ġde p
Ġex i
pe ra
Ġdec Ã¢t
Ġa stfel
al ul
Ġsu s
Ġav ut
ĠA ce
uri lor
u z
Ġcad rul
r on
Ġv o
ĠÈ ĺ
ĠDum neze
Ġ1 0
Ġa si
Ġ W
ĠÃ®n c
ĠM e
Ġfie care
ĠfÄĥ cut
Ġce ea
Ġ 7
ti ce
til iz
Ġpriv ind
a i
ĠT e
re s
ali tate
ol a
cu re
Ġg a
ta r
Ġf olo
Ġa se
Ġac tivi
Ġg ra
Ġcon s
Ġimpor tan
Ġm om
Ġ Z
um i
ra c
Ġe chi
Ġun or
Ġn r
ĠcÃ¢ te
ti i
Ġtran s
ĠB i
ar ul
ĠL i
p te
Ġex p
d ul
an Äĥ
Å£ ele
p tÄĥ
ti cÄĥ
Ġun i
f Äĥ
ĠL e
ĠÃ®n sÄĥ
Ġde ci
me i
Ġcu r
Ġcon tra
ĠDumneze u
ĠÃ® l
Ġ en
Ġa sta
ĠN e
Ġte r
ĠÃ®ntÃ¢ l
ri s
Ġcon tin
ia le
Ġs chim
Ã £
Ġg re
ĠP a
Ġap Äĥ
m o
ĠP re
Ġim p
Ġ ,
Ġb Äĥ
ea scÄĥ
Ġv al
l oc
Ġce lor
en ii
Ġat Ã¢t
tÄĥ Å£ii
ĠSe x
mi te
n o
vi t
Ġsu p
Ġ r
Ġre spe
Ġ 8
sp un
Ġu tiliz
up ra
Ġs erv
re i
Ġp ie
ĠA l
ĠA m
ra tÄĥ
ĠBu cure
Ġsp une
n ic
ri m
Ġs en
Ġt ine
Å£ii le
Ġul ti
ĠDa cÄĥ
Ġp at
b ui
Ġni ve
2 01
Ġpre cum
ÈĽ ele
Ġs f
Ġs tu
Ġsi tu
si t
Ġg enera
o le
u ver
Ġpro ble
Ġtre i
Ġex e
Ġsi ste
v in
Ġf il
Å£ ilor
ĠÃ®n a
ri j
o te
Ġb un
n ul
l ui
Ġv eni
Ġ ie
Ġcomp le
Ġpub lic
Ġre aliz
Ġca u
ĠC e
oa se
s u
Ġpers on
Ġt u
00 0
Ġun ul
Ġpro fe
o t
Ġin forma
Ġe u
ie ct
m ini
te lor
Ġsp re
Ġc an
ste n
Ġori ce
Ġp lÄĥ
ĠS i
ÈĽii le
ea m
an u
j e
ĠA u
Ġ ÅŁ
men ea
ĠF e
Ġacea sta
Ġme dic
Ġle i
m il
ra te
ven im
l ine
Ġa ve
Ġdec la
Ġ201 8
Ġce va
Ġl un
Ġ ÈĻ
mi t
for m
an ia
Ġ ÅŁti
Ġase menea
Ġal t
ĠcÄĥ r
Ġpers oane
Ġs oc
ĠâĢ Ŀ
ĠS f
g at
or ul
ol do
d ia
an e
Ġ 9
er s
Ġdez vol
Ġ ÈĻti
se le
Ġno u
Ġne vo
Ġdo i
Ġs tat
Ġace ea
an s
ĠP ar
cti v
Ġpri ma
r ului
ĠE ste
con om
g in
Ġre g
bil Äĥ
Ġc ar
c ta
Ġca z
ĠÃ®ntÃ¢l ni
b er
l at
c ol
ÈĽ ine
Ġnu mai
ĠD ar
Ġace sta
ĠD in
Ġpro gra
Ġ w
Ġn im
p rin
Å£ ine
Ġa ici
Ġin f
a ce
rea zÄĥ
ve sti
o rii
Ġ1 5
Ġ [
Ġde sc
Ġpro te
Ġau to
d ent
b o
Ġc al
tÄĥ ÈĽii
tea zÄĥ
Ġ1 8
Ġe a
z ut
Ã¢n du
ÈĽ ilor
ĠE x
ĠB a
Ġas upra
Ġre la
Ġda ta
ur n
Ġi u
on d
tu rile
Ġst rÄĥ
Ġvi zi
si on
f icÄĥ
Ġc la
ic ii
b at
ste a
ĠJ u
Ġsp us
Ġte le
Ġacest ui
Ġ2 0
Ġfa mil
Ġnu mÄĥ
Ġoam eni
b or
Ġo fer
h n
Ġasi gu
Ġd ate
g h
Ġcom un
Ġc h
a pe
Ġca zul
Ġtimp ul
i t
Ġcon di
f le
Ġi st
m is
Ġ Â
Ġur ma
rie i
Ġpro iec
Ġt ri
ĠP ri
Ġc or
Ġf rum
Ġcon si
v al
m ar
ra re
Ġma ri
di ul
ÅŁe din
fe ren
mini stra
Ġp ra
ĠS Äĥ
Ġale s
Ġ on
ĠS u
li ce
re le
Ġp rea
im a
Ġ1 2
Ġprez en
Ġin clu
ĠV i
ĠÃ®n vÄĥ
Ġur m
Ġpo si
ĠA d
Ġco le
l ie
Ġsitu a
tri vit
ti on
Ġsim p
ĠCon stan
Ġun a
ta tÄĥ
Ġan un
Ġperioa da
Ġnevo ie
er g
ĠD om
Ġcop il
Ġp en
Ġe venim
tu r
Ġexi stÄĥ
Ġc ri
di u
Ġs ur
un ii
an t
Ġtre bui
im e
ĠD i
Ġl uni
Ġfin an
Ġade vÄĥ
ĠO r
ĠC i
Ġc ine
an te
ver si
Ġpers oan
ĠM oldo
Ġt Äĥ
ru t
Ġm ine
ĠcÃ¢te va
ra rea
Ġl im
Ġa ÅŁa
ru p
Ġ k
ĠM o
Ġn or
d atÄĥ
Ġd ra
on ul
Ġfap tul
ri t
l in
gra f
Ġsi te
ĠE l
oa sÄĥ
Ġt rÄĥ
Ġm en
at ura
n ului
a c
Ġ um
ĠÃ®ncep ut
Å£ ei
Ġparte a
Ġ 0
Ġi de
c om
Ġe fec
ri ca
Ġre u
a s
Ġs in
Ġme mb
Ġb an
ĠC o
n ea
Ġsp i
le n
Ġnu me
Ġe conom
âĢ ľ
o peri
a ra
Ġa ÈĻa
Ġl Äĥ
ĠRomÃ¢n iei
z ia
Ġpri mul
Ġtre cut
Ġac ord
lu j
ĠÃ® mb
fic a
Ġre zul
Ġau tori
at ori
um Äĥ
Ġace la
Ġmo di
de re
o k
Ġpro ce
Ġm Ã¢n
Ġap oi
ĠCon s
ru c
Ġapro ape
Ġv in
z at
Ġaceste a
g he
Ġde m
Ġb unÄĥ
Ġre z
ĠÅŀ i
Ġce re
si v
ti vÄĥ
ĠMa i
ĠsÄĥ u
Ġim a
ch is
Ġdis p
ĠrÄĥ spun
ol ul
ori a
Ġs tra
ĠC h
u se
o arÄĥ
Ġd um
is ta
Ġv ii
Ġs ale
un d
s s
l an
Ġm u
o g
ĠÃ®n s
ĠA p
ĠD upÄĥ
Ġo m
i r
Å£ion al
Ġm ea
ali tatea
Ġar tic
ĠR a
Ġp ier
Ġ1 1
ti t
Ġ ...
ĠÃ®ntÃ¢ mp
ri u
sc ul
st r
Ġv Ã¢r
stÄĥ zi
ĠC hi
men te
Ġa du
an ta
o se
Ġcu v
Ġse x
Ġdi rec
im en
Ġpri vi
a p
Ġin di
Ġc ent
ti a
ĠÃ®na inte
" ,
Ġale ge
Ġpro iect
Ġti p
Ġv oi
Ġv ine
t ui
g re
Ġmo de
ĠM ar
ri st
Ġc li
in tÄĥ
Ġdes fÄĥ
spe c
Ġp un
Ġm on
Ġprin cip
tor ului
Ġm ic
Ġdom eni
b rie
ÈĽion al
Ġno stru
un t
ĠÃ®mp re
por t
st in
Ġne ces
Ġsup ra
Ġnoast re
Ġe di
Ġ ia
u rÄĥ
ĠÃ® ÅŁi
Ġvede re
Ġex peri
Ġo feri
Ġ X
te i
Ġmili oane
Ġdi feri
z ie
Ġ1 4
I I
ri ci
ÈĻe din
Ġp le
ĠÃ®nce r
Ġr Ã¢nd
du ca
Ġsp a
c in
Ġ201 7
er ci
ĠP Äĥ
Ġparti cip
is c
oa m
Ġse mn
ta ment
Ġd atÄĥ
j ul
stru c
at ului
Ġan ga
tori lor
ce r
Ġnoast rÄĥ
Ġre sp
ptÄĥ mÃ¢n
c re
Ġfolo si
ĠÃ®n de
Ġac olo
ĠT o
re gi
g ii
Ġtran sp
ĠP rin
ar d
cur s
a ri
ul e
Ġlum ea
ur ul
Ġp rie
Ġin stitu
z ii
ĠP or
Ġv rea
Ġloc ul
de rea
Ġ .
Ġlu me
ĠÃ® ÈĻi
Ġe t
Ġca te
Ġnive l
ĠÈĺ i
Ġ1 6
1 9
u me
om e
Ġcon tro
Ġdecla rat
Ġh o
er man
Ġpre gÄĥ
Ġ3 0
ĠIn ter
Å£ion ale
teri or
ĠM ini
Ġ ui
cu te
Ġ |
Ġa me
uni le
Ġave m
oc ia
Ġb ene
Ġajun s
Ġv er
Ġ /
c an
Ġso ci
d er
ie re
ĠC Äĥ
Ġprodu se
Å£ii lor
Ġme u
Ġexe mp
Ġc rea
ĠD o
Ġde ja
or t
cu tÄĥ
ĠMoldo va
Ġ1 3
Ġad ministra
k e
Ġcomp an
Ġa ten
ĠCons ili
Ġci r
h a
Ġcom uni
Ġiu bi
ĠsÄĥ nÄĥ
Ġob li
Ġs ea
Ġma j
Ġin t
Ġli p
Ġsu fle
ĠV e
st ri
te m
Ã¢n gÄĥ
Ã İ
Ġo pera
Ġp are
cti ve
fi ce
Ġpri m
Ġdrep t
le x
Ġgre u
ent Äĥ
Ġm ini
Ġpl an
Ġcontin u
mp Äĥ
oa ra
ĠÃ® mi
ĠsÄĥ ptÄĥmÃ¢n
r un
Ġcer ce
u b
ĠÃ®n to
Ġin vesti
ra l
ro a
Ġc he
ca te
Ġde veni
Ġbu cu
ĠÃ®mp o
Ġsoc ie
Ġinte res
ti s
Ġpo pul
Ġp unc
im in
si une
o re
Ġp une
Ġma teri
ÈĽ ei
Ġto atÄĥ
2 00
Ġsta bili
c ar
ĠEuro pe
re ct
Ġfo to
Ġ1 7
de m
oc a
tri va
Ġb Äĥr
Ġcun os
ni ce
d at
fer in
Ġs ing
ĠM Äĥ
o va
Ġte hn
Ġdo ua
Ġs ala
Ġv ie
l icÄĥ
Ġcon du
Ġp ur
Ġp i
Ä Ĥ
ĠromÃ¢n e
Ġe vi
Ġaf la
Ġd Äĥ
Ġsc ris
ĠA cea
Ġnim ic
od atÄĥ
Ġv om
z are
Ġb o
Ġpra cti
ĠB Äĥ
ĠÃ®n d
Ġfa Å£Äĥ
ĠÃ®n regi
r Ã¢n
ĠÃ®mpre unÄĥ
pu b
Ġmom ent
di t
Ġl up
Ġpo zi
Ġap ar
Ġg e
si unea
ti fic
bili tatea
ĠP oli
Ġn atura
ĠpÄĥ rin
Ġc in
ĠJu de
Ġera u
R E
ÈĽion ale
Ġa stÄĥzi
ri cÄĥ
ĠG uver
Ġ2 5
Ġsp un
Ġsc op
Ġaf lÄĥ
Ġa pe
A T
Ġpo ve
lu s
Ġspeci al
tu rii
Ġca rac
Ġprop rie
ti ci
Ġm or
ĠrÄĥ mÃ¢n
t on
Ġ201 6
p ta
ĠA s
Ġal Äĥ
Ġde ce
ĠL u
Ġin i
i le
ĠE u
Ġluc rÄĥ
tu rilor
Ġal tÄĥ
Ġdis pozi
Ġfa cÄĥ
Ġs al
Ġpub lice
Ġab s
Ġele ct
ii lor
Ġaf ace
Ġschim b
ĠM are
u tÄĥ
z b
tÄĥ r
u re
g ea
ie mbrie
se i
Ġserv icii
iz a
Ġreprez en
Ġs cur
ĠmÄĥ s
g ini
Ġri dic
Ġse m
Ġoam enii
Ġrec om
Ġb une
ĠR o
tu t
âĢ Ļ
ĠA c
ĠG a
Ġsol u
o area
Ġcre d
Ġb ani
b al
Ġro man
Ġlu at
ĠÃ®n g
Ġo re
Ġconsi de
en a
d ar
ÈĽii lor
Ġveni t
Ġc arte
Ġca mp
.. ..
u tul
p ene
Ġv ol
Ġcon te
Ġo bi
v an
ÅŁi t
g ur
re sc
mÃ¢n t
Ġl in
Ġo cu
d ie
Ġg uver
me lor
Ġba za
Ġpu ÈĽin
Ġmun cÄĥ
ĠÃ®mpo triva
Ġsol ici
Ġan umi
Ġsi gu
o f
Ġfap t
Ġc l
Ġf ol
ĠN ic
s at
Ġac tu
ĠSf Ã¢n
Ġdis cu
ct om
ĠÃ®n Å£ele
Ġl Ã¢ngÄĥ
Ġ Ð
Ġpu Å£in
Ġnu mele
Ġinter na
Ġpre ci
Ġb e
Ġa ca
Ġaceste i
Ġp ia
Ġi den
er ge
tÄĥÅ£i le
ta ri
bi t
ĠC re
Ãİ n
Å£ ul
Ġcom pe
Ġin vi
Ġm uz
Ġca p
Ġj oc
Ġno uÄĥ
ĠBucure ÅŁti
ĠBi se
ta le
Ġno iembrie
Ġgenera l
Ġon line
Ġter men
ctom brie
ĠM un
Ġdes chi
Ġm ici
tÄĥ m
un ie
Ġz ona
v ine
Ġpo trivit
Ġar ti
Ġefec tu
Ġcon f
Ġprofe s
Ġtele f
Ġte n
ui a
rii le
Ġa chi
Ġsu c
Ġcau za
Ġimportan t
am ent
Ġ ze
Ġd or
vol u
Ġar t
pte mbrie
oare ce
Ġn ea
Ġs cÄĥ
ĠI a
s cut
Ġc ol
Ġmi j
S D
Ġa g
Ã¢ mb
Ġofer Äĥ
ĠAn d
Ġrec un
Ġpu ter
ri an
ĠN o
Ġg rup
Ġfe me
R I
Ġcon ta
Ã®n d
de le
ĠMini ste
Ġcre din
Ġj o
Ġan ului
Ġvor ba
ĠC um
Ġfa ÈĽÄĥ
Ġet c
Ġli ber
p en
ver s
ĠBucure ÈĻti
Ġo ctombrie
Ġ il
Ġbi se
Ġcon duce
Ġexperi en
Ġf ond
e x
Ġvre m
ĠV a
N A
ÈĽ ul
tÄĥÈĽi le
Ġpat ru
ÈĻi t
Ġpre m
Ġl ans
eam nÄĥ
Å£ion alÄĥ
Ġdomeni ul
Ġs tÄĥ
ra le
tur or
Ġfi r
Ġfor ma
Ġtre ce
en ilor
Ġa cu
Ġbu ge
Ġprivi re
st rul
Ġg Ã¢n
2 0
Ġa ratÄĥ
Ġpute m
Ġprez ent
ve de
Ġsin gu
1 0
Ġre gi
ĠÃ®nc Ã¢t
Ġpo st
Ġs ti
ĠAce st
ĠD ra
c k
Ġtu turor
Ġse ptembrie
ta li
Ġin ten
ĠI ar
Ġpri mit
gu st
ici pi
Å£ at
ĠC luj
p ro
Ġe duca
Ġin tra
Ġlo cu
pa ra
c ent
Ġre pe
Ġ :
Ġto tul
Ġ2 4
se sc
ĠÃ®ns eamnÄĥ
Ġre gul
ĠR Äĥ
e ze
Ġcon str
ĠT ran
Ġsf Ã¢r
Ġac ces
Ġcomun ic
Ġdesc operi
ĠA stfel
Ġa duce
b ru
Ġmom entul
Ġca pi
Ġexemp lu
ta lÄĥ
Ġca pa
is m
Ġzi ua
Ġc alitate
Ġap lic
Ġt ur
up a
fic area
Ġan ti
o rie
Ġ201 5
l al
de o
Ġd rum
rist os
ĠB o
Ġa ta
fe ct
Ġsp rij
ro s
Ġ1 00
ul ie
Ġun ele
Ġdiferi te
Ġpri ve
Ġo f
Ġs ca
Ġl imi
Ġi unie
ĠS a
ĠÃ®n ÈĽele
Ġg rÄĥ
Ġa rÄĥ
ĠÃ®nce pe
Ġen erg
g n
ĠvÄĥ zut
Ġlim ba
Ġnive lul
Ġpre ÅŁedin
ta ti
s en
ĠRe pub
Ġu ÈĻ
Ġdo cu
ĠC ent
di o
Ġcun o
Ġf ra
Ġp lus
Ġn oa
Ġdece mbrie
Ġreprez intÄĥ
Ġde oarece
Ġle gÄĥ
Ġpe tre
. âĢĿ
Ġpu s
Ġme ci
3 0
ĠF i
Ġc ali
er ul
Ġte ren
Ġpo e
Ġbene fic
Ġc at
c area
Ġa fec
tate le
ĠT ra
ĠG e
ti m
Ġsc rie
Ġ201 4
Ġce tÄĥ
b an
Ġap lica
ce si
Ġajun ge
ri ce
Ġn Äĥ
ĠD an
re u
Ġd ia
Ġde f
ta ÈĽi
ĠA t
s ca
olog ie
i te
Ġdin tr
ÈĽion alÄĥ
Ġsigu ran
tÄĥ rii
Ġo fici
ga z
Ġtra di
Ġspe cta
ĠC ar
Ġ Å£Äĥ
h o
Ġg Ã¢nd
Ġpre lu
ĠC ur
Ġ2 1
Ġ19 9
Ġprin tre
Ġde ose
Ġj os
Ġcu prin
re sa
Ġrespe ctiv
ĠS unt
Ġpun ct
p ie
di at
ge rea
D e
Ġfe mei
pre s
Ġprodu s
" .
â Ķ
d ii
Ġp ic
ti ca
Ġa tra
g ine
Ġevenim ent
ma s
ĠC Ã¢nd
ĠalÄĥ turi
Ġcu mpÄĥ
ĠA lex
Ġcul tura
ĠB ra
is la
u d
Ġproble me
Ġ hi
Ġan tre
Ġperson al
Ġmin ute
Ġcon tri
Ġsun tem
c Ã¢nd
te ra
ĠF ran
x e
ĠT a
bili tate
Ġv Ã¢n
sti c
u al
Ġe ta
ĠM on
Ġ ÈĽ
Ġpro f
oast rÄĥ
Ġm ani
Ġi ulie
p t
Ġora ÈĻ
Ġprie ten
Ġmar tie
Ġmod er
ĠÃ®nt rea
ie sc
ĠT V
b ul
Ġacest ora
Ġcons um
Ġv ei
ator ul
tÄĥ ri
g ina
Ġex tre
Ġfinan ci
sta t
v oc
Ġpro ba
ĠC el
Ġca m
ĠE le
ĠP SD
Ġdo s
sp i
Ġreprezen tan
Ġde stul
Å£in ut
Ġcon form
an ua
Ġ Y
un de
ÈĽ at
d icÄĥ
anua rie
Ġma x
ĠpÄĥ r
Ð ¾
Ġdrep tul
ĠC or
ĠromÃ¢n i
Ġcon for
Ġvia Å£a
ĠMi h
Ġve dea
ment ul
Ġperioa dÄĥ
zb oi
Ġre n
âĢ¦ ]
ea u
Ġ2 2
ĠnumÄĥ rul
ĠC ri
Ġ Å£
b ate
Ġcontra c
Ġlucru ri
1 1
Ġexe cu
i on
gi ce
Ġserv ici
t ine
Ġpri mi
Ġpro ces
Ġ5 0
ge re
Ġprop une
Ġac cep
Ġap a
Ġv ic
Ġz on
Ġsimp lu
g hi
ĠÃ® ÈĽi
ĠS p
Ġo ca
ĠI oan
A N
Ġt uri
c ri
Ġra pi
cur sul
c atÄĥ
Ġh a
Ġorganiz a
ĠEuro pa
Ġora ÅŁ
Ġmo tiv
ĠM u
Ġfol os
g ia
la s
ĠUni versi
ĠmÄĥ r
Ġl una
Ġg en
Ġcur s
ce i
Ġaf ir
st rat
Ġanga j
ri lie
Ġco re
s er
ĠH ristos
Ġau gust
ne t
Ġi anuarie
Ġte x
Ġcun oa
vi z
nea v
ta tul
ĠgÄĥ si
Ġho tÄĥr
ÈĽin ut
c ii
ĠU r
w w
ÅŁti i
Ġre zi
ĠÃ®n chi
Ġame ric
Ġc Ã¢n
ĠR us
Ġcal cul
ĠcÄĥ lÄĥ
Ġdep arte
ric ii
Ġv iz
Ġfe rici
Ġcre ÈĻte
ĠF a
Ġsp or
Ġob ie
i ce
t om
x ima
Ġ[ âĢ¦]
f ul
en tele
Ġex tra
ĠÃ®ntÃ¢lni ri
on sa
Ġav Ã¢nd
Ġvre me
ĠCom is
d ului
Ġme sa
vi zi
Ġist ori
Ġf urn
Ġcre ÅŁte
lic at
lo g
c tor
Ġw e
Ġd imin
Ġinclu siv
b area
ĠÃ®n sc
Ġe p
c iale
Ġexi sten
am ente
ĠâĢ ¦
z on
ate le
Ġprofe sion
Ġdeveni t
v il
o ci
an ul
n u
Ġti t
d on
in Å£Äĥ
Ġin de
Ġdi rect
z area
Ġne g
Ġc ola
Ġre duce
ĠI on
Ġt Ã¢r
Ġechi pa
Ġte ri
Ġdi ver
ĠI s
Ġvia ÈĽa
Ġde n
o h
Ġve ri
Ġachi zi
Ġe li
Ġparti ci
le men
Ġfa ci
Ġcon fi
i an
Ġin du
arte a
ta rÄĥ
Ġto Å£i
Ġap rilie
Ġj urul
toare le
xima tiv
ta Å£i
Ġnici odatÄĥ
Ġdum neav
Ġcopii i
Ġabs ol
Ġg rat
fer Äĥ
t ru
T E
dea una
Ġ ÈĽÄĥ
Ġj uri
Ġmod ul
Ġex a
Ġju cÄĥ
ic ul
Ġaca sÄĥ
ĠC ul
si uni
v s
Ġdisp oni
Ġfa Å£a
ĠpregÄĥ ti
ch ii
Ġin sta
ĠT imi
p ri
Ġcin ci
Ġ2 3
un ilor
Ġe fici
l ori
Ġme to
ĠÃ®n al
Ġpre vede
Ġfor m
Ġam en
v ie
Ġdes chis
Ġval oare
st rÄĥ
oare le
1 2
âĶ Ģ
c en
m ov
Ġan im
5 0
ze le
Ġaface ri
Ġf u
l ici
in Å£a
O R
ale le
ĠdesfÄĥ ÅŁ
ĠadevÄĥ rat
. ,
Ġp ici
Ġvia Å£Äĥ
Å£i uni
ĠPar la
Ġd ura
Ġspi ri
se lor
ĠsÄĥ r
s m
Ġacest or
Ġsec re
d uri
ĠConsili ului
ni t
Ġdu re
Ġmaj ori
Ġparte ne
Äĥ rii
Ġal in
Ð °
Ġa dÄĥ
p ar
Ġci ti
Ġu ÅŁ
ÈĻti i
ĠB e
d ine
ti va
1 8
- -
Ġvia ÈĽÄĥ
I C
Ġac ci
ti tu
Ġe v
Ġ201 3
ĠrÄĥmÃ¢n e
te c
Ġde si
Ġt ru
ĠÂ »
Ġve chi
ĠP ub
Ġp si
Ð µ
Ġcine va
a rie
Ġrespe c
ĠF il
c ra
at uri
ĠÃ®nc re
ĠcÄĥ u
Ġa zi
se m
l ia
ĠS U
Ġaju torul
Ġi z
ĠtÄĥ u
Ġru gÄĥ
Ġacestui a
ui te
te ze
Ġleg isla
Ġval ori
ĠF o
Ġurm are
ce re
Ġca me
ote l
ĠcÃ¢ ÈĻti
p at
Ġmul Å£i
Ġin tro
Ġartic ol
Ġs tri
Ã¢n ge
vi u
de i
Ġj umÄĥ
Ġex erci
Ġvor be
pe i
ea za
l au
Ġpo ÈĽi
ÈĽ uri
Ġdu ce
Ġm erge
Ġcuv Ã¢n
Ġimportan te
Ġsiste mul
d are
ĠsÄĥr bÄĥ
Ġper mite
Ġs er
b ra
âĶĢ âĶĢ
Ġa tin
w s
Ġresp onsa
Ġpre vÄĥ
Ġre f
Ġpub licÄĥ
ste r
c ÈĽie
D E
Ġlo curi
Ġfoto graf
ĠPor no
m on
Ġpre ÈĻedin
Ġsuc ces
U L
ĠC od
to area
Ġfor mÄĥ
I N
x i
Ġs an
Ġloc ale
il a
at orii
ĠT re
Ġmax im
Ġad op
ali zÄĥ
ra m
st re
ÈĽi uni
Ġapro ximativ
p er
un da
ĠC er
ĠAlex and
is mul
co le
Ġme reu
u e
bru arie
ri cul
Ġdecla ra
Ġm ana
Ġda ca
Ġde ter
Ġst ruc
Ġsing ur
Ġmani fe
Ã®n t
iec tul
Ġvor b
Ġ201 2
c ia
Ġt he
ĠAs ocia
Ġrez ol
Ġa ÈĻte
Ġin tre
ĠdesfÄĥ ÈĻ
Ġsiste m
Ġma ÈĻ
Ġs til
Ġalt fel
Ġto tal
Ġmul ÈĽi
Ġam in
Ġaf lat
ĠrÄĥspun s
ÅŁ tin
Ġobli ga
ĠPri mÄĥ
Ã¢ l
ĠMih ai
Ġcir cul
ĠP ers
Ġpre s
Ġactivi tatea
to rie
Ġdo ri
Ġfurn iz
Ġre feri
Ġse le
fe ra
Ġcon struc
ĠL oc
Ġpri mÄĥ
Ġprogra m
ĠU E
ra j
Ġle gi
zi u
ine le
ĠV Äĥ
d am
Ġan aliz
Ġasigu rÄĥ
Ġcan di
l ini
Ġlu a
Ġlucru rile
fi in
Ġde pÄĥ
ar ului
Ġba zÄĥ
Ġcon sul
A L
Ġcon curs
an dÄĥ
Ġa sc
om a
ĠG he
j u
Ġun ii
Ġ2 8
Ġcli en
s ur
Ġulti ma
Ġad icÄĥ
Ġe c
Ġa mp
Ġe mo
ĠrÄĥ mas
ĠAce sta
Ġposi bil
Ġele v
Ġnim eni
Ġ2 7
Ġpu tut
bo ok
Ġfin al
ĠV ic
val u
Ġs tare
ĠrÄĥ u
to do
ĠD u
Ġextre m
Ġpre o
Ġt Ã¢nÄĥ
Ġtelef on
Ġdef ini
Ġaju ta
Ġma gaz
Ġse ri
Ġpro mov
Ġ Äĥ
Ġai bÄĥ
Ġdra go
Ġloc al
Ġdocu men
Å£e lor
cti vÄĥ
ori tÄĥ
Ġfe bruarie
Ġde dic
in ul
u ale
zi t
d ra
Ġp an
oa ce
Ġra por
ĠH o
b li
ĠPo trivit
ĠÃ®n chis
ĠConstan Å£a
Ġdumneav oastrÄĥ
Ġinter me
I n
Ġu ti
Ġim e
Ġ2 6
Ġfo t
Ġcompe ti
Ġex cep
Ġfor mul
ola e
Ġmul tÄĥ
Ġfamil ie
1 5
Ġa er
Ġre a
ĠnumÄĥ r
O N
Ġm Ã¢
Äĥ tÄĥ
ta m
A R
Ġface m
Ġpla ce
is a
ĠG erman
Ġt oc
un g
ĠMiniste rul
Ġpier du
b re
Ġc lÄĥ
ĠM ul
t p
Ġf ran
Ġin teri
for man
Ġproba bil
Ġvede rea
Ġb loc
Ġvre o
Ġme le
ĠB an
v oi
gi u
Ġrealiz at
Ġguver n
Å£i une
n icÄĥ
ar tÄĥ
Ġzi s
Ġpersoan Äĥ
Ġto ÈĽi
ui tÄĥ
Ġin dic
c Å£ie
t h
ĠF ace
Ġcon cep
ÈĽi une
Ġsen s
ĠO n
Ġpopul a
ĠDi rec
Ġal im
ie rul
Ġap are
Ġde tal
Ġdimin ea
ĠDom nului
Ġfa ÈĽa
Ġca sÄĥ
ĠF or
Ġprin tr
Ġmij loc
Ġd au
Ġpri mele
ĠâĢ ¢
Ġpoli tic
Ġg u
Ġlun g
Ġs ar
Ġre li
ĠZ i
lu en
Ġcopii lor
oc ie
Ġf ii
Ġneces are
Ġfrum os
Ġdezvol tarea
pe re
Ġm ii
Ġb ol
Ġch el
Ġmun icipi
mp or
Ġpoli ticÄĥ
su rÄĥ
Ġa scul
ĠÃ®ntÃ¢mp lÄĥ
Ġin stan
Ġteri tori
Ġobi cei
Ġs ine
ĠAcea stÄĥ
Ġinte re
ĠÃ®nregi stra
Ġ â
Ġma ÅŁ
Ġ4 0
ma te
Ġto tu
feren t
in du
ie l
ĠA v
Ġsoc iale
Ġcuv inte
Ġcon vin
z ute
Ġs tan
Ġindi vi
Ġd upa
v Ã¢r
Ġmul ti
ci u
R e
Ġor din
ĠÃ®ntÃ¢lni re
Ġcontro l
Ġcunos cut
Ġa gen
k i
Ġscur t
Ġdem on
g er
Ġmodi ficÄĥ
Ġse rie
Ġsu pl
d ici
Ġc and
E R
Ġe mi
in icÄĥ
g al
Äĥ m
ĠS c
Ġpa ra
Ġanumi te
Ã® t
z eazÄĥ
tÄĥ Å£ilor
f in
ĠT ur
t deauna
Ġd us
Ġd vs
Ġtransp or
ĠMa ri
Ð ¸
Ġprez enta
ĠA cum
Ġcontin uÄĥ
ĠÅ£ arÄĥ
Ġex clu
ĠjumÄĥ tate
ĠO l
N u
sti ce
b ol
ĠcÃ¢ ÅŁti
Ġnor m
ĠDe ci
ĠInter na
Ġl ic
ĠgÄĥ sit
ĠÃ®ng rij
Ġstat ului
ĠÃ®n f
aliz are
ini le
sti cÄĥ
ĠNic olae
ve i
Ġpri me
Ġg ene
Ġal b
di al
Ġfolo sit
Ġcon se
ar cÄĥ
ĠGhe or
Ġac operi
Ġproiect ului
ĠDom nul
Ġac ce
Ġe volu
Ġte m
ĠÃ®ncÄĥ l
ĠÃ®mb unÄĥ
Ġcontinu are
Ġse curi
Ġ ÅŁa
Ġli tera
Ġeuro pe
Ġf oc
Ġcola bor
Ġad resa
Ġfil m
ĠAcea sta
ri tan
Ġo mul
Ġpo por
Ġ ÅŁe
ĠT he
Ã ©
Ġurm eazÄĥ
Ġco st
ĠI I
at oare
Ġf er
ĠadÄĥ u
ĠÃ®nvÄĥ Å£Äĥ
ĠTran s
ĠA ca
Ġa ÅŁte
ĠÃ®n ch
b ele
ĠmÄĥ surÄĥ
Ġcapa ci
zi ce
Ġiden ti
olo gice
in ÈĽÄĥ
Ġal tor
Ġpa ci
Ġexa ct
Ġfunc ÈĽion
tr Ã¢n
g uri
Ġde v
Äĥ l
fic are
Ġfunc Å£ion
ĠC op
Ġcon sta
ĠÃ®ntrea ga
Ġcarac ter
ar ce
Ġdo resc
gin ea
Ġt rea
Ġdiver se
ĠÃ®n che
m ii
Ġspeci ali
Ġlum ii
ĠSU A
Ġg ru
Ġjo curi
Ġun e
ĠvÃ¢r stÄĥ
Ġint rat
ĠuÈĻ or
ĠÃ®ncep Ã¢nd
ĠmÄĥ car
ĠC au
an tÄĥ
Ġsc ri
Ġsea ma
ĠC ele
Ġloc ali
201 8
um ul
te lui
imen tare
ĠJ o
Ġfi z
roa se
n er
Ġur mat
Ġsu peri
Ġeuro pene
ĠRom ania
ar ta
Ġju sti
ier curi
Ġm uri
Ġle ge
di ce
e t
Ġacela ÅŁi
g le
ola ri
b ia
Ġ2 9
oam ne
Ġter m
Ġau tom
Ġper forman
Ġp om
Ġe ro
Ġbenefic ia
Ġinf luen
Ġe sen
Ġde a
Ġadu s
ru mul
on al
Ġga ran
is mului
il Äĥ
Ġjude cÄĥ
Ġacela ÈĻi
fic at
Ġsoci al
Ġanga ja
Ġcontra ct
tament ul
Ġposi bilitatea
ĠE i
Ġpsi h
ĠV ale
Ġs cu
g ie
Ġm icÄĥ
Ġdoi lea
ĠG o
or ului
f an
s ea
Ġcons il
am b
ĠCom p
ĠS te
1 6
Ñ Ĥ
Ġproiec te
ĠhotÄĥr Ã¢
Ġan ii
ĠLe gea
Ġmin im
Ġinte gra
Ġinforma ÈĽii
Ġs la
Ġde pu
sti val
Ġcla s
Ġvii tor
Ġr Ã¢
Ġca sa
Ġex pl
ĠAn un
Ġorganiz at
Ġl ar
mÃ¢n tul
ĠÈĽ arÄĥ
Ġschim bÄĥ
ĠS im
va te
Ġal ta
ma il
ĠÃ®ncep utul
Ġdi feren
Ġd oc
Ġf und
st ria
Ġace l
fa ce
ĠP at
ĠrÄĥ zboi
Ġv is
Ġantre n
ĠC are
ĠclÄĥ di
ar de
lu b
Ġ201 1
Ġproiec tul
ĠÂ «
Ġinterme diul
Ġevenim ente
Ġfa ta
am entul
Å£e an
am Äĥ
Ġdo re
Ġscop ul
ĠcÄĥ ci
oc ra
Ġsup er
Ġnici o
Ġreg im
Ġpo tri
di ului
ĠÃ®n ca
Ġl an
Ġfeme ie
cea va
a ÈĽi
Ġcor p
o u
Ġ19 8
Ġulti mul
ĠÃ®nde pl
Ġex am
Ġfel ul
Ġmo tive
Ġe for
ord on
Ġa spec
Ġre du
Ġactivi tate
ĠConsili ul
Ġpe re
Ġl ini
Ġime diat
E N
ĠO ra
cÄĥ r
s im
ĠA ra
Ġex ista
ĠGuver nului
Ġa vi
ĠF in
1 4
ĠÈĻti u
ĠN oi
¿ ½
Å£i unea
Ġper man
ĠChi ar
Ġsu fici
Ġinf rac
Ã¢mb ÄĥtÄĥ
ĠS erv
ï ¿½
Ġal tele
Ġpro fi
Ġmateri ale
z ate
an da
Ġtoc mai
ĠT i
e ro
Ġvi deo
la men
Ġa sa
ĠG enera
c ÈĽia
Ġme diu
ĠSu ceava
Ġeli be
ĠlegÄĥ turÄĥ
Ġam inte
ĠDra g
Ġdeose bi
ti ei
Ġcon stitu
li p
Ġd rea
ĠvÄĥ d
le le
Ġ us
Ġpute re
Ġin form
isc op
Ġg erman
Ġ tare
Ġs luj
Ġci vil
ĠbÄĥr bat
Ġsala ri
R O
Ġle mn
Ġ ?
ve l
Ġor Äĥ
Ġstu den
Ġcon t
Ġpute ÈĽi
Ġprodu cÄĥ
Ġproble ma
ÈĽe lor
Ġta le
Ġcl ar
Ġconfi r
Ġvine ri
Ġo chii
ĠÃ®na in
Ġcel ui
Ġdi stru
Ġb ra
ĠtÃ¢r ziu
Ġli be
Ġim pre
Ġoam enilor
Ġrezul tate
tin g
Ġf al
c Å£ia
Ġre sta
oa ÈĻte
Ġpove ste
ĠRepub lica
in s
Ġde sp
b are
Ġsingu rÄĥ
se ÈĻte
Ġde stin
Ġsupra fa
aliz area
ĠM at
Ġservici u
oa cÄĥ
Ġpierdu t
in ÈĽa
Ġcom er
Ġpoli tici
d an
Ġas ocia
le r
Ġmode l
ti er
Ġprincip al
ĠGheor ghe
sti tui
Ġ ÈĻa
Ġme ri
Ġin stru
ĠÃ® Å£i
ÅŁ ii
Ġpersoan ele
Ġstra te
Ġne cesi
ĠA me
A S
cu rile
ĠS pi
ĠE n
ta rul
ĠC ei
ĠN ici
Ġrecom and
ran d
ĠC S
Ġdo ve
ĠGe or
si le
Ġ, ,
Ġinter pre
Ġte h
lal te
Ġasi sten
Ġconte x
la d
ÈĽi unea
Ġpre sÄĥ
Ġdate lor
Ġcom erci
ĠD E
ĠEuro pene
ĠsÄĥnÄĥ tate
Ġ !
ĠM ic
ni fica
Ġpunc te
Ġfie r
Ġbi ro
1 3
ĠConstan ÈĽa
1 7
p ia
ĠOn line
ie rea
Ġfamil ia
Ġzile le
Ġcomple t
Ġs to
Ġk m
ĠT oate
Ġan ume
atori lor
Ġsu sp
Ġb ar
Ġcom is
Ġprie te
iz area
Ġter min
Ð ½
Ġpro mo
ÈĻ tin
Ġar hi
Â »
Ġdat oritÄĥ
Ġan d
bli ote
te sc
ĠPro gra
Ġe valu
Ġleg ate
Ġh otel
k a
le s
Ġtine ri
l y
ĠIn stitu
Ġloc ui
n ici
Ġex ce
de vÄĥ
Ġtehn olog
Ġ is
Ġcarac teri
Ġvrem ea
Ġcon dam
Ġma ma
ĠÃ®mp Äĥr
ĠP oate
Ġa tri
in de
ĠG i
tu al
Ġpers ona
Ġcate go
ĠS in
ĠA ÈĻa
Ġnici un
Ġren un
Ġenerg ie
Ġban ii
Ġc oa
Ġprezen tat
tÄĥ ÈĽilor
Ġ201 0
ran i
O T
Ġmul ÈĽ
Ġnu mi
zÄĥ rii
Ġfor mat
Ġne voi
d is
Ġaju tÄĥ
) ;
Ġwe b
nÄĥ sti
Ġdeci s
inÄĥ u
tea scÄĥ
ĠromÃ¢n Äĥ
Ã® r
Ġap ari
Ġsur prin
n is
Ġzi ce
rea scÄĥ
Ġd imen
ĠT ot
t Ã¢nd
Ġim o
d area
Ġpl at
ĠÅŁti u
f o
j ele
ĠM area
Ġpartene ri
ĠurmÄĥ toarele
ul a
Ġori gin
Ġa te
ĠAt unci
t y
al ului
Ġse diul
ge ri
se mn
ci le
Ġcom enta
Ġg rij
Ġ &
Ġa ÈĻ
tii le
in ii
Ġdezvol tare
I T
Ġfa b
ĠCa mp
Ġmemb ru
pe le
Ġzile i
l are
Ġputer nic
Ġci u
ĠV o
Ġuni versi
Ġpute rea
Ġdi stri
Ġdate le
ĠUni te
Ġur gen
Ġasigu ra
Ġo datÄĥ
e c
ĠParla ment
b uit
Ġparticip at
Ġre sur
2 4
Ġli v
o gra
Ġme tri
ĠSi bi
tÄĥ rile
ĠA sta
Ġre ac
en ti
Ġsea ra
Ġni ÈĻte
Ġtra fic
Ġt rim
Ġaceste ia
s au
Ġf un
ĠN i
Ġin tr
ĠC ra
ĠrÃ¢nd ul
Ñ ģ
tori a
ĠÃ®ntre bÄĥ
Ġpa s
ĠF Äĥ
2 5
Ġj urn
Ġj oi
i at
ĠBise rica
Ġace le
de ra
Ġro l
ĠCa pi
ĠÅ ¢
ĠFace book
ĠC ine
Ġneces ar
Ġsc rii
Ġmul Å£
Ġva ri
Ġcom b
Ġevi den
Ġg ol
to datÄĥ
Ġist oria
Ġofici al
in o
Ġpoli tice
ĠGerman ia
j un
Ġmo bil
Ġval oarea
ĠC ole
Ġcamp an
ĠP ra
âĢľ ,
Ġcontri bu
Ġm an
Ġz il
Ġim po
Ġrapi d
Ġcom une
Ġaf ara
ĠA f
iz are
b un
Ġmajori tatea
Ġoca zia
ĠA ÅŁa
ĠH a
Ġdis tan
Ġpersoane lor
Ġechi p
Ġaf arÄĥ
oam na
Ġ +
Ġma sÄĥ
ĠS tu
ui re
Ġvre i
co ala
ĠbÄĥr ba
de rii
Ġcu ren
Ġni ÅŁte
Ġcircul a
Ġ3 1
ĠEurope anÄĥ
ĠT ri
ine i
Ñ Ģ
for mÄĥ
Ġtrim is
tu ie
ĠsÄĥ i
tal ul
Ġcom por
ĠAd ministra
ĠAp oi
Ġm ie
s erv
Ġsem nifica
ĠF ie
Ġre tra
Ġdi fic
men tele
d erÄĥ
Ġs Ã¢nge
Ġpor no
Ġa ÅŁ
Ġul ei
Ġexp ri
Ġde vine
om en
Ġcre di
Ġsiste mului
Ġin ima
Ġprodu ce
Ġma te
ĠL o
i d
I A
ĠÃ®nto tdeauna
ta rii
Ġp rÄĥ
ti ri
ĠT u
Ġb al
Ġima gini
Ġvin de
ĠÃİn tre
Ġcan ti
rÄĥ rii
v or
p tat
Ġ ÈĻe
co alÄĥ
4 0
A m
Ġp ol
Ġobli gat
ĠE di
ĠD is
p tea
Ġob ser
x Äĥ
Ġac tiv
Ġvrea u
te re
Ġinter ven
in at
Ġcre scut
Ġ Å£in
Ġsufle tul
... ]
P ro
Ġ6 0
Ġca le
Ġm iercuri
ĠConstan tin
Ġinde pen
ĠÃ®mp Äĥ
S T
sti an
C on
in ta
Ġcore spun
Ġcu rÄĥ
Ġcre at
ste i
ta bil
Ġfran ce
Ġrepe de
Ġdum inicÄĥ
v Ã¢n
ĠRomÃ¢n e
ĠÃ®n fiin
Ġlip sa
ui rea
Ġo mului
Ġcent rul
ÈĽi al
Å£i al
Ġd rumul
Ġin tele
ĠromÃ¢ne sc
Ġsus Å£ine
ĠsÄĥptÄĥmÃ¢n i
Ġzon Äĥ
ze i
Ġleg ii
Ġpre Å£
z Ã¢nd
Ġa da
Ġf isc
Ġm erg
Ġsub stan
Ġproce sul
Ġim pl
Ġat Ã¢
veni t
Ġmodi ficarea
ĠAlexand ru
Ġprez intÄĥ
Ġo chi
Ġale r
ĠPÄĥ rin
Ġ x
Ġf rec
x a
st ina
Ġpres up
O M
L E
ĠapÄĥ rut
Ġno ul
Ġo are
Ġad au
Ġma sa
st reazÄĥ
ĠMa ria
Ġulti mii
olog ic
sta re
Ġco rec
ĠPar ti
c te
Ġindivi du
g ic
Ġapro barea
Ġk il
Ġte ra
aliz at
ĠCi te
ĠÃİn sÄĥ
Ġma s
on ia
Ġcompe ten
Ġsen ti
Ġpro a
Ġte at
ĠRus ia
Ġrez er
ĠnÄĥ scut
Ġspa ÈĽi
p le
ch ili
ĠNa Å£ional
ĠI e
ĠCa me
ĠmÄĥs uri
tion al
ci un
c la
v alul
% ,
Ġper fect
cÄĥ ri
Ġmili arde
ĠP N
Ġg lo
i stÄĥ
D a
Ġ ÈĽin
ra lÄĥ
Ġf run
teri oare
ĠÃİn tr
Ġsi gur
ÈĽe an
cti vi
ÈĽion at
ga ria
ĠO ri
Ġ za
ĠuÅŁ or
Ġcre de
ĠAnun ÈĽuri
ar h
ĠI ul
Ġd olari
Ġe la
Ġ200 9
am enta
Ġdetal ii
mi tate
g no
in Å£i
L a
_ _
ĠCent rul
Ġcaz uri
Ġdo b
ĠCa sa
Ġbu cÄĥ
Ġtransp ort
Ġaju tor
Ġim pozi
Ġple cat
Ð¾ Ð
f t
Ġsus ÈĽine
il al
Ġfunc ÈĽie
Ġl unÄĥ
Ġgrat uit
/ /
ĠG ala
Ġ y
ĠRom an
ĠE ra
ĠpreÅŁedin tele
s h
Ġche sti
Ġex tin
ĠrugÄĥ ci
ĠE a
Ġlans at
ĠMu ze
z atÄĥ
ĠT Ã¢r
Ġpre mi
cÄĥ m
Ġtrans mite
Ġace ÅŁti
ic iile
Ġspe ciale
Ġpa gina
Ġproble mÄĥ
Ġex ter
Ġin e
Ġ '
Ġno ua
Ġmuri t
Ġen gle
ĠVa sile
Ġsu por
Ġap rec
Ġconsi derÄĥ
oa sa
Ġprogra mul
Ġpar lamen
Ġre cu
ĠC Ã¢
i re
Ġpub lici
Ġie ri
Ġin spi
Ġpri mar
Å£i le
Ġte me
Ġper fec
oh an
Ġve zi
Ġiden tific
Ġli der
Ġb log
Ġimp lemen
Ġg o
ĠPri ma
Ġpublic at
Ġ ÈĽi
Ġ Å£i
ĠB ar
ĠUniversi tatea
Ġst rÃ¢n
Ġne Ã®n
Ġme dia
Ġpunc tul
c oli
Ġcomp on
spe ct
Ġcon ferin
rie re
ĠâĢ Ķ
Ġre le
d ini
Ġridic at
or k
Ġac or
Ġcole c
z vol
Ġcon cent
ĠÈ ļ
tal ia
Ġta tÄĥ
Ġe sti
ĠC ea
a gÄĥ
ĠÃ®n tor
Ġpo Å£i
Ġreprez enta
Ġinforma Å£ii
ĠUni unii
ori lor
ĠÃ®nvÄĥ ÈĽÄĥ
Ġindi ferent
Ġpl in
ĠC un
Ġbi le
Ġune ori
Ġme diul
lic ii
Ġspecta col
a Å£i
tic ul
ĠM an
Ġperson ale
ator ului
ĠMi r
Ġse arÄĥ
Ġlun gul
ĠsÄĥptÄĥmÃ¢n Äĥ
Ġexp er
Ġcate g
Ġnatura le
Ġfrum oase
v at
Ġli ce
c olo
Ġajun g
Ġte ma
Ġcom para
ne le
Ġce rut
c ului
Ġnoa pte
si te
ĠcÄĥ l
Ġpar cursul
Ġf ron
Ġtri mite
Ġf ar
Ġpen s
Å£ion at
Ġele ctor
iec te
Ġfa v
unc ii
u rat
ia te
Ġpro cu
Ġulti mele
Ġcopil ul
ce l
ĠDrag nea
Ġca b
Ġvie Å£ii
ĠGuver nul
ĠTre buie
6 0
un dÄĥ
g are
ĠS al
or din
ĠAl ba
ĠAnd rei
ĠpÄĥ mÃ¢nt
il v
o b
to s
Ġsp unea
Ġme die
Ġcon cer
Ġfa cut
Ġvizi ta
ĠAce ste
ĠAr tic
Ġmoder n
Ġdom nul
at urÄĥ
Ġz ic
Ġre mar
Ã ¡
Ġtem pera
ĠSibi u
ã ģ
Ġs Ã¢mbÄĥtÄĥ
! !
j i
b el
ci pi
u ran
ra ta
Ġist orie
Ġparticip an
Å£i t
ĠÃ®n su
Ġfunc Å£ie
ĠU l
Ġameric an
c un
t tp
Ġe ÈĻti
en s
Ġpersoan a
ĠV lad
iz at
Ġpre ce
Ġobie ctive
ÈĻ ii
re m
ĠR u
U n
or Äĥ
ĠS pe
Ġl ista
Ġcopil ului
Ġstra da
Ġimp lic
! âĢĿ
Ġpro voc
Ġm ers
ole n
ĠA gen
Ġm and
I E
oan ele
ĠEurope an
Ġreu ÈĻit
ĠS er
Ġstu dii
Ġcu p
Ġro lul
ĠPrimÄĥ ria
Ġprote j
ÅŁ tri
r y
Ġprodu sele
Ġint rÄĥ
Ġechi pÄĥ
Ġide ea
Ġe g
ĠGeor ge
Ġu ci
ĠJu sti
aliz ate
o graf
Ġspa Å£i
Ġdu h
Ġop in
Ġvic ti
Ġame ste
c ine
Ġm Ã¢nÄĥ
Ġde pozi
ĠÃ®ns o
ĠS au
g oare
. )
ĠlucrÄĥ ri
ĠT im
Äĥ n
Ġrec la
pu se
Ġrecom andÄĥ
Ġf en
ĠL ui
ĠÃ®ncer cat
Ġimportan tÄĥ
Ġdu b
ĠprevÄĥ zute
st rului
Ġsc en
Ġlup tÄĥ
de sc
Ġpier de
ent ului
Ġde ÅŁi
Ġrecun os
Ġsun te
Ġcele lalte
ĠbÄĥ n
Ġiu be
Ġsp ate
Ġmedic ale
Ġst Ã¢n
Ġdescoperi t
Ġge sti
U R
Ġle c
Ġvede m
Ġpo ten
ĠurmÄĥ ri
le i
Ġspi tal
Ġfot bal
Ġex pozi
Ġde loc
ÈĻ tri
Ġaceea ÅŁi
ste le
Ġb una
Ġanun Å£at
a inte
n at
: //
ĠTimi ÈĻ
Ã® nÄĥ
Ġnu mit
Ġinter net
ĠcÄĥ sÄĥ
ok ie
ÈĽ ea
Ġdomeni u
te fan
Ġden umi
Ġcau zÄĥ
Ġ 00
Ġartic ole
Ġaf i
Ġcul oare
Ġim pa
ĠgÃ¢n di
ĠBise ricii
ĠP on
Å£ ea
ĠNa ÈĽional
Ġs Ã®nt
ĠcetÄĥ Å£
Ġp al
Ġapro pie
Ġref u
ĠCon stitu
Ġsim il
don an
ÈĽi le
s on
ie ri
C E
ĠÃ®nd rÄĥ
ĠlÄĥ sat
Ġg hi
c ina
Ġfamil iei
2 2
p Ã¢n
sti t
ĠMiniste rului
ĠLe gii
Ġp ana
Ġse si
tro p
l im
se scu
ĠpÄĥ cate
Ġmun ca
oa ie
Ġst r
m os
Ġav anta
Ġab ia
Ġju cat
ĠvÃ¢r sta
Ġv en
Ġal tul
Ġne ga
Ġoferi t
Ġutiliz area
ÈĽi t
st ului
âĢ ŀ
ĠRepub licii
de oc
Ġad res
Å ŀ
l ii
ĠP Ã¢nÄĥ
zi le
ĠSfÃ¢n tul
Ġfi zice
ĠP ute
Ġin ti
ar t
rim oni
ĠP la
ĠMe dic
Ġprop riu
ĠEx istÄĥ
Ġs tarea
d ate
Ġ19 4
ĠÃ®ntre g
Ġva can
ĠcuvÃ¢n t
Ġsan c
ĠServ ici
c al
ĠB er
Ġera m
Ġfil me
ĠstrÄĥ inÄĥ
ĠS ta
Ġcompan iei
Ġfinanci are
I S
Ġf lori
u ma
ĠAd rian
ÈĻti a
Ġw ww
Ġreu ÅŁit
Ġ200 8
duce rea
re lor
ĠÃ®nch ei
Ġce ilal
ĠOr gan
l ului
Ġvor bi
Ġtra tament
spec tor
Ġsp atele
ĠPN L
Ġn ord
Ġproce du
19 9
ohan nis
r t
v ent
ĠarÄĥ tat
Ġfi u
Ġrezi sten
Ġlun ii
ĠTe at
Ġre vi
ĠÃ®mb rÄĥ
Ġse zon
b ii
Ġtrans mis
Ġcur sul
Ġad ul
ol ului
us ine
ĠÃ®ntÃ¢l ne
ĠRa du
Ġc alitatea
Ġdrago ste
ĠmÃ¢n a
Ġim i
ĠC rÄĥ
ĠP ia
Ġconf run
Ġstu diu
Ġmi ÈĻ
ci o
h one
ĠW e
Ġcondi Å£iile
ĠpÄĥ re
Ġnorm al
Ġdep une
se ÅŁte
Ġmi ÅŁ
Ġf ur
Ġasc un
Ġc lub
Ġacci dent
I V
ĠÅŁti e
ĠC an
Ġd ul
Ġspeci fice
Ġpar cÄĥ
Ġdrea pta
Ġloc a
ĠE duca
da cti
Ġsta tul
Ġstabili t
Ġo a
Ġmin un
S e
ĠT ru
Ġp il
Ġt ro
m or
ĠfÄĥ cute
Ġde ÈĻi
Ġf ri
201 7
ĠP al
Ġob ÈĽine
Ġjude Å£ul
ĠR ea
Ġpo vesti
l oace
ia zÄĥ
Ġleg ea
Ġserv iciile
Ġconfor mitate
Ġco ordon
Ġinte li
sa ra
Ġv rut
Ġb ur
ĠÃ®ntre prin
Ġvi r
ru s
Ġtra se
tea ptÄĥ
ĠM ate
ÅŁ ul
re ze
Ġmuz icÄĥ
ie ÅŁte
2 1
tan t
Ġdez bate
im ea
ĠUni unea
Ġpre ÈĽ
ĠC E
Ġpartici pa
ĠÃ®ncre dere
zÄĥ ri
Ġf ruc
ĠS or
Ġc ru
Ġca f
ĠromÃ¢n eascÄĥ
ĠdesfÄĥÅŁ ura
Ġfa ra
Ġm anu
Ġv ala
Å£ inÄĥ
j ului
Ġorganiz area
ĠB Äĥr
Ġdem ocra
ĠS un
Ġcon clu
a ta
Ġcon ce
Ġde stina
e k
Ġvi goare
Ġvi te
Ġ5 00
usine ss
Ġcarte a
Ġrec ent
R L
ĠT ine
den te
ĠZi ua
Ġreli gi
Ġg ri
Ġcondu s
bu z
Ġfolosi te
ĠTimi ÅŁ
ĠT ele
Ġvi olen
m ine
Ġ *
ce va
Ġdi pl
de lor
ĠU S
si oni
ĠOr todo
Ġf lu
ĠÃ®mp lini
gh el
ĠRe gi
ĠMun icipi
ĠÃ®n cu
ĠS up
Ġs tate
Ġanim ale
Ġavea u
ie rÄĥ
ĠMir cea
p iscop
sc ri
Ġpers pe
gu ra
ĠComis iei
Ġsoci alÄĥ
Ġec ran
Ġm eni
Ġsim t
Ġe chili
Ġ #
Ġmic ro
pÄĥ r
en d
g um
Ġmana ge
ð Ł
u alÄĥ
Ġri sc
l un
ĠÈĻ an
ĠcetÄĥ ÈĽ
che t
Ġmij loace
Ġsemn at
Ġtine re
Ġin s
ĠI atÄĥ
È ĺ
Ġre fle
Ġpl inÄĥ
Ġs oli
mi se
re ia
Ġde gra
ĠI ohannis
2 3
Ġima gine
Ġla sÄĥ
Ġrealiz area
Ġcerce tare
Ġne p
cti on
che te
ĠpÄĥ rÄĥ
Ġdeter min
Ġnoa ptea
ĠS en
Ġra port
Ġlup ta
ĠFin an
rea u
Ġcomp ania
Ġcla sa
Ġ ier
Ġci tit
Ġluc ra
to c
ĠT Äĥ
ĠComis ia
ĠI talia
Ġsingu ra
oni ce
ĠS t
ĠCau t
Ġ zÄĥ
Ġexce len
Ġze ce
Ġsufle t
Ġace lea
Ġad Ã¢n
ĠIa ÅŁi
Ġrealiz ate
Ġconf lic
e d
Ġgrij Äĥ
Ġva c
Ġdirec tor
Ġpo artÄĥ
Ġmo artea
ĠCrÄĥ ciun
ĠÃ®n vin
ÈĽ are
Ġmemb rii
Å£ ului
Ġobie ctiv
Ġfost ul
ĠD or
Ġz one
pu ta
.... ....
Ġpu tin
ĠD NA
ÅŁti lor
ĠAca dem
c inÄĥ
Ġcompan ii
R A
Ġpre veni
on ului
Ġvor bit
for mat
Ġsiguran ÈĽÄĥ
Å ¢
g rÄĥ
ĠA i
Ġaceea ÈĻi
Ġcontin ua
oa le
Ġin im
Ġpoli Å£i
b ri
Ġbuge tul
ĠA ici
ĠcÄĥr ora
Ġsim bol
ĠS an
ĠÃ®n loc
olog ia
Ġ[ ...]
ra r
Ġca se
ĠbÄĥ trÃ¢n
Å£ area
Ġprop ria
Ġ >
ĠLi viu
ĠVic tor
Ġpotri vi
cu ren
Ġdo rit
Ġmini strul
Ġh ttp
Ġs tre
st ro
Ġt ul
ĠÃ®ncÄĥ r
ĠN ord
ĠplÄĥ cut
Ġeurope an
Ġau zit
È ļ
Ġre al
Ġna Å£ional
Ġprive ÅŁte
Ġcer tific
ĠA si
Ġe ÅŁti
h ic
ĠC ol
b y
Ġe mis
Ġ19 7
Ġb uni
Ġcunoa ÅŁte
Ġsu ma
is us
Ġme i
Ġtimp ului
Ġre alitate
Ġservicii lor
ĠJude Å£ean
Ġ ÅŁedin
Ġf im
si bil
ÈĻ ul
ĠA g
Ġap licÄĥ
Ġca do
Ġve ÈĽi
Ġproble mele
op ul
ĠÃ®n ve
Ġpici oare
ĠcÄĥr uia
ĠP ol
oam nÄĥ
Ġfrum oasÄĥ
ĠDe zvol
in Å£e
ĠA re
ĠÃ®ntÃ¢mp lat
Ġconta ct
Ġga z
Ġin ca
ĠA ve
Ġintro du
Ġc entru
Ġm oni
Ġlo vi
po st
Ġb ate
Ġsu feri
la te
Ġpracti cÄĥ
Ġpove stea
fe re
ĠÃ®nce arcÄĥ
zÄĥ tor
Ġpetre ce
p une
ĠÃ®nain tea
ri o
Ã¢n di
Ġconside ra
b ie
Ġdeci zia
Ġ Å£a
Ġsu te
Ġlum ina
Ġsta u
Ġ3 5
ÅŁ u
ĠÈĻti e
ĠÃ®ntÃ¢ i
en z
Ġauto turi
Ġeconom ice
Ġdeose bit
ĠB ritan
Ġsc o
Ġsusp en
cti va
Ġp ui
T A
ĠB al
Ġjude ÈĽul
Ġob serv
Ġtele vizi
ĠÃ®nchei at
ÈĽ inÄĥ
Ġsprij inul
ter na
Ġpo atÄĥ
Ġs tic
Ġal co
ĠÃ®ndepl ini
og le
ali st
Ġspiri tu
Ġsp ort
Ġproduse lor
Ġcat re
ome tri
ĠA N
ĠB el
Ġa titu
Ġde za
Ġreferi toare
u c
ĠI st
Ġop ti
ĠM il
ar u
ĠplÄĥ ti
ta tii
ic le
Ġconse cin
ge m
S C
Ġper mis
ma le
Ġin cep
Ġco rect
Ġave ÈĽi
ĠCur tea
Ġdesi gn
Ġprelu c
Ġ8 0
Ġcon ÅŁti
ĠCra i
Ġdisponi bile
Ġa gre
Ġs om
Ġo port
ĠI u
Ġa spect
ĠÃ®nregi strat
Ġinclu de
Ġfin alul
Ġmon dial
Ġvii toare
c tul
Ġsen sul
Ġsub iect
fici al
ĠA le
Ġj ur
Ġalt ceva
Ġluc reazÄĥ
ĠrÄĥ sp
ĠG h
Ġsti mul
Ġde rul
Å£ are
Ġel imin
ĠS h
Ġocu p
Ġ200 7
ne scu
Ġcur Ã¢nd
Ġvia ta
Ġcompan ie
P e
ĠÃ®nd rep
Ġsufici ent
si unii
se s
ÅŁedin tele
in t
Ġcul ori
oa ta
om in
ĠCon form
d ro
Ġ Q
Ġschim ba
Ġam ena
Ġfac ili
ĠGa brie
rin a
ĠAu tori
âĶĢâĶĢ âĶĢâĶĢ
ĠdesfÄĥÈĻ ura
Ġo rele
Å£i unile
Ġdi dacti
Ġmateri al
Ġa ur
Ġ ii
Ġsc ena
ĠÅŁ col
b rÄĥ
Ġre ce
Ġspe ran
Ġb oli
Ġnume roase
s ului
ce pe
Ġam bele
Ġcateg oria
ĠV I
o sc
ole sc
2 7
2 8
Ġc Ã®nd
z u
C a
tuie li
Ġdo cum
Ġm oldo
Ġto p
Ġpreci zat
% .
Ġin ven
ti le
Ġtrebui a
Ġsitua Å£ia
Ġmul tor
ĠÃ®nto c
Ġca lea
ĠÃ®n Äĥl
Ġre stul
Ġprive ÈĻte
Ġ ðŁ
ĠArtic olul
ĠPro du
Ġechi pei
ĠV or
Ġmijloc ul
Ġneces arÄĥ
Ġpa gini
mÄĥ nÄĥ
Ġab ord
Ġrezul tatele
ĠAra d
b inte
Ġexp lica
Ġin terior
Ġm il
Ġme ta
Ġmode le
Ġci te
mÃ¢n tului
Ġ7 0
ĠDe si
ĠDu h
Ġpub lica
Ġn on
ĠpÄĥ stra
Ġme can
to p
Ġprop us
Ġv inÄĥ
ĠN Äĥ
al l
x x
Ġartic olul
Ġcir ca
ĠmÄĥr turi
ĠpreÈĻedin tele
zÄĥ toare
Ġpaci en
Äĥ ri
ĠFie care
Ġpla ta
Ġe fect
Ġun ic
Ġlum inÄĥ
Ġca pÄĥ
sta rea
ÅŁi tul
Ġca pul
fic ate
ru ri
ĠB la
Ġfolo sesc
g ale
Ġele mente
ĠIs us
is tat
al og
ĠF lor
ĠU cra
ti lor
Ġav ans
ĠcÃ¢ mp
Ġj oacÄĥ
Ġmo arte
o pera
Ġtur ne
Ġv arÄĥ
Ġad mi
gre di
2 6
o fer
Ġna Å£ionale
Ġalim enta
de ri
ĠMi ha
Ġnor oc
ri ul
por tul
Ġcom una
s eascÄĥ
Ġconduce rea
ĠI isus
Ġpriete ni
Ġfrum use
Ġele vi
Ġavea m
Ġfinanci ar
Ġm inte
Ġschim bat
ĠA mb
ĠM oni
ĠI N
Ġga ta
Ġprocu ro
ĠSÄĥ nÄĥ
ĠB ul
Ġresta uran
Ġparti d
Ġad olesc
ĠDa ca
deoc lip
ĠmÄĥs ura
Ġcondu cÄĥ
Ġvre un
ĠIa ÈĻi
Ġul terior
Ġbucu rie
ÈĻ u
ĠS oci
ĠÅ£a ra
Ġia u
Ġta ri
Ġjude catÄĥ
Ġcre ÅŁtin
e zi
ĠF C
on dul
ĠFa cul
Ġpl Ã¢n
Ġpute Å£i
Ġs oare
Ġbol na
Ġmom ente
ĠtrÄĥ i
Ġcor up
op erÄĥ
Ġob Å£ine
Ġsc oate
Ġzil nic
ĠL um
ĠCun oaÈĻte
Ġvie ÈĽii
od ul
ĠE conom
Ġnatura l
ĠÅŁ an
Ġju ca
da ta
ri tate
ĠM A
Ġabsol ut
Ġteritori ul
o si
l atÄĥ
il ia
ĠAn ul
8 0
ĠS tat
s amb
in are
Ġgra de
Ġsocie tate
Ġcomunic at
e ri
Ġrezul tat
ÈĻti lor
Ġav er
w are
AT E
I M
ce le
ĠO am
ĠÄĥ sta
Ġcom pa
on at
ĠP er
ĠDo ar
Ġafla te
ici p
Ġto talÄĥ
Ġl ing
re e
Ġu mp
Ġze ci
are le
or at
de p
Ġ9 0
ÅŁ ov
Ġfiind cÄĥ
Ġ Ġ
ĠsÄĥ vÃ¢r
Ġum ane
Ġs lÄĥ
ĠJ a
ĠS ch
ge le
Ġevi dent
M a
ĠS RL
Ġbene fici
ĠCre d
Ġpre fe
k er
din g
p oi
Ġcandi da
Ġc Ã®
ĠG ra
ĠÃ®ncer ca
Ġal Å£ii
ĠAce stea
in ÈĽi
ĠtÃ¢nÄĥ r
b en
ĠS tra
Ġgu st
Ġdez vÄĥ
Ġpoli ÈĽi
Ġa stea
Ġne con
Ġpracti c
Ġconstitu ie
sti ci
din ea
Ġsu d
Ġfond uri
ĠcumpÄĥ rÄĥ
Ġfe stival
olog icÄĥ
ti u
ĠcÄĥ reia
Ġexperien ÈĽÄĥ
g ru
Ġcomple tarea
ĠN or
ĠstÄĥ pÃ¢n
de s
ĠPon ta
Ġmunicipi ului
ĠÅ£Äĥ rii
Ġdeschi de
um b
Ġexam en
ĠNa Å£ionalÄĥ
d iile
ĠBÄĥ sescu
Ġpre sa
Ġver de
l uri
Ġ ÈĽa
ĠE venim
Ġvi cep
ĠFe mei
Ġmemb ri
Ġad un
ĠTo tu
ov ie
ĠS ol
cÄĥr ui
Ġechi pe
Ġre gÄĥ
ĠNa Å£ionale
Ġh e
uri i
Ġpen al
O L
Ġconduce re
ÈĽi unile
i ra
Ġide i
Ġvol un
ĠromÃ¢n ii
Ġprofe sioni
âĢľ .
Ġa ro
ĠoraÅŁ ului
ĠÃ®nto arce
lal t
Ġdrep turile
ĠlÄĥ sa
ĠP en
ĠSe c
Ġcu mp
ĠNe w
Ġin ci
ve ghe
Ġextra ordin
ĠG ri
Ġinteri orul
Ġc m
2 9
Ġar un
n t
Ġat mos
a d
Ġtit lul
Ġci f
en ÈĽÄĥ
Ġtotu ÅŁi
Ġcon stan
ĠIn forma
Ġdi gi
Ġd ans
ĠÃ®nde pÄĥr
gi ul
ur g
Ġd ie
Ġb ru
Ġleg ale
ĠstrÄĥinÄĥ tate
Ġd r
ĠfÄĥ cutÄĥ
Ġre st
uri a
Ġspeci alitate
Ġfe te
ĠÅ£Äĥ ri
s o
Ġcunoa ÈĻte
Ġco okie
Ġfor me
ĠS C
Ġamin ti
Ġpie le
tu a
Ġdi stin
ĠAp ro
Ġoport uni
Ġcele i
Ġin sul
aliz a
ÈĻ n
ament ului
l on
ĠAr t
ĠÃİ mi
Ġcomer ciale
Ġev ent
lu ci
Ġar gum
ĠTra ian
Ġsele c
ĠÈĽÄĥ ri
Ġprim arul
d urile
lea zÄĥ
Ġvol um
Ġe va
Ġta len
Ġar tÄĥ
h icul
g ne
ĠS ocie
ĠHo tÄĥr
ic h
i ul
Ġamena j
g inÄĥ
Ġcomunic are
al tÄĥ
ĠDan iel
P entru
ie rii
Ġna ÅŁte
ĠH e
Ġpa sa
l area
ĠS o
ĠÃ®ntrebÄĥ ri
ĠD rep
z utÄĥ
P o
Ġmuz ic
ĠCamp ion
ne i
ĠS A
Ġsocie tatea
Ġanun ÈĽat
ĠLu c
Ġpl im
ĠChi ÈĻ
Ġlic hi
Ġc ic
Ġa ÈĽi
Ġsing urul
m are
Ġinter ne
Ġprofes or
ĠCri stian
Ġsecuri tate
pe scu
Ġfen omen
Ġ4 5
Ġsa tis
Ġcerce tÄĥ
ĠromÃ¢n ilor
ĠEurope i
ze lor
Ġfi x
Ġcondi ÈĽiile
ĠÃ®n con
Ġdom ic
si unile
Ġro g
ĠT h
Ġpresup une
en Å£Äĥ
v ar
Ġelev ii
u ter
ĠCon tin
Ġf use
ind ic
Ġor dine
in ÈĽe
Ġinte g
c ci
Ġna ÈĽional
Ġg h
Ġ ÈĽine
si ona
ĠV al
Ġt h
Ġgra v
Ġsen za
cÄĥ u
Ġsu ge
re l
Ġcondi Å£ii
Ġchel tuieli
Ġex pres
Ġn aturÄĥ
Ġno ÈĻtri
Ġdura ta
Ð »
. "
ĠaceÅŁti a
ĠD oamne
ÅŁ n
on ale
ĠSu b
i u
ri arh
m uri
ĠI II
Ġar ma
Ġi tali
ĠP rim
ĠrÄĥ ni
Ġneg ru
Ġm unci
ĠPa ris
Ġvorb im
y a
p entru
ĠMe dia
Ġdo va
ĠÈĽa ra
Ġsupl im
Ġrela x
Ġocu pÄĥ
Ġdos arul
ra struc
Ġdis cip
ĠGo ogle
Ġtre buit
ĠB og
gi t
ici ta
Ġfemei le
Ġalege rile
ĠMunicipi ului
Ġstra dÄĥ
Ġm at
Ġuti li
Ġdocu mente
k o
Ġâ Ĩ
C u
Ġan terior
Ġactivi tÄĥÈĽi
Ġ rul
Ġ ÈĻedin
c ie
Ġperi col
Ġca ri
Ġcaf ea
Ġ =
ĠA na
ĠMuze ul
Ġfap tului
Ġan che
Ġb ic
Ġuni vers
Ġmini stru
N ap
Ġeconom icÄĥ
Ġpri ori
Ġvii torul
Ġf is
Ġdoc tor
Ġsitu at
vi ce
ĠBucure sti
Ġmanife stÄĥ
Ġimpre sion
C om
q ue
ĠPro iectul
ĠN ea
and ar
c ilor
Ġtre ia
ĠT er
co v
ro p
ĠurmÄĥ toare
ta la
Nap oca
Ġcolabor are
Ġ Å£ine
Ġp ron
Ġloc ului
Ġdirec torul
z onul
Ġela bor
uz at
ĠI lie
ĠIn spector
s me
Ġlin k
ĠProgra mul
ic u
Ġprin cipi
Ġmin tea
Ġlun gÄĥ
ce sul
Ġju dici
tin a
ĠDe spre
Ġacord at
Ġpl atÄĥ
Ġde pl
Ġl at
as upra
Ġm er
b atul
Ġcultura l
Ġop ri
Ġvo ie
ĠParlament ului
Ġiubi re
ĠÃ®nchis oare
ĠRe gul
4 5
ĠsÄĥrbÄĥ tori
Ġcuprin de
Ġconside rat
Ġs tea
Ġcamp ion
Ġs on
ca le
ĠÅŁe f
cti e
ĠJude ÈĽean
Ġurgen Å£Äĥ
Ġde le
ume sc
si ve
ĠsfÃ¢r ÅŁitul
Ġfi ul
Ġsitua ÈĽia
b erÄĥ
Ġobser va
Ġadu c
ĠÈĻ col
ĠTimiÈĻ oara
ĠCod ul
0 5
U N
3 5
Ġorganiz eazÄĥ
c le
e lor
ĠÃ®nsc rie
ruc Ã¢t
ĠS ala
ĠS tatele
Ġstruc tura
Ġdeci zie
à ¸
Ġva dÄĥ
li an
Ġcuno sc
Ġa tat
ge rii
Ġc oc
Ġde asupra
ĠCul tura
ci an
re scu
ĠRomÃ¢n Äĥ
g ent
Ġve Å£i
ĠOra dea
Ġdos ar
ĠCrai ova
ĠFe dera
d al
e s
li t
Ġdeter m
Ġb ro
ĠP arte
gu rÄĥ
Ġsus Å£in
ie ÈĻte
Ġ3 00
ĠCer ce
g Ã¢nd
Ġacu mul
ĠoraÈĻ ului
ho w
ĠromÃ¢ne ÅŁti
Ġap ara
oan a
gh t
Ġz bor
ĠPri mul
ÈĽ area
ĠG Äĥ
Å£ion eazÄĥ
ĠS tan
Ġpri le
ĠVi deo
Ġprogra me
Ġc lic
Ġvo t
au a
O S
Ġdi stra
ar gÄĥ
se l
Ġop t
] .
Ġprezen tate
tiv ul
Ġme se
Ġmesa j
Ġi le
0 9
ĠFlor in
Ġoferi te
ĠÃ®mbunÄĥ tÄĥÈĽi
Ġfa cul
Ġloc alÄĥ
Ġcon ÈĻti
s erÄĥ
Ġsal v
Ġprece dent
Ġvorbe sc
Ġdomic ili
ĠO p
Ġdin colo
ĠLoc al
Ġapro pi
b ar
ru r
Ġeconom ic
Ġcon cre
ĠM in
Ġcame re
Ġcar ne
lan da
Ġaplic are
Ġa ÅŁe
Ġpreo cu
ti ma
Ġdis pu
ĠIs ra
Ġexp lo
el ul
Ġsc riu
Ġfrec ven
ĠS am
Ġmunicipi ul
Ġciu da
Ġ ic
Ġtre n
er t
Ġsiguran Å£Äĥ
Ġm uncii
Ġde bu
Ġcom en
cea scÄĥ
Ġ19 6
Ġprof il
ĠpÄĥ cat
Ġstan dar
Ġn un
Ġcultura le
b ro
Ġten din
Ġsur se
ĠÃ®na poi
Ġafir ma
Ġdu c
ĠâĢ ĺ
vin tele
Ġm one
Ġcere rea
ĠV er
Ġtul bu
Ġpl ane
ÈĽ ului
ier ului
ÈĻ Äĥ
Ġin cen
mi tÄĥ
ĠlucrÄĥ rile
r Ã¢
ilv ania
Ġintele c
w e
Ġfiz icÄĥ
Ġsu tÄĥ
Ġru tier
dic a
Ġistori c
ĠRe g
Ġactivi tÄĥÅ£i
C e
Ġnu m
Ġjoc ul
ĠM er
Ġal imentare
ĠgÃ¢n dit
Ġcontex tul
Ġloc alitatea
201 6
Ġsprij in
sÄĥ ri
Å£i unii
Ġtip uri
Ġocu pa
pa rat
m atÄĥ
Ġcon curen
Ġcon stitui
Å£ia le
Ġreg lemen
Ġcons oli
Ġconstr uit
ĠM ure
Ġie ÅŁi
ĠÃ®nal tÄĥ
II I
n ii
din a
Ġsta tu
s uri
Ġarhi tec
o riei
Ġinsta la
Ġpe dep
ran j
for me
Ġrecun oa
ĠÃ®mp rum
Ġinvi ta
ĠmodificÄĥ rile
ĠI ma
Ġdev inÄĥ
ĠV ol
Ġfil mul
Ġs at
Ġa ero
Ġmoni tori
Ġcul turÄĥ
cun os
Ġcondi ÈĽii
re z
Ġcopil Äĥ
Ġac te
Ġpre lun
Ġprin s
ĠM ana
ĠBra ÅŁov
M i
ĠO N
Ġele gan
Ġre da
Ġurm Ã¢nd
ĠA stÄĥzi
Ġprogra mului
Ġza h
ĠGenera l
Ġcent ral
to f
ĠP i
ĠB un
Ġcuren t
Ġrezul tatul
ĠcreÅŁte re
Ġdec at
Ġtotu ÈĻi
Ġb lo
devÄĥ r
Ġalim ente
ĠÃ®nt une
Ġsimp lÄĥ
ĠmÄĥ n
E D
Ġade sea
one scu
Ġau ten
ĠPers oane
ĠbÄĥ ie
ĠTo todatÄĥ
ĠÃ®ntre bat
Ġ200 0
ĠP rea
ĠÃ®mpÄĥr tÄĥ
n ia
w a
Ġo di
ĠpreÅŁedin te
ĠÃ®mp ie
Ġvo ia
to re
ĠD unÄĥ
Ġme m
I L
ĠrugÄĥ m
ĠLi ga
U S
Ġcon stÄĥ
Ġal ba
Ġda i
Ġno ÅŁtri
de l
Ġt rup
Ġor todo
Ġspeci alÄĥ
Ġal terna
A M
7 0
ÈĻi tul
Ġiar nÄĥ
Ġsur pri
-- --
Ġima gin
Ġcredin cio
Ġcapaci tatea
ĠV as
ni re
ĠmÄĥ ri
ĠcÄĥr ÈĽi
ĠPe tru
N e
Ġal ÈĽii
R om
Ġpie se
to riei
f f
Ġpia ÈĽa
Ġprieten ii
ÅŁ Äĥ
ie ÅŁti
sti valul
Ġc ui
Ġperson alÄĥ
Ġcor pul
Ġsc os
Ġresp in
Ġb ut
Ġconte mpor
Ġno p
Ġtra ge
e scu
ĠSu d
Ġm Ã¢nd
Ġg al
A C
Ġbi bliote
Ġelect rice
Ġputer nicÄĥ
il l
se din
g area
ĠcÄĥl du
Ġdeci zii
Ġap u
ÈĽia le
Ġprofesion alÄĥ
im na
pre n
Ġg rea
Ġimp lica
re me
Ġsupl imentare
Ġme diului
ĠcreÈĻte re
Ġo arÄĥ
g ate
ĠL ond
sp o
Ġcau tÄĥ
Ġc olo
Ġa Å£i
Ġie f
ĠL au
ĠÅŁa se
Ġintra rea
Ġefectu ate
Ġpie lea
Ġpublic ului
DE O
ĠChiÈĻ inÄĥu
ici t
Ġim pres
Ġba ie
Ġac t
si vÄĥ
Ġin fec
ĠPre ÈĻedin
cÄĥ rii
Ġcum va
Ġp unÄĥ
Ã ¾
Ã¢n t
k y
Ġs Ã£
iz e
ĠChi ÅŁ
Da cÄĥ
ĠF lo
Ġ3 6
Ġfisc al
ĠP D
Ġcre area
Ġprevede rile
Ġmuz ica
Ġima ginea
ĠR i
sp Äĥ
g ar
Ġtran za
v ista
Ġteat ru
Ġduh ov
Ġn en
ma ticÄĥ
Ġpartici pÄĥ
Ġaplic area
re d
Ġie ÈĻi
Ġteh nic
Ġfe min
p s
ca ta
vi d
Ġbucu ra
0 3
Ġtre cutÄĥ
ã ĥ
en Å£a
Ġin sa
Ġjuri dice
on iale
Ġpu se
u ta
Ġsec torul
Ġen erge
ĠÈĽÄĥ rii
Ġan ual
ĠcÄĥr ui
Ġcontro lul
ĠP l
ĠTimiÅŁ oara
Ġedi ÈĽie
Ġbine cu
Ã Ĥ
os ul
fi r
Ġdisp une
Ġbise ricÄĥ
Ġpi at
Ġdedic at
ĠI T
ĠMoldo vei
ĠDe ÈĻi
sti e
en ÈĽa
h ie
ĠE chi
Ġme di
ĠgÄĥ sesc
Ġpetre cut
Ġcon stru
sÄĥ ricÄĥ
Ġin va
Ġape i
ron ic
Ġperi cul
amenta le
ĠcÄĥr or
Ġkil ometri
C R
d ui
Ġri t
ori u
Ġcom pozi
c ord
Ġv ar
ti erÄĥ
Ġteh nice
Ġprofesion al
cu rilor
Ġdi f
ĠCa ra
Ġfe ti
ri d
Ġapro bat
Ġunde va
Ġva ra
Ġsus ÈĽin
ĠpregÄĥ tit
Ġglo b
Ġra dio
Ġsf in
ĠrÄĥspun de
Ġpo ze
ĠoraÈĻ ul
Ġfotograf ii
ĠBritan ie
Ġui tat
Ġe fe
Ġace ÈĻtia
Å£i unilor
Ġv ul
Ġcomb ina
Ġin gredi
va ra
ci te
ĠPa ul
ale a
Ġalege rea
ĠD ia
Ġindu stri
9 0
Ġs atul
aliz atÄĥ
Ġprez entÄĥ
ĠCh ina
Ġutiliz are
ber t
Ġparteneri at
Ġadau gÄĥ
ĠBog dan
Ġprez ente
cÄĥ rei
Ġide e
bre ve
Ġgenera lÄĥ
Ġcam erÄĥ
Ġmar Å£i
Ġmagaz in
rim oniale
ĠUn ul
ĠTrans ilvania
Ġan ilor
V I
Ġpia Å£a
Ġul terioare
hic ule
ĠPa vel
rÄĥ m
w n
Ġta b
Ġh Ã¢r
ĠPo pescu
ke ting
Ġna ÈĽionale
Ġad re
Ġmedic al
Ġsta ti
Ġm area
Ġne re
Ġvre odatÄĥ
Ġmu ze
Ġcapi tal
Ġl icita
ĠGuver n
ĠÃ®ntÃ¢lni t
ĠMari us
Ġide al
Ġpromov area
a breve
Ġpron un
Ġna ÈĻte
ĠIul ia
Ġmar cat
ol Äĥ
Ġrealiz a
tri vÄĥ
Ð º
Ġd ic
Ġcame ra
Ġpro v
ÈĽion eazÄĥ
Ġmeri tÄĥ
Ġstan d
Ġlo g
0 4
ĠPrin tre
âĢ ĵ
Ġe ti
ĠmÄĥ nÄĥsti
gi stra
Ġsec olului
Ġco d
umi t
Ġveni turi
Ġre volu
deoclip uri
re ea
ver sa
Ġlimi ta
Ġengle zÄĥ
ĠM Ã¢n
Ġvir tu
ĠG ro
Ġajun gÄĥ
Ġapro pia
Ġprodu c
ĠBi ro
Ġre Ã®n
âĢ ĳ
Ç İ
Ġ ran
ex i
ĠOr donan
Ġorganiz ate
Ġfruc te
Ġsu ferin
Ġprevede rilor
tea za
Ġd Äĥr
Ġne t
201 5
ce ri
Ġpia ÈĽÄĥ
Ġacce sul
Ġrespe ctive
Ġmeci ul
t ini
Ġdia gno
Ġre veni
3 3
ĠF unda
di an
ĠP lo
se c
ĠU N
ÅŁi lor
Ġzon ele
Ġde ge
fic atÄĥ
ĠInstitu tul
or m
Ġin cre
sti a
Ġan samb
ptÄĥ m
ĠTV A
ĠPe ste
Ġinform eazÄĥ
Ġprop rii
Ġwe ek
ĠG rat
Ġechili b
Ġcontract ului
Ġdrep turilor
ĠpÄĥ rea
v is
Ġcu ra
Ġmaj or
Ġsec olul
ap one
ĠcuvÃ¢n tul
uz ia
ÈĻ ov
ĠSi te
p h
Ġp lu
ĠÃ®ntÃ¢lne ÈĻte
ĠmÄĥn Ã¢n
E ste
ĠH ar
ĠÃ®nt ru
A ce
Ġpo ti
. [
f on
ĠG re
in ci
Ġb ul
Ġ uria
Ġbise rica
Ġep is
Ġi ti
0 7
0 6
Ġpro cur
ĠG rec
l d
ci t
tu rat
Ġdegra bÄĥ
Ġcaz are
Ġefec te
Ġ19 5
scÄĥ r
Ġluc rat
an tul
ĠC am
ĠsfÃ¢r ÈĻitul
gu re
Ġmemb re
ĠMÄĥ nÄĥsti
uia scÄĥ
ĠNa ÈĽionalÄĥ
ĠMa ma
ĠC ate
ĠIn te
Ġmar ca
Ġre pro
ĠEdi tura
ĠI mp
ĠVale a
ĠSfÃ¢n tului
Ġmode lul
o z
ĠB ru
Ġa feren
an ii
graf ie
ĠÂ ·
Ġinf rastruc
Ġta x
Ġ )
inte i
Ġla pte
Ġtex t
g or
Ġre con
ĠI S
Ġinter n
ĠPe tre
ĠâĨ Ĵ
Ġproprie tate
Ġcu vintele
Ġac tive
se ze
Ġsp unÄĥ
ĠP u
Ġsim ÈĽi
Ġel im
Ġci oc
Ġbe be
ta rilor
Ġcom and
Ġz Ã¢mb
Ġcri tic
Ġ200 6
Ġv Ã¢ndu
in Å£ei
ĠSi ste
Ġsp er
Ġtine rii
Ġdrep tate
b on
o ti
bil a
Ġsprij ini
ĠUn garia
Ġprofesion ale
Ġinter zi
ĠO ficial
Ġape l
Ġtele viz
lÄĥ lalt
ĠA pÄĥ
Ġeurope anÄĥ
Ġs te
Ġimpa ct
Ġsupra vie
Ġc ro
ĠAu to
v inÄĥ
d or
g on
ĠT ud
Ġexp licat
m area
Ġatri bu
Ġcomple x
ni ÈĻ
Ġva ria
ĠPre ÅŁedintele
Ġrecu pera
ate lor
Ġcunos cute
ĠÃ®nt rucÃ¢t
ĠtatÄĥ l
Ã¢ i
oan Äĥ
Ġsupra veghe
ĠDe ÅŁi
Ġu z
Ġcuno ÅŁtin
Ġcorp ului
f al
ĠarÄĥ ta
ĠgÄĥ z
ĠFÄĥ rÄĥ
Ġam bi
Ġimp une
ĠpÄĥ tr
Ġp ul
Ġutiliz ate
ĠM or
ĠAs ia
Ġindu stria
ĠÃ®nal t
ĠC en
Ġle gu
ĠstÃ¢n ga
ĠMon dial
Ġin si
ĠCS M
ã Ĥ
lau s
ĠAve m
ĠCe ea
Ġa ia
Ġse min
am en
ĠG hi
Ġb ritan
Ġscen Äĥ
ĠtrÄĥ iesc
ra Å£i
Ġexclu siv
g ran
Ġob iecte
ĠmÃ¢n tui
ĠS at
che tul
ĠMo sc
Ġreduce rea
ĠbÄĥ u
am o
ĠcreÅŁte rea
ĠcreÈĻte rea
feren du
ĠÃ®ntor s
ĠMoni torul
ĠoraÅŁ ul
un ul
Ġmili tare
Ġi si
Ġjurn ali
pÄĥ rat
va le
um at
oi u
Ġar unc
Ġefici ent
Ġaj ute
Ġre uni
Ġb l
Ġfav ori
Ġpro vin
Ġsc or
Ġcuno ÈĻtin
ĠÈĻ coalÄĥ
ĠZ ile
Ġpar ticul
Ġa ci
Ġdis pÄĥ
ĠatÃ¢ ta
Ġca ta
Ġa ra
ĠIsra el
Ġp r
o ve
ĠParla mentul
ne sc
Ġcon ÈĽin
Ġnor ma
da ri
Ġp Ã¢
Ġperman ent
ĠTru mp
of t
Ġpla s
ĠCop ii
A n
s ol
Ġcon ec
ĠSf in
mi ce
Ġac cent
ĠFe te
ĠB ur
Ġac cesi
O C
Ġple ca
Ġvi tam
Ġeveniment ului
Ġmoder ne
r onice
Ġdep us
ĠUcra ina
Å£ atÄĥ
ĠPro fe
Ġafir mat
c au
Ġlar g
3 6
oc ul
s bi
mine scu
Ġsc and
duce re
ĠSun tem
Ġdep las
3 7
ĠEle na
z ilor
ĠK a
Ġautori tÄĥÅ£ile
ĠO pera
Ġp Ã¢n
van ghel
a devÄĥr
Ġtit lu
d entul
ĠPre mi
Ġte ro
ta ta
Ġfeme ia
9 9
Ġpro por
j Äĥ
Ġobi ÈĻn
c ro
Ġmun te
ta bile
n y
ĠtrÄĥ it
v arÄĥ
am entele
Ġorganiz atÄĥ
g res
ta bilÄĥ
Ġcapi t
Ġav ent
Ġfir me
Ġmon um
Ġfir ma
Ġin cul
Ġau di
ĠromÃ¢ne ÈĻti
U M
z iei
Ġdrago stea
Ġmanage ment
A RE
Ġco bor
Ġschimb are
P S
ĠBa sara
om o
Ġre cep
z iile
ma tic
ĠBi bliote
Ġv an
ĠOam enii
a sa
Ġp is
od or
ĠS por
Ġputer nice
Ġb og
Ġob iect
Ġproces ului
di alÄĥ
ĠA face
ĠÃİn t
ven ind
ĠNa ÈĽionale
Ġri dicÄĥ
o zi
Ġdo rim
ĠadÄĥu gat
Ġu sc
Ġve che
Ġtine rilor
Ġfin alÄĥ
Ġp Ã®nÄĥ
Ġ15 0
us ul
Ġscur tÄĥ
ĠurmÄĥ tor
Ġfolos ind
) :
ĠA L
Ġs or
za Å£i
ĠbucÄĥ tÄĥ
in area
ĠSfÃ¢n ta
Ġintere sul
Ġfap te
ĠT atÄĥ
ĠcÄĥr Å£i
Ġpoli tica
ĠHotÄĥr Ã¢
ĠsÄĥptÄĥmÃ¢n a
ĠÃ®n va
ch ia
Ġmesa je
Ġli t
ĠNe t
Ġtermin at
Ġdesc rie
Ġcor por
Ġchi p
Ġaspec te
Ġau tor
Ġsu port
on g
Ġco ti
Ġ200 4
Ġsta bile
pe l
Ġtermen ul
ĠG u
Ġindu st
ta mente
Ġcon tul
ĠÃ®nca d
l ina
ĠO b
st or
Ġtrans fer
ĠJ e
4 8
le ment
ĠlucrÄĥ rilor
Ġmedic amente
Ġadu cÄĥ
ĠÅŁti inÅ£i
si rea
Ġs Ã¢n
ra tul
h ar
peri od
ĠDum it
Ġstabili rea
Ġaver ti
Ġgen ul
ĠÃ®nÅ£ele s
ĠT ul
Ġevalu are
p lica
ĠTran sp
ĠA C
A r
Ġmagaz ine
Ġper cep
Ġin com
Ġs are
re ÅŁte
ĠR E
ĠfÄĥ cea
ĠSpi talul
ĠB rÄĥ
ĠlÄĥ s
Ġini Å£ia
Ġte mpor
ĠÈĻe f
Ġleg at
Ġpie lii
Ġasigu rarea
me dia
0 2
, ...
Ġpriv at
dea m
re t
ĠC al
te na
ĠOr din
Ġdom enii
ĠUr gen
re ci
Ġlocu rile
ĠadevÄĥ ratÄĥ
Ġde semn
ĠN eam
Ġnu tri
P D
ĠBa cÄĥu
Ġave Å£i
3 1
Ġpat rimoni
Ġdi alog
cti a
se ÈĻti
Ġcom bate
Ġtrei lea
k s
ficÄĥ ri
Ġre ali
Ġsuferi t
Ġface ÈĽi
Ġu me
Ġcele b
Ġfolosi rea
Ġgesti on
v ii
Ġce al
ĠChiÅŁ inÄĥu
par ti
Ġa bili
Ġpla c
Ġoca zie
Ġcon ÈĽine
ĠFe stival
are n
Ġfiz ic
T I
ĠG ol
ĠDa vid
ĠcÃ¢ ÈĽi
Ġcla si
Ġde ma
Ġini ÈĽia
Ġatra ge
Ġag ricul
ĠmÃ¢n care
Ġpia Å£Äĥ
3 9
5 00
Ġan ex
tale i
zi den
Ġafir mÄĥ
an g
ĠS us
Ġce lÄĥlalt
Ġna Å£ionalÄĥ
Ġse zonul
Ġal oc
ĠDumit ru
Ġelev ilor
Ġta u
Ġanun ÈĽÄĥ
Ġg ar
ĠBo to
Ġbinecu vÃ¢n
Ġs tin
Ã¢ m
ĠK laus
ĠN im
ĠÃ®ncu raj
g ni
Ġdezvol ta
ĠcÃ¢ Å£i
ĠSp ania
Ġpopor ului
in ilor
3 8
Ġdrep turi
Ġtrece rea
ĠAme rica
Ġutiliz at
Ġada p
Ġfuse se
du re
ĠsÄĥnÄĥ t
Ġdeschis Äĥ
Ġca len
Ġex istat
ĠcÃ¢n tÄĥ
Ġechip amente
ĠÃ®ncon j
ĠE minescu
Ġinten si
Ġcate va
Ġb y
Ġz g
te ran
Ġinter viu
Ġfunc Å£ia
Ġpa ce
Ġaten ÈĽia
ĠVe zi
ĠhotÄĥrÃ¢ re
Ġi atÄĥ
T e
AT O
rat ului
Ġferici re
Ġo fic
c or
Ġiubi rea
Ã ¼
Ġpen alÄĥ
Ġpublic ul
ĠC he
Ġum an
rea za
lan de
Ġgra ve
Ġspeci fic
Ġauto ve
Ġse ria
Ġcon ven
ĠMini strul
Ġcontinu at
Ġbic icle
ä ¸
Ġreg iz
Ġdec lan
ĠcÃ¢ÈĻti gat
mi le
Ġsocie tÄĥÅ£ii
ar ti
Ġtehn ici
ĠX X
ĠComp ania
u ÅŁ
Ġobi ÅŁn
ba bil
Ġp lic
l ar
? âĢĿ
cu ta
Ġb usiness
ĠM ili
Ġcomune i
Ġto todatÄĥ
Ġscri se
ĠTe hn
Ġrespe ct
Ġima gina
ci une
va len
trop oli
ĠscÄĥ zut
Ġin cer
Ġ tan
ĠpÄĥ cÄĥ
Ġtehn icÄĥ
tis m
ĠAn al
3 4
Ġaju tat
Ġi gn
Ġch ine
Ġca rie
ĠC Ã¢t
Ġsp Äĥ
Ġ200 5
ĠP ie
ĠmaÈĻ inÄĥ
ĠEx e
t s
Ġantre pren
Ñ ĥ
Ġtre cute
ĠEvenim entul
Ġob Å£inut
z an
c ini
Ġcatego rii
d urilor
Ġcom unÄĥ
scri p
ĠmÃ¢ inile
Ġdove dit
ĠPub licat
Ġexpl icÄĥ
Ġmedic alÄĥ
f uri
Ġ ent
ĠÈĻa se
Ġp au
Ġdistri bui
ĠRÄĥ zboi
Ġ: )
Ġdisponi bil
Ġnevo ia
Ġconstr ui
Ġs mar
ĠPre m
7 5
ĠÃ®nt Ã¢r
ĠTud or
ĠA post
201 4
Ġcampan ie
0 8
Ġob Å£in
Ġre pub
Ġade c
vi le
Ġo fere
ĠAsocia ÈĽia
Ġse mi
Ġpor n
Ġsu f
Ġperson ali
ĠvÃ¢n zare
Ġ3 4
Ġap rin
ĠB or
ta mp
Ġd ro
b uri
ĠmÃ¢ ine
rea m
Ġcom anda
Ġistori ce
Ġinte resa
ĠcÄĥlÄĥ torie
Ġapro p
Ġdes en
Ġca sei
Ġstabili te
ĠB ine
ĠFe me
e z
Ġinf la
Ġleg al
Ġcere re
Ġac Å£iuni
Ġv ers
Ġch in
ĠInter net
Ġori gine
ĠPe tro
Ġfamil ii
Ġinteres ant
Ġaspec tul
Ġs tele
l and
Ġsuperi or
ĠLi ce
Ġlim bÄĥ
Ġm m
ĠspaÈĽi u
Ġpa ginÄĥ
i rea
Ã® mp
Ġresur se
Ġve sti
F R
tie re
Ġab and
Ġgru pul
Ġtelevizi une
Ġautom at
Ġprincip ale
ĠH ol
Ġparticip area
Ġobserv at
Ġav oc
s mul
Ġmo bile
g ului
v ia
Ġcer in
ÈĻ at
cÄĥ tor
ĠðŁ Ļ
ĠlegÄĥ tura
m er
Ġbuge t
re ÈĻte
ĠrÄĥ b
ĠG ru
Ġpre ven
Ġata c
ĠÃ®ntre bare
ĠstrÄĥ luci
Ġpo stul
M A
? !
ĠU na
Ġmaxim Äĥ
ĠS tÄĥ
ĠLond ra
ĠP lan
Ġli ve
c ui
ĠPrimÄĥ riei
Ġpl ante
ta j
Ġcole gii
ĠMe sa
ni rea
x el
Ġdep la
ĠPro iect
Ġop rit
Ġg rani
ĠÅŁ coalÄĥ
ĠÃ®nsc ris
ĠmodificÄĥ ri
Ġal cÄĥ
sc rie
ĠAr ge
Ġta xe
Ġap reci
z z
Ġregi unea
t rÄĥ
l l
Ġeta pa
Ġ3 2
Ġal Å£i
201 3
ĠNu mai
ĠÃ®nchi se
Ġu re
ĠC os
Ġcon Å£in
Ġmini strului
Ġregul Äĥ
Ġla p
Ġ201 9
Ġde vin
Ġpl ani
Ġviz u
E T
Ġarticol ului
s chi
Ġ <
Ġ198 9
Ġfil os
Ġdific ul
Ġre ci
Ġa buz
Ġde fici
Ġangaj at
ĠcÃ¢ÈĻti gÄĥ
ĠBra ÈĻov
Ġproce duri
ĠZ e
Ġso ft
Ġiube sc
Ġs umÄĥ
Ġne d
Ġha ine
p sa
dÄĥ rii
iz ate
ĠÈĺ ti
po trivÄĥ
ĠadevÄĥ rul
tre m
Ġliber tate
ĠG ar
Ġgenera le
E C
Ġlum in
Ġli stÄĥ
Ġalco ol
Ġlu x
Ġbu z
ĠCom un
Ġimpl icÄĥ
teri oarÄĥ
Ġrealiz eazÄĥ
Ġefectu at
d oc
Ġsti u
Ġre ferin
Ġga ze
Ġaten Å£ia
ÈĽion ate
ĠcÄĥ zut
Ġodi h
ĠF ili
men e
sem na
Ġdistri bu
y s
Ġpen ale
Ġprop riile
ĠpreÈĻedin te
ze ci
Ġdin am
p eni
Ġb ote
Ġn omin
ca ÈĽi
Ġrecunos cut
ĠDe puta
Ġpre pa
zÄĥ m
Ġresponsa bil
Ġsunte ÈĽi
ĠV ia
ĠÃİn cÄĥ
ĠS ur
ĠI or
stre ze
ie ÈĻti
Ġra spun
Å£ion a
Ġme argÄĥ
Ġimo bil
Ġcon teazÄĥ
h an
Ġanaliz a
Ġvizi tÄĥ
ĠD r
Ġsur sa
ĠFo to
Ġcurs uri
Ġcel ul
Ġstil ul
Ġri scul
Ġma mÄĥ
Ġp Ã¢r
Ġsur sÄĥ
ĠPre z
Ġgreu tate
Ġtra du
ĠP L
Ġi P
Ġdra g
Ġru s
Ġsiste me
Ġdidacti ce
ĠÃ®ntÃ¢mp la
Ġve ge
s f
en tan
Ġsimp le
lic atÄĥ
Ġexperien Å£Äĥ
ro m
Ġau torul
om i
ĠÃİn cep
Ã ³
si vi
Ġbise ricii
ĠPra cti
Ġdipl oma
sta l
ĠAp lica
ĠðŁĻ Ĥ
Ġf ic
Ġfis cale
ĠNe gru
ĠC rist
Ġsen si
Ġan alizÄĥ
Ġsec und
Ġschimb area
o reazÄĥ
Ġui ta
ĠServici ul
Ġconte sta
ĠP an
Ġdimen siuni
Ġlin ie
Ġcontex t
m ea
Ġd oamna
U I
Ġeta pÄĥ
ĠP ic
Ġstand ard
Ġci tate
al ta
ĠjucÄĥ tori
Ġti pul
ĠSe curi
Ġdrep tului
Ġal ÈĽi
Ġi po
Ġsem ne
roa sÄĥ
ĠÃ®mpre j
en ÈĽi
Ġtrans formÄĥ
m eni
Ø §
Ġcontrac tul
__ __
ÅŁ ani
Ġlar gÄĥ
ĠVlad imi
Ġbiro u
ĠPa ra
Ġmeto de
Ġcunos cutÄĥ
Ġdem ers
Ġfot b
Ġrez erv
Ġca uz
Ġin con
ĠCom ite
Ġdi versi
Ġrealiz atÄĥ
Ġf atÄĥ
spi ra
Ġceal altÄĥ
Ġg i
ÅŁ ului
Ġsitua Å£ie
S f
ĠcÃ¢ÅŁti gat
le t
Ġcu raj
Ġcre zut
Ġscri sÄĥ
ter ne
Ġau zi
ĠRe zul
Ġpopor ul
ĠE st
Ġconvin s
Ġpopul are
ĠO rice
Ġfotograf ie
f u
ca Å£i
Ġil um
ĠTri bun
ĠF ier
Ġofici alÄĥ
M e
Ġna vi
ĠFacul tatea
a ÈĻ
Ġp lea
ĠÈĻti i
Ġcom e
ĠÃ®nvÄĥÅ£Äĥ mÃ¢nt
Ġb ran
ĠI V
Ġanumi t
x ic
Ġbu cure
ĠsÄĥnÄĥ tatea
ÈĽ atÄĥ
ĠgÃ¢n desc
ĠU tiliz
ĠUn ii
" :
ĠÅŁa pte
OT O
Ġcondam nat
Ġvari anta
Ġar gin
Ġapropie rea
Ġresp ira
ĠDo bro
Ġtelef onul
ĠMat rimoniale
Ġre ale
Ġre ferendu
Ġla u
Ġac Å£iune
Ġinterna Å£ionale
Ġta ble
R U
Ġex terior
ĠP op
ĠCame ra
ĠÃ®nÈĽele s
Ġrea bili
ww w
Ġme mo
Ġexp une
c tÄĥ
Ġinform are
Ġlider ul
Ġtranza c
men telor
ĠA S
Ġmen Å£ine
Ġacord ul
Ġordin ea
o ÈĻi
Ġla cri
cu ra
Ġme te
Ġindepen den
ĠDe ce
Ġase mÄĥnÄĥ
te va
Ġg ura
ĠcumpÄĥ rat
Ġlans area
Ġcomun ica
Ġatin ge
Ġprime sc
Ġ ï¿½
Ġrespec tarea
Ġdezvol tat
ĠnumÄĥ rÄĥ
Ġsim Å£i
Ġlin ia
Ġanumi tÄĥ
Ġpa rale
co re
Ġjude Å£
Ġre para
lu bul
Ġsimp li
ÈĽion a
ÈĽi unii
sÄĥ m
Ġdec Ã®t
Ġadu se
M I
Ġori cum
Ġinvesti ga
Ġsolici tat
ĠhotÄĥr Ã¢t
Ġca s
Ġs ovie
ĠL up
Ġur me
Ġvalori le
ti te
Ġmate rie
ia scÄĥ
Ġd oamne
st ron
ĠY ork
Ġs chi
ĠIn vesti
Ġ3 8
ind o
Ġfur t
Ġproiec tele
ĠÃ®nregistra te
ĠAn g
Ġdom n
Ġapropi at
Ġpublic ate
ĠcÄĥ rei
Ġalege ri
olog ii
Ġob ÈĽinut
Ġte mei
d eazÄĥ
ÈĽi unilor
Ġrapi dÄĥ
Ġindepen dent
Ġcol or
Ġb at
Ã®n du
ĠCÄĥ tÄĥ
Ġre alÄĥ
a ti
Ġprezen Å£a
Ġparte ner
Ġgo spo
Ġconsta tat
al im
ĠGabrie l
en ie
Ġac ÈĽiune
Ġtre c
Ġh rÄĥ
Ġbun uri
Ġo pe
E u
Ġsolu ÈĽii
Ġdev reme
Ġ0 7
ĠH i
ĠNo u
Ġmar ginea
Ġpro mi
P ri
Ġpo p
l is
Ġen ti
Ġmen ÈĽine
Ġtru pul
ste ri
Ġchi rur
on s
Ġli berÄĥ
Ġdeschi se
F A
Ġde mis
P re
Ġo fi
b w
Ġn erv
Ġopin ia
cÄĥ rile
Ġdura tÄĥ
Ġco pa
Ġlu ate
Ġdocum ent
ĠCÄĥ lÄĥ
Ġs ani
E A
ĠTeat rul
Ġinterna ÈĽionale
ĠÃ®mbunÄĥ tÄĥÅ£i
Ġedi Å£ie
ĠrÄĥmÃ¢n Äĥ
Ġrespe ctivÄĥ
Å£ion ate
Ġinim Äĥ
ri cole
Ġb il
Ġluc rarea
Ġdep inde
ĠcapÄĥ t
rÄĥ ri
ĠMa rian
Ġde scÄĥr
ĠJo hn
S Äĥ
ĠFe stivalul
Ġuni tate
ĠPal atul
ĠS cri
ĠE piscop
ĠS port
Ġsim te
Ġrezol v
Ġcontri buie
Ġde l
ĠN ATO
Ġb ule
Ġc ra
ĠGri go
Ġbo alÄĥ
ĠÃ®ncÄĥl zi
ĠmaÅŁ ina
Ġmar keting
Ġri scu
Ġprop riul
Ġservici ul
ule scu
Ġ4 8
Ġiz ol
ĠÅŀ ti
ĠÃİ N
Ġco opera
q u
Ġpur tÄĥ
m u
Ġme lo
4 9
Ġprem ii
Ġpri vate
Ġ4 00
vo area
ĠSor in
ĠAr hi
ĠSfÃ¢n t
ti ilor
Ġdemon stra
Ġtre cu
el l
tu re
Ġa ÈĻe
Ġn aturi
o vi
P A
Ġvo tat
ba sa
I B
Ġta ra
pa ri
Ġse g
f il
h ia
Ġvol umul
Ġpromov are
Ġpor nit
Ġpe isa
Ġrapor tul
ĠsÄĥnÄĥ tos
Ġe pi
Ġactu al
Ġc lin
ĠA b
ĠplÄĥ tit
Ġma scul
Ġdispozi tive
Ġto ti
ta u
Ġne mul
Ġmo tor
Ġredu s
Ġplan ul
ĠW il
Ġaferen te
Ġpoe zii
Ġspor tiv
Ġfie cÄĥrui
Ġprocedu ra
Ġc Ã£
ĠÃ®n fÄĥ
Ġu til
Ġanun Å£Äĥ
Ġseri os
Ġexisten te
Ġre alitatea
Ġavanta j
ĠÃ®nÅ£ele ge
o st
Ġspecta cul
Ġcons erv
Ġdiferi t
Ġg ro
Ġfar ma
Ġposi bili
Ġmemb rilor
Ġling uri
ĠF er
ĠÅŀ tefan
c eni
ĠP ut
ĠI l
ĠTur cia
Ġk g
ĠPat riarh
Ġfer m
Ġori care
Ġgrup ului
Ġceilal Å£i
sti i
Ġre ÈĽea
ĠÃ®ntre ru
Ġreu ÈĻi
Ġcatego rie
h or
Ġsu me
Ġlun gi
Ġcom i
t ind
ĠsfÃ¢r ÅŁit
Ġfunc ÈĽia
ĠInter ne
ĠTÃ¢r gu
7 7
Ġbise rici
ĠpregÄĥti re
Ġba z
Ġdec ora
Ġil u
Ġli te
Ġofer ta
Ġdisp us
ri ilor
Ġie ÅŁit
Ġpici oarele
IC I
ĠI m
Ġsc ul
Ġre ÈĽele
Ġmedic ul
l arÄĥ
ĠS il
ĠMiha il
Ġtra tamentul
Ġdeschi derea
ĠCor ne
Ġdum neze
ĠF ond
Ġtrea cÄĥ
ĠPo ve
ĠaÈĻte pta
Ġap arte
Ġintra re
Ġinteres ante
ba ÈĽi
Ġt oamnÄĥ
Ġb on
Ġno ului
x t
Ġpro gre
Ġ3 3
Ġtri me
Ġexpl oa
ĠCom uni
Ġpa ri
Ġpersona je
ĠGa y
Ġre venit
Ġsitua ÈĽii
Ġsitua Å£ii
ĠS to
Ġne cunos
Ġpersoan ei
Ġre alizÄĥ
Ġoa spe
Ġacu za
ĠCon tra
ĠÃ®nc Ã¢n
Ġf ondul
Ġse t
Ġevenim entul
ĠS pre
ĠLe ge
t uit
Ġfra g
ĠAn ge
Ñ ı
in ea
Ġautori za
a ÅŁ
ĠRa dio
ĠSi tua
ĠrÄĥspun sul
ĠAn t
C A
st o
Ġtrea ba
te zi
ĠV Ã¢l
Ġsea mÄĥ
Ġintro duce
de ze
ĠÃ®nsu ÅŁi
Ġdispozi ÈĽie
ĠBu zÄĥ
ti me
Ġspor tive
ĠÃİ i
Ġto tali
ĠJ urn
ie ra
Ġnoi le
g iei
Ġsuplim enta
al t
one ze
ĠÃİn ainte
ĠMun te
Ġliber tatea
Ġsolici tÄĥ
Ġs lo
ĠplÄĥ cere
4 4
Ġacu zat
Ġgra dul
Ġan tic
ĠMa rii
ĠpÄĥrin Å£ii
Ġin au
Ġintelec tu
ram ure
pa ti
pÄĥ ri
Ġpla stic
Ġs alÄĥ
ze ze
ĠÃİ mp
ĠurmÄĥ torul
la y
ĠOrgan iza
Ġrecunoa ÅŁte
ĠGrec ia
Ġam basa
s mului
ĠadÃ¢n c
Ġcre dit
ta g
ĠM ine
d il
Ġe mail
Ġve hicul
Ġlo vit
ĠS lo
ĠF atÄĥ
ĠRea d
Ġad mite
Ġpl ine
Ġimo bili
ĠF am
v ici
ĠDra go
Ġmesa jul
g atÄĥ
Ġo pre
ĠCent rului
te ÅŁte
Ġum anÄĥ
Ġs how
oast re
Ġdesi gur
Ġcons ili
gale rie
Ġre ferÄĥ
to fi
tar ului
ĠG rÄĥ
Ġbebe lu
ĠMo re
Ġindividu al
ĠstrÄĥ ine
ĠDe m
al u
ĠP RO
ĠT om
ĠgrÄĥ dini
ĠJude cÄĥ
ten ci
h er
Ġcri min
an ului
Ġparti dului
Ġum ani
D in
Ġinti tul
ch ilor
Ġtex tul
Ġadop tat
Ġsitua ÈĽie
ĠO vi
Å£ ate
ĠstrÄĥ ini
Ġamen in
Ġ å
Ġprote cÈĽie
ĠSex uale
Ġdova dÄĥ
Ġnatura lÄĥ
Ġautori tÄĥÈĽile
Ġactu alÄĥ
ĠdÄĥ m
ĠhÃ¢r tie
Ġenerg ia
Ġexperi men
Ġsun e
s al
ĠC lau
Ġaprop iere
Ġde Å£in
Ġprodu sul
Ġra i
man i
ĠÃ®n ghe
Ġob ÈĽin
Ġtrans form
Ġguver nul
Ġtra s
ro id
ĠMÄĥnÄĥsti rea
iz eazÄĥ
ĠMosc ova
Ġprelun gi
ĠC N
Å£ion area
Å£i alÄĥ
Ġcad ru
ĠTul cea
ron icÄĥ
Ġre lu
Ġexter ne
tro l
ĠbÄĥ tÄĥ
Ġpublic atÄĥ
lu gÄĥ
ĠL in
Ġfier binte
Ġrezer vÄĥ
Ġefor t
Ġnu an
Ġo g
Ġsp ui
se x
Ġb om
Ġinterna ÈĽional
ĠurmÄĥ toarea
ĠRom a
Ġaten ÈĽie
3 2
Ġefec tele
Ġvicep re
Ġsus Å£inut
te ÈĻte
Ġfab rica
ĠR Ã¢
Ġexp rim
Ġdure re
Ġa eri
ĠpreÅŁedin telui
Ġcomple tÄĥ
be t
ĠÃİ l
p are
Ġna ÈĽionalÄĥ
ĠVI DEO
Ġpar f
Ġdob Ã¢n
Ġorganiz are
titu dine
Ġeti che
ote lul
ĠDezvol tare
ĠRe prez
ĠÃ®nÈĽele ge
Ġatri bui
Ġin se
Ġprim ii
ĠFran Å£a
Ġform are
ĠBan ca
Ġposi bilÄĥ
Ġin feri
Ġori cine
ĠBul garia
ra ÈĽi
Ġre me
Ġd ator
Ġmani pul
indo ws
ĠZ a
Ġpre ÈĽul
Ġne o
Ð ²
Ġprezen ÈĽa
Ġtrans forma
Ġcar ti
Ġcomun icÄĥ
ĠcÃ¢ÈĽi va
Ġcre ste
Ġbu cur
ĠÃ®nche ie
ĠPub lice
Ġdem ni
v ul
Ġcredin Å£Äĥ
Ġh ran
ĠDe sc
Ġpiat rÄĥ
is tic
Ġpro to
Ġcre ÈĻtin
Ġ7 5
ĠÃ®ntrea gÄĥ
din Äĥ
ĠI P
Ġcla sÄĥ
ĠfuncÈĽion eazÄĥ
Ġperfec tÄĥ
man a
Ġinforma ÈĽiile
Ġs tatele
ce rea
Ġacces orii
Ġla s
ĠP h
Ġsex uale
ĠS M
Ġdori ÈĽi
ĠMa j
ĠX I
Ġt in
Ġf ricÄĥ
ĠpÄĥr Å£i
201 1
Ġde tali
Ġform area
Ġsub lini
ur giu
ĠÃ®nd oi
Ġ 01
mb ur
ÅŁe ÅŁte
Ġvite zÄĥ
Ġfolosi tÄĥ
Ġimplemen tarea
Ġin str
âĢ¦ )
ĠN ov
Ġ3 7
Ġnea pÄĥrat
stit uit
d uit
ĠPro tec
Ġm p
ter n
Ġge st
Ġconside rare
ĠtÄĥ i
Ġlim bii
oli ce
Ġspiri tul
o ÅŁi
Ġeduca ÈĽie
Ġt oata
h am
Ġgra d
Ġop tim
Ġru ga
tp hone
s ia
Ġacci den
Ġlice u
ĠPrin cip
Ġcre ÅŁ
ĠVale n
d y
Ġspune m
Ġche ie
Ġactivi tÄĥÅ£ii
Ġadministra tiv
ĠVas lui
ĠEchi pa
Ġreprezen tat
ĠmaÈĻ ina
Ġp on
di tate
Ġdestin ate
Ġactu ale
Ġale a
Ġbucu ria
Ġo pozi
Ġneg ocie
Ġdefini tiv
Ġcan ce
ce sc
Ġavi on
Ġocu pat
ĠrugÄĥci une
Ġg amÄĥ
ĠTV R
ĠaÈĻ teaptÄĥ
te z
s tate
ĠcÃ¢Å£i va
Ġf ru
ul i
Ġpro be
Ġcul oarea
Ġpro st
ĠPro ble
Ġbuz un
Ġori en
Ġconsil ier
Ġprofi t
Ġdore ÈĻte
Ġsa cri
v ic
Ġs indic
Ġcandi dat
ĠCÄĥ ci
Ġparticip are
Ġsimil are
Ġconstan t
cla ra
Ġnecesi tÄĥ
Ġfa sc
Ġinstitu Å£ii
Ġd im
ĠAd icÄĥ
ĠPol onia
Ġcomunic atul
Ġutiliz a
Ã ¶
Ġpo f
ĠF rum
ĠÃ®ntre b
u Å£i
Ġar he
ĠFi ind
Ġprocedu rÄĥ
ĠE mil
Ġtrans format
Ġist oriei
ĠD oi
Ġnu cle
Ġviz eazÄĥ
Ġoferi m
ĠTo tul
Ġfinanci arÄĥ
Ġasigu re
ĠBa ia
Ġprofes ori
Ġun icÄĥ
Ġaccep tat
or gan
Ġpersonal ului
Ġpe dea
ĠA ir
Ġfa za
Ġ0 9
ĠaÅŁ teaptÄĥ
ti re
Ġpove ÈĻti
Ġimp licat
ĠmaÅŁ inÄĥ
ĠE ro
Ã¢nd Äĥ
Ġimpo sibil
ĠS tar
Ġcivil Äĥ
Ġfeme ilor
Ġtehn ologie
Ġ199 0
Ġur ban
ĠH otel
ĠMÃ¢n tui
ĠdesfÄĥÅŁ oarÄĥ
Ġcado u
te rii
ĠFran ÈĽa
Ġcon Å£ine
ĠOl im
Ġdore ÅŁte
Ġin su
Ġhi dra
Ġdes fa
Ġsufle tului
Ġgrup uri
ĠA devÄĥ
Ġev re
ĠfÄĥ ce
Ġpar oh
ĠSim ona
Ġmili tar
Ġiubi t
ĠpÄĥ rul
ĠmaÈĻ ini
pi ce
me t
ĠAsocia Å£ia
5 5
ĠN U
ĠgÃ¢nd ul
Ġmul tu
Ġus or
ĠSat u
Ġ3 9
Ġh ai
Ġj apone
Ġep iscop
ĠPreÈĻedin tele
ve le
Ġac ÈĽiuni
Ġdor mi
ĠO datÄĥ
E L
ĠRe la
Ġcea i
Ġmotiv ul
g icÄĥ
Ġe st
Ġbeneficia zÄĥ
ve sc
Ġinterna Å£ional
ĠV ine
ĠC artea
ĠBi b
Ġdom nului
Ġinspi ra
Ġcomenta rii
Ġreu ÅŁi
Ġacord area
ĠDin amo
Ġci tesc
ĠpÄĥrin ÈĽii
Ġnevoi le
Ġa ste
Ġacor dÄĥ
Ġcole gi
Ã¢n tul
Ġposi bile
ĠÃ®nvÄĥÈĽÄĥ mÃ¢nt
st ur
Ġs ate
Ġsub iectul
tur gh
Ġs il
Ġau ton
ĠbÄĥrba ÈĽi
Ġt or
ori tatea
ĠpÄĥr ÈĽi
Ġsus ÈĽinut
Ġcent rale
ĠServici ului
Ġre ge
Ġresponsa bili
ĠE vanghel
ÈĽ ate
Ġc Ã¢r
Ġf la
ĠDom niÈĻ
Ġweb site
ĠtrÄĥ im
ĠrÄĥ s
Ġper mit
âĢ¦ âĢ¦
8 9
Ġcul turii
iz atÄĥ
ĠAl te
xel les
ĠBi stri
zi une
ĠNe ws
o ÈĻ
Ġcon ÈĽinut
6 6
Ġjuri dicÄĥ
ĠSpe ci
ĠÅŁ coli
Ñ ĭ
ĠPro babil
Ġor to
ĠCole giul
ĠÃ®nsc ri
Ġcari erÄĥ
Ġmun icip
Ġevenim entele
Ġzah Äĥr
Ġv oastre
bu c
Ġsim ul
Ġv ali
Ġdeosebi re
ĠaÅŁte pta
ĠNo ul
mat ricul
Ġnumi tÄĥ
Ġle n
A u
ĠSe cre
ĠFil m
Ġlegu me
Ġferici t
Ġgal ben
Ġte ore
ĠâĢ Ļ
ĠspaÅ£i u
ĠCu vÃ¢n
ĠPor n
ĠW i
m ic
Ġvo turi
Ġmodi fica
Ġgrat uite
Ġcom andÄĥ
Ġbucu rÄĥ
ĠfÄĥ cÃ¢nd
ĠF ac
Ġ iei
Ġsocie tÄĥÈĽii
Ġs fer
Ġdep en
Ġaltor a
ĠCultura l
ĠVladimi r
Ġent uzia
ond iale
tin Äĥ
Ġconsum ul
Ġcir cum
cta ÈĽi
M P
ĠD atori
Ġdra gi
ĠcÄĥu tarea
Ġincre di
ĠapÄĥ rea
e la
Ġcivil iza
M W
Ġma rile
ĠspaÅ£i ul
o gÄĥ
ĠmÄĥs urile
Ġm al
ĠÃ®ndrÄĥ z
ĠIn f
ĠJ os
uri e
Ġlocui tori
Ġla bor
Ġa rate
Ġs inte
Ġstic lÄĥ
Ġdeci de
Ġorgan ism
u sÄĥ
ĠC ru
Ġcre eazÄĥ
ĠEu gen
Ġinau gu
Ġfra tele
st ine
ti li
ĠD N
Ġplea cÄĥ
Ġofer te
Ġper mi
Ġex pi
Ã¢ mp
Ġ uit
ĠC lub
ĠCon ferin
Ġsec unde
Ġve ÅŁ
Ġdezvol tÄĥrii
Ġt urn
Ġspecta cole
Ġdiscu tat
on im
ÈĻ ani
Ġvor bÄĥ
Ġcole g
Ġcuprin se
Ġprile j
Ġcre sc
Ġluc rare
Ġcamp ania
ĠLi ber
Ġpri mite
me s
ea sca
Ġser vi
Ġre Å£ele
Ġh or
hie piscop
Ġsta r
ĠsfÃ¢r ÈĻit
as h
Ġexperien ÈĽa
Ġpropune rea
Ġace lui
Ġautom o
ori le
ĠPia Å£a
m eazÄĥ
Ġcan cer
ĠL ea
Ġmare le
Ġmeto dÄĥ
Ġcomenta riu
Ġroman e
Ġnoa stra
ĠdesfÄĥÈĻ oarÄĥ
pu sÄĥ
me sc
Ġteren ul
lex i
Ġmar ÈĽi
ĠP ite
Ġne po
Ð ¼
Ġatin s
Ġfi ica
Ġmeci uri
ĠspaÈĽi ul
ĠL Äĥ
ĠpÄĥrin tele
ĠCop il
u Å£
Ġra za
ÈĽ el
Ġ200 3
d s
h Äĥ
Ġincep ut
ĠDe l
iec tele
L e
Ġt on
Ġc Ã®t
ÈĻ ului
Ġorigin al
p un
Ġf oa
ĠTe en
Ġcomuni tate
oc am
Ġfa voarea
ÈĽi alÄĥ
sa c
Ġeconom ie
ĠBru xelles
Ġm ane
A l
Ġin struc
Ġcab ine
ĠV om
ĠF lori
Ġt oamna
Ġpre ziden
ĠV ie
Ġe du
Ġcomple tÄĥrile
Rom Ã¢n
in ic
ĠÈĻti inÈĽi
ĠAcadem iei
Ġta r
Ġsmar tphone
ĠApro ape
Ġgre le
Ġguvern are
Ġelect ronice
Ġprezen tare
Ġdiminea Å£Äĥ
ĠÃ®n semn
ĠF u
Ġde sÄĥ
Ġprote cÅ£ie
Ġma ghi
Ġamp las
tion ale
ĠOvi diu
rus alim
Ġad mini
or ld
200 6
Ġidenti tate
Ġme dal
L i
Ġre Å£ea
Ġdrum uri
ĠW indows
Ġn eam
Ġva rian
u ci
Ġconsul tan
ĠC it
Ġceilal ÈĽi
ÈĽion area
Ġdedic atÄĥ
ĠÃ®ng ro
se ori
Ġas oci
ti rea
Ġf ine
Ġtranspor tul
ÈĻi lor
ĠÃ®nvÄĥ ÈĽat
Ġrecomand at
Ġpro pa
si p
Ġproiec telor
ĠE vi
Ġsem nÄĥ
S S
ĠgÄĥ seascÄĥ
ĠH ai
ĠS pa
Ġinter valul
ĠFil me
Ġh and
Ġdeosebi tÄĥ
Ġdific il
Ġinte rac
Ġregim ul
Ġpur ta
ĠI an
Ġie ÈĻit
ĠH D
ĠCar ol
Ġac ti
ĠDuh ul
ĠRus iei
Ġsupra fe
Ġsemn al
man e
Ġf ul
Ġal imen
k ing
ĠcÄĥu tare
Ġum b
Ġo rei
ĠDe par
ĠgrÄĥ s
Ġsu ferÄĥ
ĠÃ®ntre barea
Ġne b
Ġnega tive
Å£i ÅŁ
li le
Ġg roa
Ġcompon ente
ĠUr mÄĥ
ĠEle ct
ĠUniversi tÄĥÅ£ii
ĠLu cian
u ÈĻ
Ġin spec
Ġ5 5
Ġdocumen tele
Ġf unda
Ġfisc alÄĥ
Å£i u
ĠrÄĥ dÄĥ
w er
* *
Ġvo tul
Ġe mite
Ġdiminea ÈĽÄĥ
onal d
Ġcompor tament
Ġprelu at
S unt
Ġvo stru
Ġweek end
Ġinvesti Å£ii
Ġori cÃ¢nd
pi t
Ġapar tament
ĠV oi
Ġele ment
ru te
Ġin g
Ġj a
ĠIe rusalim
c Ã¢t
cÄĥ toare
Ġreprezentan Å£ii
Ġimp us
ĠI ni
Ġpune m
j ud
ĠÃ®n te
Ġump lu
ĠT rei
Ġfir mÄĥ
Ġminun at
Ġvolun tari
Ġin to
4 6
ĠCite ÅŁte
Ġie rar
Ġluc rul
Ġa bu
ĠnumÄĥ rului
Ġtab lo
c ani
feri ci
te rin
ĠJ ap
Ġregi une
Ġale g
Ġlu Äĥm
Ġprefe rat
ori t
Ġcomerci al
Ġcu trem
ĠCÄĥtÄĥ lin
Ġ ï
Ġurgen ÈĽÄĥ
Ġcompan iile
Ġaten t
Ġprem ierul
z er
ĠSup er
ĠzÄĥ pa
Ġg lu
d iilor
ĠÃ®ntre gii
Ġre ve
Ġautoturi sm
po arte
ĠasigurÄĥ ri
Ġpre Å£ul
Ġv rÄĥ
Ġsoft ware
ĠbÄĥr batul
Ġbuge tului
Ġ6 5
Ġro st
Ġeta pe
ci unea
Ġrecun oaÈĻte
Ġparlamen tare
Ġpre sedin
Ġcom ite
ÈĻe ÈĻte
Ġma mei
Ġm enta
Ġcorec tÄĥ
Ġofic iale
c Ã¢ndu
ĠB en
ĠsÄĥ ra
Ġmo tiva
ĠO mul
Ġru g
Ġcal d
ĠUn de
Ġre tro
201 2
ĠGrat uit
Ġci vile
Ġpreveni rea
Ġace ia
Ġsp ani
Ġref uzat
ĠÃ®n lÄĥ
ĠDeci zia
Ġconcurs ului
Ġsc orul
ĠLoc ale
Ġdesp Äĥr
ĠatÃ¢ tea
Ġe val
Ġ25 0
ĠAmb asa
P C
Ġcomuni tatea
Ġme tal
b ine
n ie
Ġcapaci tate
ĠG or
Ġcine mat
Ġsom n
ĠprÄĥ bu
Ġar ta
Ġadministra rea
Ġg ale
ch ea
Ġdedic ate
ĠÈĺ tefan
ĠSoci al
ali tÄĥÅ£ii
Ġh ar
Ã¢ ie
Ġi re
ĠcÃ¢ÅŁti gÄĥ
Ġdos are
Ġme dii
Ġprem ierÄĥ
Ġfrance z
e st
s ura
Ġconsi der
dea u
ĠC FR
le sc
ar ma
Ġpunc tele
Ġaplic at
Ġveni turile
Ġf lo
Ġridic ate
EN T
Ġguver nului
ĠPia ÈĽa
ĠpÄĥre re
ri at
Ġperspe ctiva
ĠtÃ¢nÄĥ rÄĥ
ĠMa ramure
m ili
Ġdele ga
Ġcontrac te
Ġex pe
Ġpie tre
D A
Ġpre ten
c iei
cite ste
Ġv oastrÄĥ
Å£ion are
Ġloc alitate
ĠH ale
Ġleg en
Ġaf latÄĥ
201 0
Ġevi ta
ent Ã¢nd
ĠP le
Ġui mi
ĠI de
Ġsemnifica tiv
sta se
Ġde b
Ġpri mului
ber g
ta ne
Ġmin ori
ĠgÃ¢n de
» ¿
Ġreligi oase
Ġtrans fe
Ġra r
in ica
O P
ĠsÄĥ l
Ġv op
Ġob iectul
4 7
Ġti tul
u are
cci den
Ġag ricole
ĠsÄĥrbÄĥ toare
S P
ĠapÄĥ rare
Ġur cat
ĠIn di
Ġelect ricÄĥ
Ġatitu dine
ĠPo pa
Ġre vine
Ġb rand
Ġvizi tat
C I
Ġlegisla tivÄĥ
cu tiv
Ġsta di
U G
ose x
Ġinvesti ÈĽii
cul a
ĠcÄĥu tat
1 00
en Å£i
s y
ĠschimbÄĥ ri
tori al
ĠpoliÅ£i ÅŁtii
ĠÅŁe ful
ĠParte ner
ĠSte aua
ĠrÄĥ zb
Ġten is
Ġj andar
Ġlip si
Ã Ń
Ġatra s
Ġiar na
Ġmoder nÄĥ
Ġinvi tat
Ġvorbe ÅŁte
ÈĻe sc
Ġenerg iei
ĠmaÅŁ ini
Ġdul ce
s ung
Ġrela tiv
om osex
Ġte mÄĥ
Ġva zut
Ġmin ci
Ġcre zi
Ġad unÄĥ
ĠFi ul
an ca
Ġsf aturi
o xi
200 8
Ġafec teazÄĥ
tati le
ĠL im
Ġra dic
Ġpar care
Ġre tur
Ġ200 2
ĠScri p
Ġintegra l
Ġreduce re
Ġar mon
Ġade va
Ġtransp aren
Ġcondam n
ĠcÄĥsÄĥ tori
j ma
ĠA R
E x
ĠT uri
Ġprof und
Ġom or
Ġsta bil
ÅŁ ie
ĠG ale
Ġpozi tiv
Ġpat ron
Ġal bÄĥ
Ġan al
Ġg un
ĠAn ti
Ġnea grÄĥ
Ġt one
Ġpro vo
ĠRo bert
te l
ĠE r
Ġla c
Ġfap tele
e ste
Ġbucu rat
ĠCapi talei
ĠAl b
Ġintere se
ĠAv Ã¢nd
Ġpovesti t
Å£ u
Ġg imna
Ġpu sÄĥ
Ġsatis fa
ĠTatÄĥ l
ĠF ap
ĠA D
ri ta
ĠGi urgiu
Ġm alul
Ġfav ora
Ġcent ralÄĥ
h ova
ĠC ana
ĠU nele
Ġrele v
oa stra
Ġb ea
Ġpro veni
Ġleg atÄĥ
Ġsim Å£
Ġde r
Ġhi dro
Ġaminte sc
Ġdec or
ĠPub lic
Ġe gal
ca m
ĠA ctivi
Ġuni tÄĥÅ£i
umÄĥ rul
d im
Ġg ros
Ġcri zÄĥ
ĠCul turÄĥ
ta ra
is ticÄĥ
Ġmaj ore
Ġefectu area
Ġ Å£inut
Ġa ri
Ġindic at
Ġspi rit
Ġfi ÈĻ
gal ia
une d
Ġau dio
Ġj ert
Ġra ta
Ġb ron
Ġprincip alele
ĠDesi gur
Ġinstru mente
i st
ten t
Ġimp ri
ĠX V
x ul
Ġinstitu ÈĽii
Ġelimin area
Ġma gistra
ĠDi gi
Ġdispozi Å£ie
Ġv ina
ĠP artea
Ġtot deauna
Ġbo gat
ĠÈĻ coli
ĠgÃ¢nd uri
ĠcÃ¢n te
ĠBla ck
b atÄĥ
ĠC oc
Ġlibe ral
a bil
w o
Ġcel ule
ĠFo stul
Ġgre ÅŁe
Ġmili on
erÄĥ m
I O
Ġdis curs
tan Äĥ
Ġutiliz eazÄĥ
ĠPÄĥrin te
T he
tal ului
Ġin ova
se ste
ĠpÄĥ streazÄĥ
den ÈĽi
ĠÃ®ntre gi
Ġie se
Ġspi tale
ĠTu do
Ġregul i
ĠS E
Ġ200 1
Ġprincip alÄĥ
lie re
ĠCÃ¢ mp
ke t
Ġprocuro rii
ĠvÃ¢r f
Ġprodus ului
Ġuti le
p ic
ofer ul
on are
Ace st
Ġim uni
Ġsoci alizare
Ġ $
Ġin ve
Ġparti de
olog iei
Ġindividu ale
Ġve cin
ĠG rup
ĠJo curi
Ġia sÄĥ
ĠÃ®nvÄĥ Å£at
Ġga ma
ĠMate i
Ġb ord
en iile
on ic
Ġgri ja
ĠAc ci
Ġdec larÄĥ
Ġpur tat
Ġbo ala
Ġprezen tarea
Ġridic atÄĥ
Ġinteli gen
ĠPrim arul
S i
Ġinvi tÄĥ
Ġutiliz ator
s ch
Ġg l
Ġde fec
ĠÃ®ndrÄĥ go
ĠAr ma
Ġro a
z nic
Ġsu pÄĥ
Ġm ur
Ġpa chet
Ġapreci at
Ġple ce
rÄĥ rile
Ġinstru ment
ĠdesÄĥ vÃ¢r
Ġconcer t
z van
Ġre viz
ĠÅŁti i
ze ce
ĠMa x
Ġpo d
ĠÈĻti m
ĠAnd reea
Ġpoe zie
Ġre vista
ocam datÄĥ
Ġeduca Å£ie
ne ÅŁti
Ġameric ane
Ġremar ca
di te
Ġdirec tÄĥ
Ġmand at
Ġo s
s urile
ros oft
Ġte ste
eni tenci
ĠS tate
ĠprevÄĥ zut
Ġcon cursul
Ġconfor t
ma tice
ĠB MW
ĠD rÄĥ
Ġval or
Ġ0 8
Ġm l
Ġacce le
7 8
Ġscop uri
Ġconfrun tÄĥ
ÅŁi rea
Ġalege re
ĠpÄĥ mÃ¢ntul
Ġutiliz atorilor
ĠbucÄĥtÄĥ rie
s fin
Ġpor t
di tÄĥ
Ġor donan
Ġur b
Ġturi stice
ĠHale p
ĠcumpÄĥ ra
ĠAnd roid
ĠX xx
ru rile
je ze
Ġpra f
ĠaflÄĥ m
s or
Ġcu rat
ÈĽi u
F i
ĠcÄĥlÄĥ tori
Ġfemin in
Ġm ona
u at
ĠLi turgh
Ġcrea te
Ġgra vi
ĠadÄĥu ga
Ġpartici pe
Ġpopula Å£iei
Ġo uÄĥ
ĠEn erg
ĠC rea
Ġora ÈĻe
Ġuti la
Ġma ss
Ġstatu tul
ĠPro pune
Ġfi re
ĠInspector atului
Ġde Å£ine
Ġfost ului
ĠÃ®ntÃ¢r zie
ĠÅŁti m
ĠclÄĥdi ri
Ġdenumi rea
Ġefici entÄĥ
ju de
Ġpre ga
Ġdu cÄĥ
Ġcon exi
Ġpri mei
l ung
Ġinclu se
ĠM uz
is ti
Ġabs or
Ġfilos of
o ul
Ġpo ses
c ilÄĥ
ĠD Äĥn
ĠIn du
ĠV ar
ĠInstitu tului
Ġdrea ptÄĥ
ĠB re
ĠadevÄĥ r
ĠH uned
Ġsunte Å£i
Ġde ta
Ġdif uz
Ġpriv atÄĥ
Ġorgan ismului
cip ro
ĠsÄĥ rÄĥ
ĠEx terne
Ġcre dem
Ġiu b
Ġuniversi tar
m m
Ġape le
Ġsecre t
Ġdat ori
ba c
Ġace lor
ĠE d
ĠSex y
Ġcur tea
Ġconfir mat
w it
. (
P a
Ġcamp i
Ġspiritu alÄĥ
ĠpÄĥtr un
Ġch im
s hi
Ġcorespun zÄĥtoare
ĠCite ÈĻte
ĠPÄĥ sÄĥricÄĥ
Ġexp lor
Ġkil ogra
Ġlip sÄĥ
in ti
sp on
Ġrec ord
lic ate
ĠPremi ul
Ġsing uri
Ġdispozi tiv
Ġpar cur
Ġdiminea ÈĽa
ten ia
au re
Ġ ;
ĠLi gii
ĠA F
Ġtri mi
ĠAc olo
Ġtru pe
Ġsolu ÈĽie
Ġvic torie
ĠA P
ĠiP hone
ĠParti dului
ĠAl t
Ġdub lu
Ġsuprafa Å£Äĥ
ĠBibliote ca
ĠWe b
Ġse cole
ste m
Ġveri fica
Ġconflic t
Ġs me
ĠD upa
6 5
? ?
Ñ Į
Ġin ov
S A
Ġtehnolog ia
ĠF ot
ia ri
Ġsp use
sion at
Ġingredi ente
C L
Ġimpres ia
Ġci tat
ĠCopii i
Ġcapi tala
Ġap arÄĥ
I R
Ġelect ro
ĠCame rei
Ġsemn ul
on alÄĥ
Ġabsol ven
ĠMa icii
Ġfir mei
ĠMa d
Ġpre siune
Ġlim bi
li u
Ġro t
Ġjude Å£ului
p rie
Ġefec tul
Ġcal dÄĥ
Ġui te
Ġexisten Å£a
be re
Ġt ron
v ene
ri l
Ġca sti
Ġgerman Äĥ
ĠSiste mul
Ġ( âĢŀ
Ġg urÄĥ
Ġpri va
Ġca pe
ĠAu stria
Ġaten Å£ie
or up
Ġsuperi oarÄĥ
Ġmodi ficare
Ġrest ric
Ġsuprafa ÈĽÄĥ
Ġori zon
Ġantrepren ori
ĠAp ple
ĠFestival ului
ĠVi deoclipuri
ĠGru pul
... )
Ġjude ÈĽ
Ġson da
Ġdepl in
oc rat
ĠTotu ÈĻi
si re
Ġvi u
den ÈĽÄĥ
Ġschim be
Ġacord ate
Ġ4 7
Ġfa ca
ĠT op
Ġfinan ÈĽare
Ġpre ala
ĠFier binte
Ġe co
Ġdec enii
Ġsal va
ÅŁ at
Ġvizi bil
Ġcondu sÄĥ
ĠÃ®nal te
Ġga si
ĠMun icip
Ġpre sta
Ġb or
ĠCrist ina
Ġlun ar
ficÄĥ rii
Ġcunos cu
º i
Ġsim ÈĽ
che tului
Ġpute rii
ĠC la
Ġsublini at
ĠDo uÄĥ
ĠÈĻ o
Ġme dici
ĠpÄĥrin Å£i
Ġcompara tiv
in ÈĽei
Ġnaturi i
Ġrecun osc
Ġmerge m
ĠRoman iei
Ġdomicili u
Ġpie sa
ĠpÄĥrin ÈĽi
Ð ´
Ġsub lin
ĠVÃ¢l cea
Ġf um
c ali
Ġaface re
Ġinim ii
ĠC A
Ġdeterm inÄĥ
ric ol
ĠÃ®nregistra re
Ġevalu area
ĠA sa
ĠY ou
Ġse pa
ĠurmÄĥ rit
Ġconside ratÄĥ
Ġ4 4
Ġintro ducerea
Ġa ti
Ġtran zi
Ġu cen
ne ss
Ġperson alul
ĠA pel
Ġbun urilor
Ġcol on
ĠpÄĥrin te
m d
8 8
E G
l oare
Ġsolu Å£ii
Ġf lexi
Ġaca dem
Ġinclu s
Ġpro c
ĠVe chi
ĠÃİ mpÄĥ
ĠFo arte
Ġbut onul
Ġdistan ÈĽÄĥ
Ġatmos fera
imi le
D M
ĠpÄĥ dure
Ġc ana
Ġpreci zeazÄĥ
Ġgre ÈĻe
Ġvac cin
ÈĽion are
Ġcomp ro
Ġui tÄĥm
ĠÃ®n tÄĥ
ĠdesfÄĥÅŁ urat
Ġasigu rat
an Å£Äĥ
Ġ ÈĽe
Ġdez amÄĥ
Ġlitera tura
Ġadmi ra
Ġexi ste
ĠÈĻa pte
os ea
an o
ĠV ii
ĠK e
it h
ac k
Ġalege rilor
Ġdure ri
ĠplÄĥ teascÄĥ
ĠCit y
gu e
Ġproprie tatea
ĠP lat
ro vi
Ġdeterm ina
in tea
ĠHuned oara
h ai
Ġsca un
Ġvite za
Ġpre ferin
Ġprodu cÅ£ie
le y
Ġsuperi oare
Ġde ÈĽin
Ġsla b
ĠfÄĥ cu
g ente
Ġi arÄĥ
ĠAg ricul
Ġv ea
Ġori unde
ĠÐ ¿
Ġy ou
Ġcanti tate
ĠAr tÄĥ
ĠrÃ¢nd uri
Ġimplic ate
ov ici
ĠrÄĥ ma
Ġuni tatea
Ġtelef oane
Ġte mp
u ÈĽi
Ġprim eascÄĥ
Ġpost uri
Ġcu ri
Ġim peri
Ġdestin at
Ġre ÈĽe
Ġsex y
ĠSam sung
Ġeuro peni
ote ra
Ġie s
Ġp isc
sÄĥ rii
Ġcli pÄĥ
Ġcu rio
Ġfrance zÄĥ
ea mÄĥ
Ġfil mului
Ġb rÃ¢n
ĠG al
Ġsu pre
Ġmedic ii
ĠNo ua
Ġg he
f ra
ĠĠ ĠĠ
am i
ĠSocie tatea
Ġcheltuieli le
Ġdin a
ĠH er
l ome
Ġpl Ã¢nge
ta Å£ie
Ġ up
ĠCom er
Ġremar cat
ĠM Äĥr
ĠCi p
Ã¢mb ovi
Ġvari ante
Ġlu atÄĥ
Ġautori tatea
Ġpopul ar
ĠTotu ÅŁi
ĠVi r
Ġc lo
ĠRe volu
Ġperman entÄĥ
Ġintere sele
ro i
PD ATE
Ġpom eni
vie w
5 9
Ã¢n tÄĥ
men tare
ĠÅŁ o
Ġjo curile
Ġau z
Ġsta rt
ĠAc ord
ĠDe clara
ĠpÄĥre rea
ĠÃ®nvin s
d rea
Ġlegi le
Ġpute au
Ġtehnolog ii
Ġcorespun zÄĥtor
ver se
Ġascun s
Ġrezer va
Ġcarie ra
Ġf rate
ch ie
Ġdo vede
Ġco stÄĥ
Ġche mat
ã Ģ
ĠjucÄĥ tor
Ġperioa de
Ġindic a
Ġu cra
ĠBuzÄĥ u
Ġele mentele
Ġpute ti
Ġscris oare
Ġ/ /
' ,
sti ca
Ġoare care
Ġmini ste
Ġgrat uitÄĥ
Ġfac tori
Ġam Ã¢n
Ġtri co
p on
Ġpre ot
Ġca sele
Ġcli ent
6 7
Ġproble melor
Ġo cciden
Ġin tamp
Ġf anta
Ġvacan ÈĽÄĥ
ĠÃ®mb Äĥ
Ġpracti ce
an ÈĽÄĥ
Ġla se
Ġdis cre
Ġo fera
ĠgÄĥ sim
Ġcandi d
Ġba zeazÄĥ
Ġform atÄĥ
Ġmeto d
N T
ĠÃ®nche ierea
Ġreprezentan ÈĽii
fe le
ĠTransp or
Ã¢ ÈĽe
Ġcali ficat
ĠstrÃ¢n s
ĠÈĻ ter
Ġmanife sta
Ġs oi
Ġsupraveghe re
Ġturi sm
ĠÃ®ngrij i
ĠcÄĥ utÄĥ
ĠB usiness
g erul
Ġre cipro
Ġno ta
Ġinclu d
Ġpublici tate
Ġaplic ate
ĠDunÄĥ rii
ĠOrdin ul
ĠD ol
Ġrezol u
om Äĥ
ĠDatori tÄĥ
ĠpregÄĥti rea
Ġsala ria
ĠCite ste
Ġcrea tivi
Ġac tul
Ġrela teazÄĥ
âĶĢâĶĢâĶĢâĶĢ âĶĢâĶĢâĶĢâĶĢ
Ġ4 9
Ġechi valen
ĠD oc
Ġdemon strat
ĠAn tena
Ġpar curs
ĠP iat
Ġco sme
col ul
Ġsen z
Ġpozi ÈĽia
Ġfe re
Ġpa siune
Ġefectu eazÄĥ
ĠSc opul
Ġ4 2
Ġapari ÈĽia
Ġpar c
ĠPut in
Ġpozi Å£ia
ti zare
Ġmu scul
Ġga y
Ġbile te
Ġmi x
Ġpracti ca
Ġcup lu
ĠC eau
ĠSf intei
ĠC lin
Ġrespe cta
f la
en ia
Ġab on
Ġfrec vent
ĠnaÅŁte re
; &
ur t
ct ului
ĠAface rilor
Ġarunc at
ĠF OTO
Ġlip sit
Ġclas ic
se ÅŁti
Ġre in
ĠC Äĥr
Ġsecre te
Ġedi ÈĽia
ĠS T
Ġprodu cÈĽie
ĠA mat
Ġce rea
ĠLe sbi
Ġefici ente
Ġar me
Ġpie sÄĥ
ä º
Ġs che
Ġcredin Å£a
ne ra
ste l
Ġactivi tÄĥÈĽii
Ġbolna v
od er
Ġutiliz atorii
Ġno ii
Ġelector ale
ĠIma gini
Ġa rata
ĠG lo
ĠdesfÄĥÈĻ urat
Ġdetermin at
Ġsu spec
ĠSp er
Ġrestauran t
ĠM en
ĠA ero
Ġcrea scÄĥ
Ġrecla man
ĠpÃ¢ ine
in ate
Ġdepu tat
f ie
t oni
Ġbenefic ii
D upÄĥ
Ġcultura lÄĥ
Ġinter nÄĥ
Ġpremi ul
Ġapari Å£ia
ĠUniversi tÄĥÈĽii
ĠReprez entan
Ġpre sti
ĠDa cia
Ġmi ros
Ġ6 00
Ġprote ja
ze sc
Ġre por
s che
de rilor
sa ÈĽi
ÅŁe sc
Ġcuprin s
Ġreprez entÃ¢nd
ĠON G
o pere
Ġgra vÄĥ
ĠC at
ĠpoliÈĽi ÈĻtii
ĠÃ®nce t
Ġadun at
Ġpia ta
Ġpo arta
Ġridic a
Ġvicti me
ĠParti dul
Ġs h
oc h
Ġapar Å£in
j ute
Ġreg lement
Ġeconom ia
ci os
tan a
m inte
ĠuÈĻ oarÄĥ
Ġg Ã¢t
Ġacor da
Ã® l
Ġmen ÈĽionat
ĠPo t
Ġsluj ba
Ġul tra
Ġvrem uri
ĠC li
Ġ rand
Ġjurn al
stron om
Ġcontra ven
ge t
Ġlung ime
Ġpens ii
Ġnega tiv
Ġsolici ta
ĠI r
ĠA dul
Ġmo ÅŁte
Ġom eni
Ġregim ului
gi ului
Ġpau zÄĥ
Ġmem oria
ne ori
ĠbÄĥrba Å£i
l oa
mul t
da y
ĠmÃ¢ ini
ve ze
V i
Ñģ ÑĤ
! âĢĿ,
Ġcondu c
200 4
Ġscu mp
Ġtemei ul
Ġd l
is s
ĠC ON
ĠD en
ĠPar cul
ĠCon sul
Ġdiminea Å£a
ea d
Ġpu ÈĽine
Ġch imi
Ġcompan iilor
ĠdispÄĥ rut
Ġp lo
Ġprofes orul
ĠÃ®nf rÃ¢n
ĠLice ul
ĠD onald
Ġd an
Äĥ rile
va s
fa x
Ġump le
Ġautori tÄĥÅ£ilor
Ġtrece re
Ġefe ctiv
Ġservici ului
ver sul
Ġmod ali
Ġpozi tive
Ġdeosebi te
Ġtrea bÄĥ
Ġme tro
ga j
Ġmili tari
Ġjoc ului
Ġcu an
N R
ĠOrtodo xe
200 9
ĠAr hiepiscop
pe u
ĠCul turii
go vi
Ġre vol
se se
Ġeva cu
Ġbe re
Ġdin spre
Ġmer gi
ov at
il ie
tic ii
jud ici
ĠÃ®ntre gul
ric an
Ġpopul arÄĥ
ĠInterna tional
gu bi
Ġa gi
Ġpe sc
Ġobiective le
Ġre am
ĠCon ta
Ġfor um
cu s
Ġace ÈĻti
Ġ Î
um im
n erul
Ġeconom ici
Ġd ona
p ers
z ar
ran t
ĠB bw
ĠUni rii
Ġopera re
Ġmen Å£ionat
ĠÃİncep Ã¢nd
Ġtre zit
Ġso Å£ia
ĠGÄĥ seÈĻte
Ġrela ÈĽia
Ġver zi
4 2
du ra
ĠvÃ¢n zÄĥ
Ġh ard
6 8
ar ca
x ie
Ġnep lÄĥ
Ġdi vi
ĠÃ®nde mn
Ġpier derea
Ġinter vi
ĠÃ®ncre derea
ĠIst orie
æ Ĺ
ĠstrÄĥ zile
Ġangaja Å£i
ĠA do
Ġcri ticÄĥ
Ġsluj i
Ġfin ala
Ġcaz urile
Ġrespec tÄĥ
ĠInterna ÈĽional
ĠpÄĥ ca
ĠEl ve
Ġasigu rare
Ġcerce tÄĥri
Ġform eazÄĥ
ĠN umÄĥrul
Ġs atului
Ġprote cÈĽia
] ,
l ing
Ġdob Ã¢ndi
ĠnaÈĻte re
Ġdistan Å£Äĥ
ĠDece mbrie
ï ¼
Ġui tÄĥ
chi zi
ĠH or
ĠAu tor
re di
stÄĥ ri
Ġobligat oriu
Ġpersona j
Ġclub ului
Ġy o
Ġpro mis
Ġrec ol
Ġdor inÈĽa
ĠÃ®n matricul
Ġintrodu s
ĠB ote
ĠC J
Ġpla y
Ġpu Å£ine
Ġutiliz atori
Ġcost urile
Ġmo re
Ġluc reze
Ġprimar ului
Ġmic u
Ġmo dÄĥ
ĠMar in
Ġdepu se
ren t
ĠcÄĥldu rÄĥ
Ġvala bil
st rie
Ġplic ti
Ġsurprin s
ĠÃ®nt in
ĠCh ar
ĠÅ£Äĥ rile
re zi
Ġac tele
Ġon oare
Ġh an
ĠM el
Ġsalari ul
ĠpÄĥ rut
Ġvorbe ÈĻte
ĠÃ®mbunÄĥ tÄĥ
ĠHotÄĥrÃ¢ rea
ĠNe gre
Ġcelor lal
Ġreda c
cea pÄĥ
Ġrec ru
Ġre p
Ġcere mon
ĠfuncÅ£ion eazÄĥ
Ġscand al
Ġparf um
ori ca
Ġam uz
ĠCar men
Ġalb um
Ġte amÄĥ
â ģ
ĠS tiri
ĠIn de
ĠGabrie la
ĠS RI
Ġnep ut
ĠInterna Å£ional
Ġmanu al
Ġpla jÄĥ
ĠbÄĥ tut
ĠcetÄĥÅ£ enilor
ÈĽ u
j o
q ui
Ġac tri
Ġde lici
ĠP C
da go
ba ck
ĠOrtodo xÄĥ
! )
Ġsa v
ĠvÃ¢ndu t
oli u
Ġameric ani
Ġora ÅŁe
n eascÄĥ
Ġinten s
z o
Ġab or
Ġcomple xe
Ġjuri dic
Ġta ie
Ġde bi
h at
ĠVe st
ĠAme ricii
Ġfie cÄĥrei
Ġan terioare
Ġam Äĥn
Ġmili tarÄĥ
Ġclien ÈĽilor
ĠPÄĥrin tele
Ġdi ge
Ġdor inÅ£a
Ġfe rea
ĠSin gure
ĠB ro
Ġstri ct
Ġbritan ic
ĠaÈĻte p
Ġdrum urile
ĠT ar
Ġne gre
ĠÃ®n tÄĥri
b ei
Å£ el
Ġrela ÈĽie
% ),
U B
Ã®n tul
Ġas fal
or oci
Ġafi ÈĻ
Ġpune rea
ti st
Ġg eni
Ġim en
Ġ ÈĽinut
........ ........
ĠDrep t
ĠP om
ĠC ali
Ġfinan Å£are
ĠprimÄĥ varÄĥ
Ġde ri
ĠPD L
cti i
Ġtempera tura
Ġstu diile
ic hi
ĠcÄĥ lugÄĥ
ver in
Ġargin t
ÅŁti a
ĠS oc
Ġnecesi tatea
Ġmotive le
n im
p area
Ġ1 000
Ġrezol va
Ġdezvol tÄĥ
ĠPiat ra
f at
M ai
Ġze ro
ĠIm peri
ĠT Ã¢nÄĥ
Ġreg re
pa ci
Ġsub iecte
ĠzÃ¢mb e
Ġrezi den
ĠP ur
Ġlup te
Ġelect ronic
4 1
Ġde ÈĽine
ve zi
B u
ÅŁ tea
Ġpro cent
ore l
Ġ12 0
ĠR OM
Ġactivi tÄĥÈĽile
Ġsar cina
ĠRÄĥ spun
Ġdez in
Ġ( âĢ¦)
ta ÈĽie
Ġprez inte
ĠLu ca
Ġs Ã¢r
Ġpre sei
lo pe
Ġiubi rii
ĠIu bi
ĠE X
ind Äĥ
Ġrec en
ĠU PDATE
E SC
ĠcopilÄĥ rie
ĠT ub
ĠmulÈĽ ime
Ġpotrivi te
Ġac tivÄĥ
Ġa di
ĠCapi talÄĥ
200 7
Ġsim ÈĽit
ĠV ene
Ġlimi tÄĥ
Ġrec ente
C T
s ie
Ġconstr uirea
b iei
p uri
Ġreferi re
Ġa erul
sti cile
Ġsolu Å£ie
Ġpre fera
ĠA ur
ĠAn ton
Ġdom eniile
Ġal o
Ġexpri mÄĥ
Ġcalcul ator
ĠC up
ĠGala Å£i
Ġvarian tÄĥ
ĠC upa
ĠVi zi
Ġrecom anda
Ġaplica ÈĽii
gÄĥ toare
Ġlin ii
Ġdiagno sti
8 5
ĠÃ®mpÄĥ rÄĥ
B C
Ġva rie
Ġg an
ĠB Ã¢r
Ġcampan iei
Ġve hicule
ĠAÈĻa dar
ĠNÄĥ stase
ne ÈĻti
Ġplan uri
Ġle agÄĥ
Ġj e
cal aure
ĠmiÈĻ care
ĠA de
clu siv
Ġmajori tate
Ġspeciali st
Ġam Ã¢nd
Ġelect ric
od ia
ĠprevÄĥ zutÄĥ
an iei
ĠV ran
inÄĥ rii
Ġneg li
u area
Ġcomuni st
ĠDÄĥn cilÄĥ
Ġprote cÅ£ia
Ġgol uri
eam na
ĠMil f
Ġc en
Ġzon ei
Ġansamb lu
Ġregul ile
ĠR O
ĠBÄĥr baÈĽi
Ġ %
Ġfolo seÈĻte
ĠMure ÅŁ
ĠBise ricÄĥ
ĠRÄĥ zvan
âģ ł
ĠÃ®nÈĽele g
oc iere
gÄĥ ri
Ġve chim
ĠBi hor
ĠBer lin
ĠnÄĥ scu
ĠAsi sten
Ġs fÄĥ
o ut
Ġafec tate
Ġefectu a
ĠS P
ie ze
Ġdezbate re
in k
ol d
Ġteleviz or
U T
ve ÈĻte
Ġm aturi
Ġplat forma
tion s
ĠscÄĥ dere
ĠF und
ĠÃ®ndoi alÄĥ
s k
ĠTe odor
Ġeconom iei
t rie
ÈĽi ÈĻ
Ġpor tof
ĠdezvÄĥ lui
rice anu
ĠAng lia
Ġin u
Ġimpl icit
c ic
Ġpra gul
Ġlans eazÄĥ
Ġst om
Ġpracti ci
Ġlocui torii
Ġfolos eascÄĥ
Ġa ranj
Ġajunge m
Ġadres eazÄĥ
4 3
Ġproa spÄĥ
ĠO are
Ġplan urile
Ġo mene
ĠÃ®nÅ£ele p
Ġba s
Ġfund amentale
C um
ĠTribun alul
die rea
Ġcon stituit
I F
Ġpriv inÅ£a
ĠMana ge
ĠO f
Ġulti mÄĥ
Ġstu dia
Ġsigu rÄĥ
Ġpartene rii
Ġat Ã®t
che zi
ĠOri cum
osi f
ĠInspector atul
Ġgospo dÄĥ
Ġofer ind
Ġcapit olul
Ġin format
Ġperi o
Ġma gne
Ġcontri bui
Ġex por
Ġclic k
Ġex curs
. ),
tu ale
de j
ĠpreÈĻedin telui
ĠAcadem ia
Ġsenti ment
ran s
Ġpagini le
Ġver siune
g urile
Ġma e
ĠS ele
Ġv Ã¢nÄĥ
Ġj oace
ĠA G
sc o
Ġdeschi dere
ĠlÄĥ u
Ġcent re
Ġre parti
ĠÃ®nso Å£i
Ġpotrivi tÄĥ
ĠBÄĥ n
Ġsuc cesul
Ġchel tu
ĠBu da
Ġta xa
Ġdeplas are
Ġvo ce
on y
Ġmeto da
in Å£ele
Ġap ost
je lor
Ġasc unde
ĠU neori
Ġcon fe
Ġcla ri
Ġexper ti
Ġsala rii
Ġcontinu u
Ġextraordin ar
Ġani vers
Ġp t
Ġusc at
Ġexemp le
ce anu
âĢ¦ .
Ġin dicÄĥ
Ġna i
s are
ori c
ĠS he
Ġvul nera
Ġstu dent
Ġinforma Å£iile
Ġrela ÈĽii
Ġprincipi u
Ġajun gi
Ġexpri mat
Ġam or
Ġsol da
200 1
aliz eazÄĥ
li st
Ġsa pta
Ġauto bu
Ġdiscu ta
Ġa tare
Ġgen un
Ġapara tul
ĠFili p
ĠÃ®nregi strÄĥ
Ġver siunea
Ġprelu a
Ġdure rea
sta r
ĠI z
Ġimplic area
ĠpÄĥrÄĥ sit
Ġtra duce
ch er
! âĢĿ.
6 9
ĠS tre
n d
Ġru gat
Ġsex ualÄĥ
ĠÃ®ndepl ine
a j
Ġface Å£i
te ni
ĠVi ena
ĠMiha ela
ĠCen ten
Ġh ec
Ġorgan ismul
Ã ¤
Ġpoli Å£ie
ĠÂ ºi
M o
ĠP lus
Ġperson alitate
oa ca
Ġfi resc
ĠpÄĥ strat
Ġdiscu Å£ie
ĠM uncii
Ġmulti ple
Ġglo bal
Ġchel tui
Ġmin une
ĠcÄĥlÄĥ torii
ÈĻ ie
Ġ19 18
Ġf ura
P R
tan te
Ġpa sÄĥ
Ġcredi te
Ġobser vÄĥ
Ġprezen Å£i
ici le
ĠW orld
Ġapu cat
Ġresur selor
Ġprezen ÈĽi
ĠÃ®nvÄĥ ÈĽa
al o
Ġterm eni
ĠP S
ĠÃ®mplini t
Ġacelea ÅŁi
Ġb en
ne ÅŁte
b ala
ĠclÄĥdi re
ĠB ri
Ġdesp rin
. ).
ĠDin tre
Ġscul p
Ġf re
Ġclien ÈĽii
ĠSÄĥnÄĥ tate
ĠOrdonan Å£ei
Ġde jun
ĠÃ®ncer c
ĠE gi
za ÈĽi
M Äĥ
Ġca ut
ograf ie
Ġinterna ÈĽionalÄĥ
Ġde ranj
ĠSi gur
Ġidentific at
ĠF oc
olo gi
Ġla te
Ġrelax are
ĠMure ÈĻ
be sc
Ġcon e
Äĥr bÄĥ
ĠsÄĥnÄĥt oasÄĥ
Ġdemis ia
Ġscur te
Ġprin de
Ġedi Å£ia
6 4
ĠMesa je
Ġten ta
la v
Ġdom ni
Ġmod alitate
ĠDirec Å£iei
Ġpromo va
Ġspectacol ul
Ġw ith
Ġto ÈĽii
cre din
B i
Ġac operÄĥ
ĠAt Ã¢t
ĠN oa
Ġelim ina
Ġfurniz area
ĠcÄĥu ta
Ġabord are
Ġgra tis
une le
ĠMic rosoft
ĠE U
Ġad or
Ġistori cÄĥ
ĠC alea
Ġsf at
ca z
Ġvi ol
ĠS y
Ġsolici tarea
Ġpom pie
bu sti
Ġaf le
ĠPoli Å£iei
Ġori cÄĥrei
Ġconsi sten
Ġlibe re
Ġpri cina
Ġfe tele
Ġsim Å£it
ĠB lu
ĠsÄĥptÄĥmÃ¢n ii
Å£ion atÄĥ
ĠÅŁedin Å£a
ĠT or
bi o
Ġameric anÄĥ
ĠLi be
Ġarti st
ĠE v
ve ÅŁte
RomÃ¢n ia
ĠS ar
Ġe sc
t rii
Ġd on
Ġperspe ctivÄĥ
Ġmi siunea
Ġsta i
der ul
Ġto x
Ġto le
fi t
Ġca da
Ġsin cer
TE R
ĠÈĺ coala
ĠÃ®mprum u
Ġli derii
Ġconside rate
ÈĻ cÄĥ
ĠgÃ¢nd urile
ÄĤ R
ĠDirec tor
uz ie
voc at
Ġcanti tatea
ĠDeputa Å£ilor
E RI
fec tul
Ġfal se
lea scÄĥ
Ġelibe rarea
Ġned rep
T V
Ġgu stul
Ġparale l
Ġexcep Å£ia
Ġnum arul
Ġacela si
Ġpo stat
ĠFe ci
a v
P rin
Ġco e
Ġb enz
Ġj i
ĠXI X
Ġspiri tual
g y
ĠR A
ces cu
Ġcombate rea
ĠJ andar
Ġvalori lor
ĠPute ÈĽi
Ġm ica
ĠCÄĥ lin
x y
sh op
l r
Ġprem ier
Ġlimi tele
Ġin ainte
ĠzÄĥpa dÄĥ
ĠH ome
Ġve st
Ġpropa gan
Ġafla ÈĽi
Ġcu pl
Ġcl arÄĥ
ĠF ondul
imi ti
Ġfun ction
C D
op ol
Ġori cÄĥrui
Ġd Ã¢n
Ġliv rare
Ġ Å£e
ĠD Ã¢mbovi
Ġcea s
Ġlini ÅŁti
Ġfe sti
ĠM c
Ġdis pera
Ġmo toc
Ġconstr uitÄĥ
w ard
sta tÄĥ
tion ala
Ġinteres eazÄĥ
Ġde mult
ĠIoan a
Ġp uri
Ġmu tat
Ġinstitu Å£iile
Ġcu ce
ĠBiro ul
Ġvorb eascÄĥ
Ġm ent
ĠL un
Ġbog atÄĥ
Ġ( ...)
Ġrezul tÄĥ
ĠAc ces
ĠJap onia
Ġchi pul
Ġc le
Ġascul tÄĥ
Ġfal s
RE A
ĠPlo ieÅŁti
ter ul
od on
Ġmin utul
Ġfunc Å£ii
ĠbÄĥ i
ĠSpi talului
Ġg el
Ġg eam
tori ale
Ġtra ta
ĠI osif
ver n
iel ilor
oare i
Ġsitu atÄĥ
ra s
Ġav oca
Ġ8 5
Ġacelea ÈĻi
Ġban car
ĠApost ol
Ġpl oaie
ĠNu mele
ĠrÄĥb dare
ĠrÄĥ m
Ġ4 1
Ġcole ctiv
oa der
ne ÈĻte
Ġint ru
im Äĥ
olog ul
Ġco dul
Ġidentific area
ĠUl terior
cin ta
Ġo xi
ĠÃ®ntÃ¢lni rea
ing ton
ĠZile i
ura re
ĠCh at
lu c
ĠÅŀ coala
ĠEx pozi
Ġdiscu ÈĽie
Ġign or
Ġfron tierÄĥ
ĠJ uri
ciu c
n ica
ĠplÄĥ cutÄĥ
. :
Ġst Ã¢r
Ġdu ÅŁ
zÄĥ r
st Ã¢nd
Ġstre s
Ġresur sele
Ġcon ver
Ġfol c
Ġdesc ri
ĠÃ®nÄĥl Å£
Ġun gh
ĠAl ina
ĠMaj oritatea
Ġbi jute
su b
Ġale gi
ĠM us
Ġin gine
Ġal be
Ġapa rat
Ġanti cip
Ġj uni
ĠscÄĥ pat
fi ind
Ġde venind
Ġav an
Ġpat rul
Ġf an
Ġnorm alÄĥ
ĠCau tÄĥ
ĠCa p
Ġin tal
Ġcompor tamentul
ĠN r
ĠL at
Ġuci s
Ġresponsa bilitatea
Ġcre scu
Ġduhov nice
200 3
ul t
ĠadevÄĥ rate
Ġmane v
Ġs ana
Ġti mi
ĠÈĽÄĥ rile
ĠPo st
ĠMul te
Ġpil dÄĥ
ĠM oi
Ġdat oria
b urg
ĠÃ®nsÄĥ r
Ġsec tor
ĠStra te
Ġinteri oare
Ġnen umÄĥ
F e
Ġpici or
Ġmi siune
Ġce tate
ĠBÄĥ l
n oi
Ġtrase ul
Ġlibe ra
in atÄĥ
Ġ Ø
Ġrela Å£ii
ĠAplica ÈĽii
Ġpreluc rarea
p oli
Ġprincipi ul
ĠobÅ£in ute
ta tiv
enta riile
Ġresp ins
t ome
Ġincul p
! "
ĠV in
ui Å£i
Ġtit luri
Ġscrii tor
Ġprogra mele
ĠscÄĥ pa
ĠPra hova
ĠÅŁcol ar
ĠÃ®ncer care
Ġelector alÄĥ
Ġtotali tate
Ġreferi tor
Ġsun Äĥ
ta s
is tan
Ġpens ie
Ġdec on
9 5
Ġofer tÄĥ
ĠbÄĥn ci
ĠUni rea
ĠB ol
gi le
ĠPoli Å£i
Ġmodi ficat
Ġblo gul
Ġsf inÅ£i
Ġcere rii
Ġdumneav oastra
ĠS Ã¢n
ĠÈĽ Ã¢ÈĽe
ĠBrÄĥ ila
g ene
Ġce arÄĥ
Ġangaja ÈĽi
Ġocup area
Ġsurpri zÄĥ
Ġimagini le
u el
Ġini Å£ial
Ġfor Å£Äĥ
Ġdes cur
Ġv oc
ĠD Äĥ
Ġdes fiin
Ġdocumen telor
Â ®
Ġjudici ar
Ġdro guri
Ġini Å£i
ĠPro te
Ġfacul tate
ĠCuvÃ¢n tul
Ġprop use
ĠproducÄĥ tor
Ġinter venit
ÃĤ N
Ġb el
Ġstu diul
Ġevent ual
o tul
Ġlini ÈĻti
gÄĥ tor
ĠProble ma
Ġinteri oarÄĥ
Ġac tori
den Å£Äĥ
ĠS upra
Ġfestival ului
Ġto Å£ii
ĠDis pozi
æ ľ
o sti
Ġfo sta
Ġz bu
ind eni
Ġini ÈĽial
ĠrÄĥsp Ã¢ndi
Ġse parat
Ġg ran
Ġclien ÈĽi
Ġstate lor
Ġca mi
a ma
is me
ĠÃ®ntrea bÄĥ
ÈĽion atÄĥ
ĠA zi
ĠproaspÄĥ t
Ġtrafic ul
Ġne ferici
ĠNea grÄĥ
Ġide ile
d rÄĥ
m oni
Ġ rin
Ġmaxim um
Ġag lome
tori u
Ġinter zice
ĠArge ÅŁ
Ġm is
Ġlitera turÄĥ
si unilor
ĠT oader
Ġbine le
Ġelibe rat
ĠVine ri
Ġfunc ÈĽii
ĠDomniÈĻ oare
D i
Ġcado uri
Ġtrase u
f und
p ing
ĠmiÅŁ care
U RI
ĠS ale
te ÅŁti
Ġpre va
ĠR ai
Ġpere che
Ġrezultate lor
ĠB rÃ¢n
Ġam bul
ĠÈĻe ful
ĠR oc
z ului
Ġre vin
Ġpost ului
Ġunui a
Ġsala riu
ĠÄĥ la
toare lor
Ġdat orii
D O
ÅŁ ine
Ġperioa dei
ĠrÄĥspun dere
Ġtrans mise
ĠÃ®nde mÃ¢n
ĠS oare
titu dinea
200 2
Ġbru sc
Ġile gal
ga riei
Ġefor turile
ĠfÄĥce au
Ġ0 6
Ġi gi
Ġ5 7
Ġinteres at
ĠS ha
Ġipo te
ĠV reau
tal ii
ne y
Ġm iere
Ġnivel ului
S B
Ġreli gie
Ġni sip
ĠMe mb
stea zÄĥ
Ġinterna Å£ionalÄĥ
ti mi
ic k
ĠÐ ²
Ġmasa j
Ġprovoc at
I G
l iei
UL UI
Ġe po
Ġconcent ra
ĠcetÄĥÈĽ enilor
ĠTine re
ĠgrÄĥ dinÄĥ
Ġcl are
Ġprive sc
C C
Ġcon Å£inut
ĠAnt onescu
Ġcore spon
Ġadres at
Ġreprez inta
Ġfolos im
ta ie
Ġprop un
Ġu rÄĥ
ĠmulÅ£ umi
Ġcontinu area
Ġimo bile
Ġpe ÅŁte
200 5
vÄĥ rii
Ġcul e
Ġuni ce
Ġidenti fica
Ġfoto gra
Ġs um
Ġlan ga
ĠVran cea
ĠCe re
Ġbe ton
Ġne de
Ġlegisla tive
Ġobligat orie
Ġpor unci
Ġcin sti
Ġatitu dinea
Ġli tri
Ġfel ici
Ġtre ptat
Ġ4 6
ĠUS R
col ar
Ġsp ons
ĠH u
Ġpute am
ĠP si
Ġrit m
ĠBoto ÅŁani
Ġob ose
Ġfu rat
Ġt un
mn iza
Ġdis cutÄĥ
Ġprezente i
ĠCi u
Ġinter val
ĠUrgen Å£Äĥ
Ġcomp uter
Ġdi vor
ali tÄĥÈĽii
Ġexecu tiv
ĠMad rid
Ġmine rale
ĠA pa
Ġpre tin
ÈĽ ime
Ġautove hicule
ĠvÃ¢r ful
5 7
Ġclasi ce
Ġcum pere
Ġcontinu e
ograf ia
d iere
h ul
pi tan
Ġgun oi
Ġve ti
Ġpat ra
Ġconfir mÄĥ
Ġban cÄĥ
Ġexperien Å£a
ĠJusti Å£iei
Ġgh ea
ĠFap tul
ĠAd am
Ġlacri mi
Ġfond urilor
ÅŁ cÄĥ
T u
ta il
ĠÃ®nÅ£ele g
Ġauton om
S un
Ġro z
Ġafla Å£i
Ġdu reazÄĥ
Ġmom entele
ĠTim p
Ġf rac
alizÄĥ ri
ĠMi tropoli
Ġstruc turÄĥ
Ġsimp tome
Ġcapa bil
Ġexe cutÄĥ
e uro
Ġauto h
Ġf rica
ĠTe x
Ġfa zÄĥ
Ġte st
Ġ20 20
Ġdova da
Ġs ent
vi re
ĠÃ®ng hi
ĠCampion atul
Ġresponsa bilitate
Ġtri b
c ron
ĠPo ze
ĠÃ®ngrij ire
Ġtra tat
ĠasemÄĥnÄĥ toare
Ġgenera ÈĽie
Ġdia vol
ĠPracti c
Ġsp Äĥl
ĠNim eni
Ġasta zi
m s
Ġdul ci
Ġatmos ferÄĥ
ĠÃ®nto ar
d ale
Ġmod ului
Ġrela Å£ia
ÅŁi tÄĥ
Ġra di
ĠÈ ĭ
ini t
ĠÈĻti ÈĽi
amen tal
Ġinte ra
Ġsimil ar
lo cu
ĠVic toriei
Ġra poarte
Ġevenimente lor
ĠÃ®n datÄĥ
tut indeni
Ġo chilor
ĠÃİn vÄĥ
Ġsuc ce
Ġfra u
Ġmijloace le
Ġcarac tere
ĠDum i
vi deo
Ġto pul
Ġuni tÄĥÈĽi
Ġ4 3
ĠP une
ĠAr te
ĠAcci dent
s in
ĠT oc
Ġ one
Ġso f
m va
ĠB arce
ĠEduca Å£iei
ia u
h el
cÄĥr uia
z il
ar dÄĥ
Ġpreci s
d iei
ĠAÅŁa dar
ĠtrÄĥ iascÄĥ
Ġexcelen t
ĠApÄĥ rÄĥrii
Ġspeci ficÄĥ
Ġmaj orÄĥ
ĠA NA
ĠF M
ĠSol u
Ġma rii
ĠSen atului
Ġa viz
âĢĿ )
ĠE ti
to resc
ti al
ĠÃ®mbÄĥ trÃ¢n
f unc
l uit
Ġra re
ĠNa tional
Ġexamen ul
ĠF ra
Ġarti stic
to tdeauna
Ġs oarele
Ġsec ol
Ġpriori tate
Ġsar cinÄĥ
un area
Ġo pere
C Ã¢nd
Ġno te
Ġser vice
ĠLa zÄĥr
Ġalba stru
mÃ¢n e
oare lor
Ġcheltu ielilor
Ġdocumen ta
ĠÃ®mb ogÄĥ
Ġcurs urile
ĠD os
Ġfrun tea
Ġfin alizarea
ĠB ene
Ġconstruc Å£ii
tive le
ĠaÅŁte p
Ġpre judici
Ġparti dul
t Ã£
Ġdimen siunea
Ġi ri
ĠÃ®ntoc mit
g il
Ġre pl
ĠCi r
Ġantren or
Ġmemo rie
Ġof f
sc ris
Ġvo cea
ĠU R
Ġpsi hi
ĠI rina
Ġadministra re
ĠrugÄĥci unea
Ġsezon ului
ĠClau diu
ĠAsocia Å£iei
Ġdezvol te
Ġexecu tare
Ġapa rate
ger pres
Ġfron tie
te an
Ġauto stra
ter s
ĠrÄĥ z
Ġrespec te
Ġindustri ale
Ġz b
5 8
j an
ĠS ti
ĠT en
Ġpu teri
Ġconcep ut
ĠF isc
ĠComun ic
ca sÄĥ
ĠL A
cri min
Ġcomis iei
Ġinforma tii
Ġfoa me
Ġconta cta
h ei
Ġlim pe
Ġhi per
ĠAdo lesc
ĠGro up
ĠaÈĻte ptat
Ġf rÃ¢n
ĠMa y
Ġsecre tar
ĠcetÄĥÅ£ eni
Ġcaracter ul
Ġban ilor
Ġstu dio
!! !
ĠÃ®ncre din
ĠCod ului
Ġin a
Ġb lu
Ġanimale lor
Ġjo b
gea ba
Ġanaliz e
ĠAr ti
Ġdeci ziei
li be
ĠamÄĥn un
ĠbÄĥ iat
Ġal une
t rea
ĠS ing
Ġlec turÄĥ
Ġne uro
Ġprile jul
Ġcom busti
ĠH um
ĠMi j
Ñ ĩ
ĠV rem
Ġvol ume
Ġche ma
ta tor
ol atÄĥ
ĠCa sei
Ġac Å£iunile
ĠA min
ut ului
Ġ Ñģ
Ġroman i
ĠmulÈĽ umi
Ġiz buc
A cea
Ġactivi tÄĥÅ£ile
Ġpie pt
Ġf lor
Ġc ron
ĠAu stra
Ġev rei
Ġdi re
Ġsecuri tatea
Ġp ct
an ie
ĠDirec Å£ia
Ġdesp Äĥ
Ġu st
Ġconclu zia
b in
ĠÃ®nsÄĥr cin
R a
une i
Ġdi rij
ĠSex ual
Ġfri g
ĠValen tin
Ġparte nerul
ĠA ut
Ġva s
Ġru tiere
Ġbar ba
Ġlap top
Ġ ..
Ġcontri buit
Ġg la
Ġare stat
Ġasisten Å£Äĥ
ĠState lor
ĠSt rÄĥ
Ġsup us
Ġcircula Å£ie
ĠUl tima
ÈĽi te
ui ÈĽi
ĠF ol
tis ment
ĠMon dialÄĥ
Ġbon us
Ġe re
ĠO landa
æĹ ¶
Ġm ize
Ġfolo seÅŁte
Ġconcep t
Ġde al
ĠW ash
ĠstrÄĥ zi
Ġmagaz inul
Ġconcer te
ĠFot bal
Ġm ort
Ġinteres antÄĥ
Ġtri ste
Ġcaracteri stici
Ġno ilor
a a
Ġso ÈĽia
ĠRegul amentul
Ġace i
Ġciu dat
Ġcau ze
oa ia
Ã®n Å£ele
Ġdes ene
Ġas ia
ĠL en
ĠIn dia
Ġd iza
ĠpÄĥrin Å£ilor
Ġlucru rilor
Ġschimb ul
âĢĻ ,
Ġmuzic ale
ĠA fi
Ġsiste mele
ĠPove stea
Ġra f
Ġvrem ii
ĠtÃ¢nÄĥ rul
Ġven ea
cu men
ĠJ i
ĠGrigo re
% )
nic ii
ĠVic toria
ĠLi tera
Ġteren uri
ĠJe an
ĠÃ®n semna
l inÄĥ
lu ie
di rea
Ġimpo si
Ġvi teze
ĠBel gia
sp ru
Ġproduce rea
Ġcomp arti
Ġautori tÄĥÈĽilor
ĠFinan ci
Ġin tri
ĠTeat rului
Ġdat oreazÄĥ
L u
ti zarea
Ġief tin
Ġcer ul
Ġmin uni
Ġspiritu ale
Ġban ca
ĠvÃ¢r ste
Ġarhitec tura
Ġobiectiv ul
ru tÄĥ
ĠPo e
Ġaccep tÄĥ
tu s
Ġfeme ii
Ġmuz icii
Ġ8 00
I P
Ġeconom i
ĠcÃ® teva
ĠSe ba
ĠGenera lÄĥ
Ġde ÈĻe
Ġaf lau
Ġta ta
Ġam bala
Ġstabili tÄĥ
ĠpÄĥ mÃ¢n
Ġinsta lat
Ġmi ro
ĠIn sta
Ġtri mise
Ġfoc ul
ĠI onescu
Ġtre zi
Ġre per
oane lor
Ġbo gÄĥ
Ġtotal ul
ĠGa v
ĠÅŁti inÅ£Äĥ
ĠIst oria
Ġasocia te
Ġfa im
ĠCana da
ĠstrÄĥ in
Ġa va
Ġcons uma
Ġarma ta
st ing
ĠgÃ¢nd im
rÃ¢ u
Ġafec ta
Ġprote c
Ġdu ÈĻ
Ġcarti erul
y e
Ġcad re
mp i
Ġfil oz
Ġal ar
de z
Ġincen diu
Ġta bÄĥ
ĠÃ®nc or
ĠÃ®nvÄĥ Å£a
Ġnume re
Ġdisponi bilÄĥ
Ġlec tura
ĠO bie
ĠVe de
ĠS chim
Ġsiguran ta
Ġh omosex
ĠsÄĥl ba
Ġne s
du s
ĠMate ri
Ġin cinta
ĠÃ®ntre ba
Ġp icÄĥ
Ġpremi u
Ġba zat
ĠTÃ¢r govi
5 6
Ġpetre cere
ĠÃ®ntre Å£ine
Ġdrum ului
Ġsoare lui
B a
Ġretra s
Ġfer me
Ġbi o
Ġcomuni tÄĥÈĽii
ĠvÃ¢n zÄĥri
sul a
Ġasisten ÈĽÄĥ
ĠN E
ĠproducÄĥ tori
Ġarti stice
Ġprofes orii
Ġis pi
Ġcompa ti
Ġreduce ri
Ġpreo tul
ĠComp lex
ĠDi re
se sti
Ġamin tit
oli ul
ĠR os
Ġprov oacÄĥ
Ġsex ual
um ini
Ġorgan ele
Ġferici tÄĥ
ĠAutori tatea
Ġprez entul
ĠOl t
Ġfel uri
ĠCh a
âĢ¦ âĢĿ
o ar
res s
Ġadop tarea
ĠcetÄĥÅ£ enii
Ġper se
me tri
ĠSer bia
ĠCÄĥlÄĥ ra
fin an
ne s
Ġtero ri
Ġban da
ale lor
ĠMA I
ĠDom n
Ġprofesioni st
ĠP opul
ÈĽele s
ĠFran ci
ine lor
Ġ6 4
ĠV an
stitui rea
Ġbro w
Ġcomp us
Ġini ÈĽi
Ġproceduri i
ĠCa rac
ĠPÄĥ i
Ġreprezentan t
Ġief tine
Ġnere gul
ta Å£ii
Ġcre atÄĥ
ĠÅŀ e
Ġconta c
ĠAc tu
Ġdesemn at
Ġh Äĥr
Ġadre sÄĥ
ĠStu den
Ġelector al
ĠT it
Ġro ÈĻu
y n
Ġpove ÅŁti
Ġave ti
Ġli deri
ĠÈĻcol ar
ĠParti cip
Ġdigi tal
Ġinter se
Ġprincip iile
Ġin dis
re unÄĥ
l ona
ĠG imna
Ġspeci fica
Ġata cat
ĠA gerpres
Ġchirur gic
ie v
Ġsupravie Å£
ĠRe al
Ġa x
Ġcre eze
Ġrela Å£ie
8 7
Ġinstitu ÈĽiile
Ġdis pari
da cÄĥ
Ġb le
ĠNe g
Ġau d
Ġredu sÄĥ
Ġajung Ã¢nd
cÄĥ torul
ĠMedic inÄĥ
Ġpor ni
ĠpÄĥ tra
ĠAsocia ÈĽiei
ĠLau ra
ĠprimÄĥ vara
ĠS tr
Ġfurniz ate
Ðµ Ð½
nic ie
alizÄĥ rii
umb lr
Ġru sÄĥ
Ġmon dialÄĥ
ĠTÄĥ riceanu
z Ã¢ndu
Ġin ch
ter ni
Ġacce sa
ĠcetÄĥÈĽ enii
ol ic
Ġpo se
Ġde pres
ĠPro ce
Ġun ghi
Ġde o
Ġpe tro
ĠP r
Ġexerci tarea
ĠcÄĥ pÄĥ
Ġdiferi tÄĥ
Ġjude ÈĽului
ĠA M
Ġh ol
Ġimpa ctul
Ġun t
ĠgÄĥ seÈĻte
ĠBasara bia
ĠDumneze ul
ĠVi orel
ĠMa sa
ente lor
ĠÃ®nsc riere
ĠAf rica
Ġp ale
ie rilor
ĠAca sa
Ġasi gur
ĠapÄĥ rarea
Ġmas ina
Ġsin uci
Ġcre ÈĻ
ĠurmÄĥ torii
ĠDobro gea
Ġlans are
Ġre gele
ĠCent ralÄĥ
Ġfamil iile
ĠZi arul
Ġvizi une
ĠdepÄĥ ÈĻi
Ġvizi unea
ĠF ri
Ġmana ger
Ġamen dÄĥ
Ġim puse
Ġcons umÄĥ
Ġplat formÄĥ
Ġfond urile
f ov
Ġinsu fici
ne l
tati lor
ĠVi orica
ha el
Ġ 000
ĠProgra mului
pe rea
se t
v atÄĥ
ĠplÄĥ cea
Ġta sta
Ġcri terii
Ġmascul in
Ġfie cÄĥruia
Ġse me
âĶ Ĥ
Ġcomuni tÄĥÅ£ii
RE S
C S
Ġv iza
ĠCur Å£ii
si s
Ġemi siunea
ĠN atura
ch eazÄĥ
Ġrevi stei
ĠAL DE
uni versi
Ġapro bÄĥ
an tului
rim ea
mi r
t Ã¢ndu
gu vern
Ġcomunic area
ĠÅŁedin Å£Äĥ
ĠÃ®n fi
Ġsu mele
Ġaccep ta
Ġjude cat
Ġdiscu ÈĽii
Ġtra i
Ġp rÃ¢n
Ġac tor
ĠO ne
Ġac Å£ion
Ġcomple te
Ġ' '
ĠAgen Å£ia
Ġin vers
ĠD J
ĠProfe s
Ġpre ferÄĥ
Ġtradi ÈĽionale
ĠC ristos
Ġnorma tive
Ġadministra Å£iei
Ġd ur
Ġo lim
Ġmateri alele
Ġad vers
A d
v ili
ĠMedia fax
ĠpÄĥ sÄĥricÄĥ
Ġprivi rea
Ġdetal iile
Ġcost uri
ch en
Ġd rÄĥ
ĠP oi
Ġse siune
Ġsu dul
Ġna ve
Ġlocu iesc
Ġstrate gie
u ÈĽ
Ġ @
å ½
Ġconcre te
fa v
ce an
Ġlum i
s ma
Ġch eamÄĥ
ĠjucÄĥ torii
ĠÃ®nt inde
Ġba ga
Ġnord ul
M ar
Ġreg enera
V a
s ki
ĠDra cu
an du
Ġfor ÈĽÄĥ
Ġin cepe
tific area
Ġinde mniza
ĠP IB
Ġcon fec
Ġautove hicul
Ġep oca
p lu
Ġexecu tarea
ĠalcÄĥ tui
ui m
ĠPite ÅŁti
Ġprov oca
ĠÃ®n ceapÄĥ
ĠGala ÈĽi
Ġpro spe
Ġpere te
Ġasoci at
ĠB oc
Ġcri za
Ġascun se
d ru
ci ul
ĠD ie
Ġpre ÈĽuri
Ġex puse
Ġre fer
Ġinstitu Å£iilor
ĠH oria
ĠZ ona
Ġso arta
Ġcura jul
ĠO UG
ÑĢ Ð°
to reascÄĥ
Ġvac ante
ĠSu e
ĠrÄĥspuns uri
Ġprovoc are
Ġelabor area
Ġsp ori
ĠLum ea
Ġ199 9
Ġilu stra
e conom
ĠsÄĥnÄĥ tÄĥÅ£ii
calaure at
dra la
Ġcomple ta
Ġmu ÈĻ
Ġurmat oarele
l urile
Ã¢n de
ĠC NA
ĠI M
Ġfu git
Ġins eamna
Ġrezolv area
ĠO M
Ġfa mili
Ġpre tul
Ġni ste
Ġveri ficÄĥ
to t
Ġstrate gii
mor mÃ¢n
col ii
ĠFoto graf
Ġvitam ina
Ġcon sac
Ġdece dat
Ġconse mn
e u
Ġpopul ari
f en
bil ul
Ġpan tal
C Äĥ
Ġorgan i
mp a
Ġdiscu Å£ii
Ġpolitic ii
Ġsen sibil
ĠP E
Ġavoc at
Ġtra mva
ĠR M
var dul
ĠCons il
inte lor
ĠT ime
Ġsim pa
one z
ĠscÄĥ derea
ĠF olo
ga ÈĽi
Ġfin ale
Ġlite rare
tament ului
Ġpre d
v on
ĠPor tu
Ġoare cum
ĠcetÄĥÈĽ eni
Ġcui va
zi tate
ĠpÄĥ mÃ¢ntului
ĠLe on
ti tÄĥ
on t
ĠprÄĥ ji
ĠðŁ ĺ
ĠEvi dent
' s
k ov
Ġvic toria
Ġcu ceri
iz ol
Ġcoopera re
Ġinspi rat
ĠA ten
Ġmona h
Â °
Ġconduce rii
Ġsemi fin
gra m
ĠS tati
con tin
ga ri
pi d
ve st
Ġobliga Å£ia
Ġrecun o
Ġcons im
Ġcontin ui
Ġcur te
Ġar bi
b ici
Ġafi ÅŁ
Ġarti ÈĻti
Ġsu ve
Ġsc arÄĥ
Ġmor ale
ĠSeba stian
Ġsun at
Ġmor Å£ii
p ii
mini stru
Ġfrun te
ĠconstÄĥ n
m ina
an ei
dic ap
Ġinvi taÈĽi
ĠhotÄĥrÃ¢ rea
I U
Ġre Å£inut
Ġri scÄĥ
Ġprezenta tÄĥ
c y
ge l
ĠmÃ¢n g
Ġpozi Å£ie
ĠSe be
Ġactu alul
Ġrelev ante
ĠÃ®nde lung
ĠCon ven
Ġadministra tive
Ġvorb ind
Ġaplic atÄĥ
Ġtempor ar
Ġac tului
ĠMama ia
Ġcri teri
Ġhec tare
ot h
ĠobiÈĻn uit
sc ar
spe cta
N oi
ĠA jun
m ilor
te d
ment ului
Ġne bun
Ġexcep ÈĽia
k el
ĠPers oanele
ĠtatÄĥ lui
Ġma rilor
amenta lÄĥ
Å£ uri
Ġdin ainte
ĠD imi
ĠDe oarece
Ġvede ÈĽi
Ġdep ar
Ġamin tiri
Ġameste c
Ġafec tat
ĠÃ®n v
Ġexecu tat
ĠÃ®n Äĥ
ĠmÃ¢n cat
gh eni
C H
Ġma chia
Ġconsum ului
Ġinterzi s
ĠmulÈĽ umesc
Ġinstitu Å£iei
Ġdemon streazÄĥ
Ġdeci ziile
ĠUl ti
G e
\ /
Ġpor to
ĠD on
Ġ5 6
Ġpriv inÈĽa
ĠA lÄĥ
Ġple care
Ġpa har
im ii
Ġure chi
ĠA te
Ġsuplimenta r
ĠconÈĽin utul
Ġf rÄĥ
Ġcal de
Ġsupravie ÈĽ
Ġcoti di
Ġterm inÄĥ
Ġpozi ÈĽie
ĠVii torul
ÅŁedin te
rin d
go j
c s
ĠFran ce
Ġadeva rat
ine scu
v u
Ġ5 1
Ð¾Ð ²
Ġprogra mat
Ġsufici ente
Ġanche tÄĥ
ĠvÃ¢n t
Ġculori le
regi stra
Ġconvin ge
ĠgÄĥ seÈĻti
Ġeval uÄĥ
Ġdra cu
Ġag ent
Ġpo cÄĥ
Ġpri cep
ĠP ala
Ġsimp tom
ĠAn im
Ġprote st
Ġfrum oasa
ĠS Ã¢mbÄĥtÄĥ
ste re
il van
Ġnecon stitu
ĠÃ®ntune ric
c op
ĠD odon
Ġprincip ii
ĠAr de
Ġpopula ÈĽiei
Ġdirec te
Ġga sit
ĠÃ®nchi de
Ġnegli j
Ġre de
che ta
Ġsenti mentul
Ġortodo x
Ġne vin
ĠPar k
Ġtro fe
ĠÃ®nche ia
y o
Ġvi deoclipuri
Ġ5 2
Ġlocu rilor
ri tatea
Ġal ia
mÄĥ n
Ġ9 5
Ġredu se
ol ii
ĠMare le
Ġre pri
ĠS tatul
ĠAdevÄĥ rul
ĠPoliÅ£i ÅŁtii
Ġpopula Å£ia
Ġmobil ier
ĠÈĺ e
Ġprivi le
ĠvÄĥ r
ĠrÄĥspun dÄĥ
Ġsimil arÄĥ
C o
ĠF el
Ġacoperi t
Ġori cÃ¢t
ĠMe to
Ġreligi oasÄĥ
ĠIan cu
Ġpre dic
Ġjude tul
Ġmic ul
Ġmor alÄĥ
ĠToc mai
Ġca de
ĠAce la
Ġbenefic iile
Ġferici rea
Ġcontra dic
Åŀ i
ĠFeme ia
j oc
ĠPo ÈĽi
ĠC D
Ġsiste melor
Ġprezent ului
v ali
on ii
ĠÃ®ntr uni
ĠDum inicÄĥ
ĠMon ica
ga Å£i
Ġprincip ala
Ġprote ste
Ġtex te
ĠContin uÄĥ
gÄĥ m
Ġperforman ÈĽÄĥ
Ġcu mul
Ġapar ÈĽin
Ġim pul
ĠH en
Ġreg ia
Ġc enz
Ġf lÄĥ
ĠS of
Ġturne u
ĠobÈĽin ute
Â» ,
Ġnor mele
Ġemi siunii
mi rea
Ġinfluen Å£a
ĠEduca ÈĽiei
g iile
Ġsub ven
Ġim pe
Ġalterna tivÄĥ
Ġaduce m
Ġcorec te
Ġaprec ia
ĠNim ic
ĠrÄĥ tÄĥ
ĠgÄĥ seÅŁte
Ġdiza bili
Ġre ven
ĠK ar
Ġin tui
Ġpropune ri
Ġconstr uite
ĠÃ®ncÄĥlzi re
Ġapar Å£ine
Ġcl ima
Ġcu tie
g eni
Ġgreu tatea
b rica
Ġrela Å£iile
Ġfir mele
ĠlÄĥ m
Ġ11 2
ĠBiro ului
U E
Ġkilogra me
ĠL una
Ġdu rat
Ġsec undÄĥ
Ġpa siunea
ĠUni vers
Ġbun urile
ĠdespÄĥ gubi
in ge
ĠInde pen
Ġm oale
Ġb iz
Ġb la
ĠrÄĥzboi ului
ĠAlt fel
Ġdepu tatul
ma ra
ĠI ran
ĠÃ®nc al
Ġcere ri
par lamen
ĠMuze ului
ĠContin ue
ÈĽi re
Ġnume ÅŁte
Ġanim alele
Ġspeciali ÈĻti
tis mul
Ġefor turi
ĠÃ®nsu ÈĻi
d orul
Ġno ti
te hn
Ġconfor tabil
ĠfuncÅ£ion are
Ġextraordin arÄĥ
Ġde terior
Ġprocur or
Ġpromov eazÄĥ
ĠÃ®mp line
Ġfrun ze
ÅŁ ca
ĠF ir
Ġas im
ĠLiturgh ie
Ġsim tÄĥ
Ġregi uni
Ġprime ÅŁte
ĠAca sÄĥ
Ġstu diat
Ġge ogra
Ġinstan Å£Äĥ
Ġp am
ĠBÄĥr bat
is h
ĠD ane
Ġne cu
ĠJ oi
Ġpen siona
Ġcontribu abil
ĠB ran
ĠFa ta
Ġfri gi
Ġapar tamente
Ġra fin
Ġstuden ÈĽi
ĠWil lia
on area
tor s
Ġca i
Ġe zi
Ġemi se
ĠBuda pe
ĠS ea
Ġho tare
den Å£a
jun ct
ĠÅŁ coala
ve anu
ĠE f
face rea
Ġnun tÄĥ
ĠIndi ferent
Ġprincip alul
ĠTo atÄĥ
la ri
Ġveni turilor
Ġnor male
e li
Ġgru pa
p sÄĥ
Ġstruc turi
A P
ĠPro prie
ĠgÄĥsi ÈĽi
I D
Ġte en
or man
Ġne c
ste rul
Ġutili zÄĥrii
Ġve se
Ġimpozi tul
Ġpericul oase
Ġob sta
Ġo cro
Ġcu ratÄĥ
Ġexa ge
sivi tate
wit ter
ĠBarce lona
ĠMo di
Ġbile t
Ġne ra
de anu
Ġsem na
ĠComite tului
7 9
ĠC O
C el
Ġaf lu
st on
se u
Ġsca pe
Ġan terioarÄĥ
Ġ0 2
Ġdetali u
p p
ĠM ani
Ġsoci ali
Ġero are
ĠF ron
e m
ĠAn tre
Ġcru ce
ĠGerman iei
' '
Ġe mb
ĠAn tic
Ġw ork
Ġterm ina
Ġcampan ii
Ġpe ÈĻte
Ġgenun chi
zi v
ov eni
Ġhttp s
ĠMe diului
Ġtradi Å£ionale
ĠÃİn al
Ġe gi
Ġrecom pen
Ġsa c
ve re
ĠCon si
ti lÄĥ
Ġmi gra
ĠTer men
ĠT ro
Ġantren orul
are lor
Ġtera peu
Ġcunoa scÄĥ
g ro
gu ran
ĠÃ®nva ÈĽÄĥ
Ġpedea psa
Ġpier d
Ġins ol
ĠM ea
Ġar te
Ġprote sta
Ġfor Å£a
Ġcup tor
ĠP rie
ĠapÄĥ rÄĥ
Ġtrecu tul
Ġo k
Ġdidacti c
Ġfac tor
Ġcin ste
Ġjudici arÄĥ
ĠRomÃ¢n ii
Ġspe cii
ĠS indic
ĠS ÄĥrbÄĥ
ĠCu pei
Ġm usul
Ġpo stare
Å£ ini
ĠsÄĥnÄĥt oase
Ð ·
tu m
te ÈĻti
ate i
Ġs ora
Ġconclu zie
Ġmo bilÄĥ
Ġapro bate
o sa
ura rea
ĠmulÅ£ ime
Ġb rut
h ot
cul e
Ġefor tul
Ġrefu gia
Ġsf ar
ate r
ĠFÄĥ gÄĥ
Ġsala riile
Ġca ra
Ġnun ta
ĠI al
Ġitali an
ĠV ul
ĠON U
ĠT rÄĥ
Ġra ion
Ġexpri ma
Ġchimi ce
Ġaer ului
vi an
ĠpÄĥ rului
ÈĽion ali
ĠIde ea
ĠÃ®nregistra tÄĥ
Ġparti dele
Ġep ui
Ġface book
Ġde mi
ĠPoli Å£ie
Ġcontrol ului
Ġ5 9
Ġlitera r
cov ina
âĢĿ :
ĠPar chetul
ĠTo Å£i
Ġpolitici eni
du c
Ġexter n
ĠÃ®ntreg ului
Ġog lin
Ġnume sc
ĠaÅŁte ptat
wo od
ĠÃ® m
Ġen orm
ĠÅŁti Å£i
Ġdific ilÄĥ
Ġcontrac telor
om ene
Ġidenti tatea
ĠpÄĥrin ÈĽilor
Ġan ali
Ġdis c
Ġad mis
z ime
ĠrÄĥzboi ul
Ġx xx
Ġrefle c
Ġin c
an ÈĽi
Ġc oli
ĠclÄĥdi rea
Ġbu catÄĥ
Ġren umi
ĠV Ã¢r
Ġob tine
ĠCo vas
Ġbiro uri
Ġru ral
Ġorto doc
E M
Ġde ocamdatÄĥ
ĠM al
g entÄĥ
wn loa
Ġcomp en
Ġroman ul
Ġ9 9
Ġmin ime
Ġtip urile
ĠÈĭ n
o us
re ÅŁti
ĠCent ral
ĠÃ®nregi streazÄĥ
Ġcapit ol
ĠÃ®n mormÃ¢n
pe ti
Ġelegan t
Ġle sbi
5 2
Ġan uale
Ġproce se
ĠServ icii
7 6
Ġargum ente
Ġprocuro rilor
Ġactivi tÄĥÅ£ilor
ĠPute m
Ġfil mele
Ġcondam na
Ġbol ii
ĠÃ®nte me
2 000
Ġ199 8
ĠLea gue
te x
in ing
q ua
Ġling vis
Ġnemul Å£
Ġexisten ÈĽa
Ø§ Ù
5 3
u mate
ĠM ondiale
ĠR am
Ġalterna tive
Ġactu ala
an Å£i
ĠSÄĥnÄĥ tÄĥÅ£ii
ĠWash ington
ĠEx peri
R D
Ġco ta
Ġechi pele
ĠH al
Ġprof undÄĥ
è µ
ĠcÄĥsÄĥ torie
Ġale se
Ġgru pÄĥ
Ġab d
Ġdefini tivÄĥ
pu tatul
c inile
Ġreprezentan ÈĽi
Ġminun atÄĥ
Ġmi ra
Ġanim al
Ġechili bru
Ġb re
Ġdigi tale
ĠsusÈĽine rea
T o
Å£i re
sta ment
zi s
ĠSi ria
cine va
Ġsar cini
Ġfar me
Ġcar tier
Ã® i
Ġapare nt
rea ga
Ġori enta
ĠMunicip al
ĠP ana
ĠL uni
ĠgÃ¢ndi re
Ġtre z
Ġci up
ĠPrem ierul
D um
ĠÃ®nva Å£Äĥ
ĠvÃ¢n zarea
cum ent
Ġac redi
Ġpl oi
Ġcla sele
Ġdove zi
ĠC P
Ġpe le
Ġcre ma
Ġden un
Ġstandar de
Ġau torului
ĠÐ ½
r Ã¢nd
Ġun ora
U ni
ĠM anu
Ġpa siona
Ġha inele
ĠÃ®ncu ra
Ġmanage mentul
ĠBoto ÈĻani
ĠDe s
ĠPro to
mar ca
Ġrefle ctÄĥ
T re
st u
Ġactiv eazÄĥ
Ġ ~
Ġre ie
is tice
Ġsufle tele
Ġbloc at
Ġsar cin
ĠIlie scu
Ġor don
s area
Ġbi b
ĠCu za
Ġexcelen tÄĥ
Ġpa sul
Ġsco atÄĥ
Ġmete o
ĠM ie
Ġal ine
Ġreprezentan Å£i
ĠSec torului
ĠÃ®n sem
Ġbog ate
Ġcredin ÈĽÄĥ
Ġopti mi
Ġcompro mis
ĠPar chetului
O r
Ã® na
Ġde seori
ĠFi rea
ĠtÄĥ iat
Ġcontro la
Ġproa spe
ĠVal oarea
ĠnenumÄĥ rate
ĠE ram
ĠuÅŁ oarÄĥ
Ġlovi turÄĥ
ĠbÄĥu turi
Ġ- -
Ġextin derea
Ġt urul
Ġ7 00
Ġadul ÈĽi
Ġcon versa
ĠsusÅ£ine rea
in ÈĽele
Ġsf Ã¢nt
Ġpic turÄĥ
Ġconsum atorilor
ĠR ena
Å£ eazÄĥ
ĠD rumul
ĠfuncÅ£ion area
in u
Ġpre t
Ġintitul at
tu be
ran ge
Ġ5 8
ĠMic hael
Ġflu x
Ġanche ta
ĠCapi t
ĠdepÄĥ ÅŁi
ĠBan k
ĠfuncÅ£ion a
ĠÈĻan se
tan tÄĥ
ta ÈĽii
Ġop us
ĠC lubul
ĠRe gele
Ġfun dul
tura rea
Ġop ta
ptÄĥmÃ¢n a
Ġst rat
Ġvechim e
Ġre str
ĠstÄĥ rii
Ġpro gno
Ġro ÅŁu
Ġne ce
Ġaspec tele
ĠPe ri
ten ii
Ġs ch
ĠH ot
Ġmode lele
ĠÃ®ncer cÃ¢nd
ĠA bia
ĠB os
Ġcapi talÄĥ
Ġin chi
Ġper chezi
C O
m l
ĠD A
Ġenerge tic
Ġcircum stan
ÅŁ eascÄĥ
n ing
ic ilor
Ġma siv
Ġst Ã¢l
Ġo ut
ĠpÄĥca tele
Ġal umini
Ġconce diu
ĠDirec ÈĽia
Ġv oca
Ġsitu ate
Ġmateriale lor
Ġsc ria
Ġsta tut
Ġpla cut
Ġrecla ma
Ġfurn iza
Ġsu ro
Ġmor al
Ġne f
w i
Ġsup une
b ora
Ġse rii
Ġevolu at
ĠFor mul
ĠÃ®nregistra rea
Ġfasc in
for mei
Ġex ac
Ġamp ren
P Äĥ
Ġne caz
NA L
Ġindust rie
ic al
ĠÃ®nloc ui
t le
Ġcul turi
Â º
ĠÃ®ndeplini rea
Ã®nt Ã¢l
r ui
Ġprefe rate
Ġal un
Ġpozi tivÄĥ
C OT
ĠMar tin
Ġopin ie
Ġaero port
st y
li tate
Ġe r
d imen
o vÄĥ
Ġmodern izarea
ĠÃ®ncÄĥr cat
Ġdic ta
Ġpropune re
ĠÃ®mb ol
ĠMul ÈĽ
ĠI gor
ĠS co
Ġnevoi t
ĠF lu
se z
ÈĻ ine
Ġbun ul
Ġac ÈĽiunile
Ġtinere t
ĠO pen
ÅŁte rea
bo arÄĥ
Ġpo sta
Ġne ut
Ġac Å£iunea
ĠI van
dÄĥ m
v oca
dent Äĥ
Ġmagaz inele
ĠPoli ÈĽi
ĠStat ului
Ġhan dicap
ĠSc rii
ĠANA F
p oca
Ġnorma tiv
Ġcolor ate
, "
Ġli pi
Ġpl anta
cti unea
Ġpor umb
Ġstar tul
re ÈĻti
ĠÅŁtiinÅ£i fice
Ġspeci alizate
Ġcul t
Ġcali tÄĥÅ£ii
Ġadop tatÄĥ
re ni
---- ----
ĠmÄĥs urilor
ĠdezvÄĥ luie
Ġdomicili ul
ĠRegul amentului
Ġpari uri
Ġcerce tarea
Ġ5 3
ĠM om
Ġtehn ica
Ġco stul
ĠÃİn cer
Ġc lubul
Ġac c
Ġindust riei
ĠNu d
Ġmi steri
IN E
ĠMa gistra
Ã®n ÈĽeles
Ġevolu Å£ia
Ġspunea m
G B
ci en
Ġba zate
Ġcar nea
Ġag res
Ġsca de
ĠaÈĻte pt
ĠF un
Ġdub lÄĥ
ĠExe cutiv
Ġrefu zÄĥ
Ġtimp uri
Ġscu ze
Ġevent u
Å£ion ali
Ġparticipan ÈĽi
Ġarun cÄĥ
Ġdore ÈĻti
ĠAle ge
T ra
Ġvi bra
- âģł
Ġpre ia
Ġin unda
Ġcop ie
Ġintelec tual
Ġaeri ene
voc area
ctiv ul
Ġal ian
ĠAu rel
p an
ga ta
Ġpor un
Ġ0 4
Ġcomen zi
Ġso sit
Ġame li
Ġdistru s
Ġla sa
Ġsca une
ĠGala xy
Ġlitera rÄĥ
ÅŁe scu
ĠIul ian
Ġac tiva
dÄĥ u
ĠO ct
ĠÃ®ncepe rea
ĠmanifestÄĥ ri
ĠRezul tatele
Ġrepub licatÄĥ
ÂŃ ÂŃ
Ġprea jma
Ġfor mele
ĠPri mele
P oli
ĠMe diu
ctivi tate
ĠSÄĥ u
Ġcioc olatÄĥ
ĠI mpor
Ġin ce
ĠÈĻedin ÈĽa
be ta
Ġteritori u
Ġsocie tÄĥÅ£i
ĠTinere tului
Ġtu b
ĠpÃ¢r Ã¢
Ġpen sion
Ġi d
Ġcul tiv
ĠCovas na
Ġs os
Ġs cum
ĠC CR
ĠcÃ¢ÈĻti ga
Ġinteg rat
ti ÈĽi
ĠK ove
ĠO fici
Ġleg alÄĥ
ĠComite tul
o o
ĠV III
ĠTrans ilvan
Ġun u
Ġarti sticÄĥ
ini ce
Ġab ate
ÈĻ tea
Ġve cinÄĥ
Ġ0 3
Ġaccesi bile
Ġpor tre
ĠÅŁti ut
Ġnume ro
Ġacelui a
ĠFil mul
ĠSecuri tate
ĠO ana
Ġs tie
Ġprogra melor
Ġmateri alul
l ier
ĠcumpÄĥrÄĥ turi
Ġelect ronicÄĥ
Ġcompeti ÈĽie
Ġordin ul
Ġrevi ste
Ġbrow ser
5 4
Ġpoli ÈĽie
Ġabsor b
Ġpre para
ĠG ene
Ġformul arul
ĠpoliÅ£i ÅŁti
Ġa spira
ĠjumÄĥ tatea
Ġorigin ale
Ġsemnifica tive
ĠBÄĥ trÃ¢n
Ã®nÅ£ele s
Ð ¹
ĠSun te
ĠF R
Ġcur sa
Ġconsili ului
ĠV en
ĠSe p
ĠStu dii
ĠÃ®nfiin Å£area
ĠH an
Ġde tec
ni ceascÄĥ
Ġautori tate
Ġ0 5
Ġclas icÄĥ
Ġcircula ÈĽie
cci dent
Ġsuprafa Å£a
sa Å£i
Ġvicep rim
Ġide alÄĥ
Ġtrafic ului
ĠPoli Å£ia
Ġob iec
w ei
Ġdep istat
Ġar mÄĥ
Ġde ÅŁe
ĠRa portul
Ġgru pe
ĠMoi se
DM R
n r
ĠpregÄĥti tÄĥ
Ġascul ta
Ġba zatÄĥ
si tÄĥ
ĠGenera le
ĠuÈĻ ur
Ġdeclara Å£ie
Ġcre mÄĥ
Ġfin alizat
di tatea
ĠÃ®ntre ÈĽine
Ġiz v
Ġconstruc ÈĽii
Ġconsta tÄĥ
ĠT E
ĠCar pa
Ġconcep tul
ĠM iercuri
ĠIor ga
Ġtre nul
ĠDi ana
ĠadevÄĥ rata
Ġarticole le
ĠSu peri
Ġspa ÈĽii
ĠAgen ÈĽia
ĠE valu
ĠsÄĥnÄĥ tÄĥÈĽii
Ġsec torului
te au
Ġrecupera re
ĠManage ment
Ġgrij i
Ġimpre una
Ġpri vit
B A
k in
ĠPÄĥ mÃ¢nt
l os
ĠCri sti
Ġobligat orii
Ġdistru ge
Ġmin ut
Ġf inele
ĠÃ®mbunÄĥtÄĥÈĽi rea
ĠLim ba
ĠP lÄĥ
ÈĽi tÄĥ
Ġsc ene
Ġspeciali ÅŁti
Ġra m
ĠfuncÈĽion are
ĠNeam Å£
Ġparti da
ĠSue dia
or tul
m Ã¢nd
ĠpÄĥ duri
Ġminun ate
Ġperspe ctive
Ġre m
Ġleg atura
ĠtrÄĥ sÄĥ
Ġepis od
of f
Ġinvi tÄĥm
ĠÃ®ntor c
Ġrealiz are
mÄĥ ri
Ġcla sei
Ġrapi de
ĠP il
si toare
ma tica
Ġaj ut
Ġdepl inÄĥ
ta ru
Ġin spector
ĠW TA
Ġprieten ul
Ġsenti mente
Ġregi onale
ĠreÈĽea ua
le m
ĠÃ®n do
dÄĥ ri
p tul
unt ru
Ġsub teran
b by
Ġgre ÅŁit
Ġplim bare
ĠBudape sta
Ġaf li
Ġo ste
Ġref uz
un ica
ĠPo por
Ġinterven Å£ie
ĠdezamÄĥ gi
Ġscum pe
ĠBe cali
8 6
v anta
Ġbenefici at
Ġpro vine
Ġpat riarh
Î ±
Ġno tÄĥ
Ġnume ÈĻte
7 3
Ġdatori ta
ĠF ree
Ġprepa rate
ĠobiÅŁn uit
ĠSpe cta
ĠmÄĥnÃ¢n cÄĥ
un ghi
ĠI sa
ĠR ich
Ġmate maticÄĥ
Ġamp la
Ġma il
Ġnevo ilor
Ġaceea si
Ġm g
ĠL ED
ĠÈĻti inÈĽÄĥ
Ġw i
ÅŁ an
Ġca ute
ĠÈĻan sa
Ġbolna vi
Ġhran Äĥ
Ġvacan Å£Äĥ
å½ ©
Ġsus Å£inÄĥ
Ġave re
t te
ĠR ON
Ġcri tici
Ġobiective lor
ĠÈĻ coala
ĠiarÄĥ ÅŁi
ĠÃ®n gÄĥ
Ġprime ÈĻte
Ġal aturi
ve m
Ġ ^
T P
Ġexemp lare
stÄĥ rii
Ġfun ctie
ĠÈĻedin ÈĽÄĥ
sa ri
fici le
ĠÃ®nÅ£ele gere
Ġ6 9
Ġve ste
ĠMa g
Ġpier dere
Ġturne ul
ĠB on
Ġconf is
tific are
Ġcosme tice
Ġmo ÈĻte
b ur
ol icÄĥ
Ġad una
Ġse para
Ġrela ÈĽiile
tan d
Ġpromov at
Ġdiagno stic
oti mp
ĠTele orman
ol u
ĠS la
ic o
Ġsal vat
Ġpre tutindeni
Ġseri oase
Ġcli entului
Ġmuzic al
ĠobÅ£ine rea
Ġorganiza ÈĽii
ĠO cta
ĠJusti Å£ie
Ġan te
ĠÃ®ng rÄĥ
ĠdezvÄĥ luit
Ġust uro
ĠÃ®nt Ã®mp
bili tÄĥÅ£ii
Ġagricul turÄĥ
ĠL ista
Ġexter nÄĥ
ĠCon struc
ĠRe com
Ġ Ù
ĠlÄĥ sÄĥm
Ġser ver
Ġnen oroci
Ġal oca
Ġpoe t
Ġstu diilor
ar y
Ġin gin
Ġtra c
al ii
ĠB unÄĥ
ĠM od
Ġdove di
ĠcÃ¢ ine
com ma
ĠH otelul
ĠÈĻti ri
Ġtera pie
F o
bi re
sp onsa
Ġdoamne i
Ġamp li
A t
Ġgerman e
Ġlabor ator
at ch
p oc
h al
Ġex ten
Ġtra tarea
ĠKove si
che stra
du rea
Ġper mitÄĥ
Ġba ra
Ġdiferen ÈĽa
Ġar de
Ġcla se
fe rii
Ġtransfer ul
Ġprem ierului
Ġde pre
ĠJ ul
nic ul
Ġvin ova
pe ten
Ġta xÄĥ
or area
ĠL EG
Ġco ali
Ġuniversi tare
V Äĥ
p la
ĠBÄĥ ie
ï »¿
st ini
pi le
ĠÃ®nto arcÄĥ
Ġban dÄĥ
Ġdes er
Ġbol ilor
Ġscrii tori
Ġprop riei
Ġ199 7
m y
ĠÐ ¸
ĠMa ster
dem ocra
ÈĽ eazÄĥ
ĠgÄĥsi te
ĠcÄĥr ÈĽile
Ġsoc ote
Ġgestion area
ĠÃ®mprum ut
Ġcerce tÄĥrii
Ġcinemat ogra
Ġexp lic
ĠsÃ¢nge le
Ġodih nÄĥ
Ġdef ine
l imi
Ġapro batÄĥ
Ġdebu tat
Ġrit mul
Ġascul tat
Ġproa stÄĥ
spre zece
Ġra u
Ġi t
Ġra mbur
ĠRe vista
Ġpro gres
co b
Ġsus ÈĽinÄĥ
Ġintere selor
Ġac ÈĽion
ozi tate
ĠPropune re
ĠCip rian
ĠC roa
Ġde geaba
Ġba c
Ġri dice
ĠcreÅŁ tine
ĠC entru
ĠplÄĥti te
Ġcur se
cu ro
ĠmÄĥ rii
ste in
Ġstu diului
Ġvis ul
ca ti
ĠÃ®mbol nÄĥ
p ea
Ġloc uit
B o
ÈĽ ini
ĠCole giului
ĠOp rea
Ġcame rele
ĠDuh ului
Ġreferendu m
Ġimobili are
r Ã£
Ġ isla
Ġochi ul
Ġru pt
Ġprieten ilor
Ġprodu cÅ£ia
6 3
Ġantren ament
g nul
eni u
Ġnor melor
ĠF unc
Ġvarie tate
Ġta cti
Ġmod uri
Ġfu gÄĥ
Ġpa gu
ĠVo dÄĥ
Ġre organ
Ġma gh
Ġdi ficile
Ġro bo
ĠÃ®nconj urÄĥ
g arÄĥ
ĠNor ve
p ti
ĠcapÄĥ tul
Ġcapa bili
Ġrestauran te
Ġg ard
ĠK i
Ġcali tÄĥÈĽii
Ġco v
Ġprimi rea
ĠÃ®mpie dicÄĥ
Ġlic en
lu je
Ġaca sa
Ġindivi d
ge s
Ġsun et
gea u
pe rat
ĠO fer
Ġ18 9
Ġh arta
ĠCon cursul
Ġle u
ĠTur da
Ġmedic ului
Ġformul a
ti Å£i
ĠBlu e
ĠTransilvan iei
ĠW a
Ġas ocie
Ġteren ului
ĠUrgen ÈĽÄĥ
ĠRe d
ĠC L
Ġpre ve
Ġli tor
Ġimportan ta
Ġapa ratului
Ġstuden Å£i
ĠM y
ĠaÈĻte ptÄĥm
Ġmoldo vene
Ġaer ona
g alÄĥ
ĠPla y
Ġgre ÈĻit
Ġinforma ÈĽiilor
Ġeg alÄĥ
Ġvii torului
ĠV la
Ġlan sa
Ġmedic ament
Ġexperi enta
Ġinsol ven
Ġmul ta
b ina
ĠregÄĥ sesc
Ġche f
ĠEx per
Ġver tic
Ġsfer t
S c
Ġsc ot
for t
ĠDa ta
ĠCon di
Ġinteli gent
Â» .
ĠspÄĥ lat
s ii
Ġsu puse
Ġsuprafa ÈĽa
ĠFond ului
at ra
Ġcelor lalte
Ġmi t
ĠBu covina
Ġveri ficarea
ĠSpi ri
Ġmas ura
Ġaface rea
ĠcetÄĥ Å£ean
Ġalumini u
7 2
Ġban care
Ġlup tat
ĠMo de
M ini
h en
Ġrapor tat
R o
Ġt um
Ġpan o
ĠSan du
C hi
Ġauto buz
ĠapÄĥ rute
Ġinstitu Å£ie
Ġalea sÄĥ
and ru
Ġa gra
ÈĻ ca
Ġturi stic
8 3
Ġinteresa ÈĽi
Ġval orii
ĠAlexand ra
Ġpra g
h u
II COT
ĠÅŁcol ii
Ġlichi d
ĠTra di
ĠV ei
ĠMat ure
ĠFemei le
Ġpu Å£ini
ĠIe ri
Ġturne ului
Ġ umi
ĠD rum
Ġtra tamente
Ġactivi tÄĥÈĽilor
ĠcÃ¢n tat
Ġalt cineva
ĠcÃ¢nd va
ĠpreÅ£ uri
oan ei
ĠDe va
ĠÃ®n mul
ste lul
osc op
ĠF la
ura tÄĥ
Ġpoten ÈĽial
Ġgenera Å£ie
Ġ199 6
c Ã£
ĠÃ®ntÃ¢lne sc
Ġ5 4
Ġre cti
ĠstrÄĥ mo
Ġemi siune
ĠÅŁti a
Ġrapor tului
Ġneo bi
f ini
Ġpre siunea
ĠTo ÈĽi
Ġlimba j
dul escu
ĠaÈĻte ptÄĥ
Ġsex ul
Ġar tei
Ġcl im
Ġidentific are
Ġd up
Ġve ÈĻ
Ġnea mului
ex e
Ġproprie tarul
ĠC le
Ġac telor
ĠS ca
Ġlans atÄĥ
ĠÃ®nd rum
ĠCos min
Ġre Å£e
Ġimpo triva
lo w
Ġcar di
ĠCur te
ghi u
Ġne pre
Ġpo ÅŁ
Ġpublic area
Ġspun Ã¢nd
ĠAl bÄĥ
ĠtrÄĥ ieÅŁte
cÄĥ torii
Ġurm atÄĥ
âĢĿ ;
er ban
Ġimpresion at
7 1
ĠÃ®nchis Äĥ
Ġinterven ÈĽie
ĠÃ®n j
Ġspor tivi
Ġclas amentul
Ġrai onul
ĠB ea
ĠPub licÄĥ
Ġa teri
Ġdo tat
Ġspa Å£ii
ĠIn tra
ĠFC SB
Ġvitam ine
sÄĥ rit
Ġpres us
Ġs fera
Ġregul at
ĠDirec torul
Ġdar ul
Ġincredi bil
Ġanun ÈĽuri
Ġreligi os
p ului
Ġin je
Ġstri gÄĥ
Ġasc en
ĠQ u
ĠS ina
Ġutiliz atÄĥ
D ar
Ġpa ÈĻi
Ġiz vor
Ġcar d
____ ____
Ġh arul
ĠMat rimoni
Ġinstitu ÈĽiilor
Ġcap ului
ge rilor
Ġrec ic
ĠÈĻan sÄĥ
Ġle a
Ġpla cÄĥ
Ġdesc operÄĥ
to ane
Ġinte stin
Ġleg ilor
ĠcreÅŁtin Äĥ
Ġcomple tat
ĠmÃ¢n ca
im ent
Ġne m
ĠÃ®ntÃ¢mp lare
Ġli tere
Ġperforman Å£Äĥ
Ġcrea dÄĥ
ĠDepar tamentul
Ġcuce rit
n umi
Ġf anii
Ġora sului
ĠP ier
t rin
Ġre Å£ine
âĢĿ ),
do x
ĠPro f
Ġst ru
Ġba zele
si tul
Ġpie sele
ri co
on iei
Ġcir c
Ġglob alÄĥ
c olari
ÅŁ ind
Ġo ma
ĠA lian
lic op
Ġb um
Ġper si
Ġcomple teazÄĥ
ĠrÃ¢ s
ĠDesi gn
den Å£i
Ġpi ardÄĥ
Ġadmite re
Ġta bel
s ov
Ġrez ona
po t
Ġinstitu ÈĽiei
Ġse din
Ġpoe zia
Ġcre ierului
ĠdÄĥ dea
Ġmoldo ven
ĠMÃ¢ntui torul
Ġmotoc icle
ĠÃ®nsÄĥ ÅŁi
Ġcatego riile
Äĥ rilor
Ġinteres ate
Ġsusp ici
p ra
Ġaface rilor
Ġcl au
Ġorganiza Å£ii
Ġ:) )
ĠplÄĥ tesc
Ġimportan Å£Äĥ
ĠcÄĥr Å£ii
Ġcertific at
Ġcar dia
ĠpregÄĥ tesc
ĠvÄĥ z
Ġmor Å£i
Ġmand atului
Ġapropia te
Ġorgan elor
Ġpie Å£ei
ĠbrÃ¢n zÄĥ
Z i
Ġad junct
Ġab un
ĠÃ®ntrebÄĥ rile
Ġstandar dele
d arul
di atÄĥ
Ã ł
Ġape la
ĠhotÄĥrÃ¢ ri
ĠcÄĥr Å£ile
ĠÃ®n ÅŁe
ĠÈĻ ofer
Ġsurpri ze
Ġcombusti bil
Ġrevi stÄĥ
ĠpÄĥstra rea
Ð ¿
Ġan ualÄĥ
A c
urÄĥ rii
ĠOrtodo x
Ġdeo potrivÄĥ
å ı
Ġfab ricÄĥ
ĠpÄĥ streze
zÄĥ rile
Ġcab lu
ĠU drea
Ġtax ele
ĠlegÄĥ turi
ve ri
ĠTe h
ĠclÄĥdi rii
Ġan otimp
Ġmonitori zare
Ġtra ducere
ĠUcra inei
C ite
Ġamin tim
Ġulei ul
Å£e anÄĥ
Ġcif re
Ġu ra
Ġghi d
Ġveni rea
m al
graf ia
Ġsingu re
Ġconcre t
Ġav and
Ġte oria
vi rea
ĠCa su
Ġspeci alizat
Ġridic area
ĠIl fov
ĠPa pa
Ġpa gin
ĠbÄĥ ut
Ġacci dente
Ġbise rice
ĠDirec ÈĽiei
cÄĥ tori
ĠJ ocul
Ġfor ÈĽa
ap ro
Ġdescoperi te
Ġjusti Å£iei
Ġextin de
Ġmuze u
Ġ199 2
Ġis ra
6 2
7 4
gre sul
ĠBÄĥn cii
Ġdiscip line
ĠU DMR
Ġcauz ate
v are
8 4
Ġhotel uri
ĠCeau ÅŁescu
Ġortodo xÄĥ
ste na
Ġpici orul
Ġa e
in clusiv
ĠCo reea
Ġtalen t
Ġaplica ÈĽie
Ġsc ru
Ġne vÄĥ
Ġpar la
Ġmeci urile
Ġlegisla Å£ia
ĠB ule
ĠJusti ÈĽiei
ĠLu goj
Ġdepozi tare
Ġti pÄĥri
tal in
ta i
ĠlÄĥ muri
ĠB NR
Ġpericul os
fo to
Ġurme ze
ĠT witter
Ġdoctor at
ĠMar k
ĠY o
ĠSen at
T C
[ ...]
Ġigi en
ĠSe ctor
ĠMe d
Ġchesti une
ĠParte ne
to rile
iz eze
Ġan ve
Ġconfor tul
ĠÃ®mplini rea
ĠCo tro
Ġpasa geri
Ġreprezentan tul
Ġprotej area
Ġconsoli darea
Ġsani tare
te riile
Ġim ens
ĠCo re
ĠÃ®ndepl in
Ġinfrac Å£iuni
tine scu
ĠÃ®nd ru
li tatea
Ġofici ali
Ġc imiti
ĠMa stur
Ġine vi
Ñ ħ
Ã¢n ta
ĠfuncÈĽion a
Ġobliga ÈĽia
ĠÃ®mbrÄĥ cat
ĠA vi
Ġnu mar
Ġzice m
w ork
z au
Ġs ili
ĠDan ie
O RI
ĠMe u
Ġrege lui
A s
C re
Ġzi arul
Ġprodu cÈĽia
Ġanumi tor
ĠdesfÄĥÅŁura rea
Ġcampion at
gra fice
Ġgra s
Ġsubstan ÈĽe
Ġdebu tul
Ġbiro ul
Ġtehnolog iei
Ġrealiz eze
Ġdezvol tate
Ġsufici entÄĥ
Ġmeri ta
Ġa st
ĠC OM
Ġmili ard
VI DEO
ic ului
s z
Ã¢n a
ĠR en
Ġfe ci
wnloa d
6 1
z Ã£
Ġa fe
ĠSer giu
a zÄĥ
Ġ âĶĤ
Ġexpres ie
Ĥ ¬
ĠcÄĥ i
D o
ĠD IICOT
ge i
ce ÅŁti
ĠAntic orup
Ġsu stine
Ġconstruc Å£ie
Ġpan tofi
Ġtre ze
Ġeli gi
se zi
ve li
ÅŁi a
I Z
ce u
ĠmÄĥ run
Ġaci d
v arul
Ġten siune
ĠMa gaz
Ġ18 0
ĠBla ga
oa da
Ġutiliz atorului
Ġapare n
ĠcÃ¢ ini
Ġlau dÄĥ
E S
ĠrÄĥspun d
Ġilum inat
ĠS ilv
Ġmi rea
ra la
ĠAlÄĥ turi
Ġp enitenci
Ġexper t
Ġcir cui
Ġnemul ÈĽ
rea ptÄĥ
gh ea
Ġregi onal
ĠnÄĥ dej
Ġrespec tat
ĠgrÄĥs ime
Ġte ama
l imin
ĠZile le
ÈĻ eascÄĥ
ĠpÄĥr Å£ile
Ġexploa tare
in ter
Re plica
Ġcomerci alÄĥ
Ġs ul
ĠAu gust
ĠNic ole
da che
ĠRÃ¢ mn
Ġcondi tiile
Ġcerce tat
Ġne fiind
Ġuni tÄĥÅ£ii
ĠBra z
ro om
Ġalimenta r
a me
bili tÄĥÈĽii
Ġate liere
Ġconcurs uri
ĠPoli ÈĽiei
ali stul
Ġproce durile
Ġlimi tat
ĠÃ®nvÄĥÅ£Äĥ mÃ¢ntul
Ġp um
ar ch
p ol
ĠS imi
ste ro
Ġman ierÄĥ
Ġbu cata
cta tÄĥ
ĠA ne
ĠdepÄĥ r
Ġameste cÄĥ
Ġvers uri
Ġdim potrivÄĥ
ĠW al
ĠrÄĥ nit
Ġcur sÄĥ
Ġ199 1
at h
Ġexprim are
ĠÃ®ncer carea
Ġamen inÅ£Äĥ
Ġimagin ii
re anu
Ġju d
c Ã¢
Ġedu cat
Ġmetro u
ĠT el
Ð ±
ĠB una
ĠFinan Å£elor
Ø ±
Ġorganiz atori
ĠVale riu
ÅŁi te
Ġveri ficare
ĠmulÅ£ umesc
ĠAsi gurÄĥ
te or
ĠUS L
V A
Ġ ç
Ġsec ÈĽiunea
ĠmÃ¢n carea
Ġcali ficare
Ġinfluen ÈĽa
ĠTudo rel
ĠB une
ĠFran k
ui ta
Ġproaspe te
li x
ĠIa si
ĠCapit olul
Ġju ma
Ġso Å£ul
do cument
Ġretra ge
Ġpierde ri
Ġcump ara
Ġro chie
I oan
Ġlitera turii
ĠproducÄĥ torii
Ġsecre tarul
ĠBÄĥr batul
ĠTim pul
in tele
ĠjudeÅ£ ene
Ġas um
Ġmedic inÄĥ
Ġinsta larea
ing ea
an ele
Ġprote ine
Ġsin ce
la j
ĠcÄĥ ru
ĠW ar
Ġn erÄĥ
met rul
Ġcre ierul
Ġinforma Å£iilor
ĠÃ®ntreg ime
st urn
Ġoferi tÄĥ
Ġdocumen tar
Ġtranspor tului
Ġfrecven te
Ġinstan Å£a
ric ilor
Ġfo re
ter min
Ġcons er
8 2
z ator
Ġtele com
Ġlo go
universi tar
Ġin cat
tÄĥ tor
Ġgra me
Ġdezbate ri
Ġro ck
ĠAu gu
ĠL an
Ġsupor tul
s ci
ĠconÅ£in utul
ĠCi olo
ĠS F
in er
Ġsta diul
Ġb rÄĥ
Ġtran da
Ġproprie tari
Ġin vit
Ġutiliz aÈĽi
Ġde te
ĠbÄĥ taie
Ġfen omene
Ġdor m
unc tul
Ġmo arÄĥ
ĠAl in
ĠPrea sfin
Ġinfrastruc turÄĥ
Ġevolu ÈĽia
Ġsubstan Å£e
Ġm ilÄĥ
Ġdocumen tare
Ġexpres ia
Ġon ora
Ġarma tei
Ġextin s
ĠSÄĥnÄĥ tÄĥÈĽii
z ic
ĠfÄĥ inÄĥ
Ġgi gan
ce t
ĠPal atului
oa de
Ġur ca
3 00
Ġve rii
Ġcoleg ilor
ĠreÅ£ea ua
Ġmeci ului
Ġdimen siune
Ġinstr uire
s us
Ġsp on
ĠÃ®ncer cÄĥm
Ġdepune rea
Ã ¨
Ġcalen dar
eni ul
Ġf ili
ĠD atele
ĠAl l
Ġro ÈĻii
ĠLi ve
Ġp unea
Ġbuzun ar
ĠCotro ceni
e p
Ġas umÄĥ
Ġdis cursul
ĠPoliÈĽi ÈĻtii
Ġtempera turi
Ġmoldo veni
ĠIS U
ĠDin colo
ĠstÄĥ ri
Ġcan alizare
Ġ æ
Ġse diu
Ġmare lui
5 1
Ġdocum entul
Ġri si
Ġlocui torilor
Ġchesti i
g s
Ġlini ÅŁte
ĠFeme ie
Ġar s
ĠV is
Ġ7 2
Ġdege tul
8 1
I on
Ġus cate
ĠPsi h
od y
v ing
Ġmu ÅŁ
amente lor
Ġo che
Ġzg om
E uro
Ġpie ÈĽei
Ġter mice
Ġeviden Å£Äĥ
ĠC and
Ġu ÅŁa
ĠconÈĻti enti
Ġpu tÃ¢nd
Ġco sm
Ġvar sta
be lor
Ġstrate gia
Ġenerge tice
Äĥr Ã¢
Ġlegisla tiv
Ġroman a
Ġcuprin sÄĥ
Ġconsecin Å£Äĥ
Ġinfrastruc turii
Ġmanife stare
one zi
Ġindi vizi
Ġprocur orul
ĠDor in
ĠCate drala
Ġap lau
Ġob osi
Ġcontra r
Ġabs ur
Ġdesc ris
Ġcondu cea
Ġsp ar
Ġop erÄĥ
Ġsecund are
Ġfiloz of
ale n
bÄĥ tut
Ġproce sele
ĠBu cu
ĠRom ani
ĠÃ®nf run
Ġtru pa
Ġapar ÈĽine
ĠÃİmp reunÄĥ
Ġdis pre
ĠTe stament
mar t
Å£ Ã¢nd
M B
P L
Ġpo arte
ĠTranspor turilor
ĠO F
ĠIn vi
Ġm oa
op er
ra k
Ġadu sÄĥ
Ġma me
Ġre sim
f un
Ġfil iale
ĠamÃ¢nd oi
ĠÃ®nÅ£ele agÄĥ
p in
t Ã¢i
ce des
Ġimportan ÈĽa
Ġorganiz atorii
Å£i te
b una
a se
ĠMa ica
ĠpregÄĥti te
ÈĻi tÄĥ
ĠAu di
sp ora
Ġce tatea
Ġacoperi re
Ġadec vat
Ġga zelor
Ġvin ovat
ĠÃ®nÈĽele agÄĥ
ĠF ii
ĠMÄĥ rii
ona ÈĽi
Ġpil o
Ġmie zul
Ġli ti
ĠÅŁ ter
Ġimplemen tat
Ġpre vizi
Ġcli pe
Ġprof un
Ġlibe ri
Ġretra gerea
gra fic
Ġlua ÈĽi
ĠVe ri
Ġprieten ie
ĠLau ren
Ġte sta
s an
ĠÈĻti ut
Ġmuz ici
me ri
Ġreprezenta tÄĥ
ĠDem ocrat
tre i
Ġsuspen dat
ti zat
ĠCur ÈĽii
Ġvre d
Ġindepen dente
Sf Ã¢ntul
tion at
ĠConstan tinescu
ĠMa s
Ġmen ÈĽionate
Ġple carea
Ġsuge reazÄĥ
Ġtermen ului
va sta
Ġin scrip
Ġst ran
ĠuÈĻur inÈĽÄĥ
ĠC arte
toare i
ĠNeam ÈĽ
hi dra
Ġco sta
ĠUn gariei
Ġtra vers
os ului
Ġun el
ĠD ura
vi at
ĠÃ®mp rÄĥ
Ġreu sit
ĠEle vii
Ġexcep ÈĽie
D ra
Ġterm icÄĥ
Ġabsol vit
Ġsim b
Ġclien Å£ilor
Ġpar cul
man t
Ġrespec tul
Ġar matÄĥ
ĠvÃ¢ndu te
Äĥ rÄĥ
ĠadevÄĥ rului
Ġpa h
Ġbu ze
ti fica
Ġaplica ÈĽia
Ġprotej eazÄĥ
ĠplÃ¢n s
Ġso ÈĽul
Ġple c
Ġth at
Ġre curs
Ġinvi taÅ£i
Ġm us
gra d
Ġcop le
Ġstin s
Ġlip sei
ĠbÄĥn cile
Ġbom b
Ġar moni
Ġcuv ine
Ġintegra rea
Ġtratament ului
ĠÃİ ÈĽi
ĠEx p
Ġtranspor ta
Ġgene rat
Ġmedic ilor
Ġtri st
Ġfap telor
ar nÄĥ
ĠcÄĥsÄĥtori t
op oli
ĠÃ®nsemn at
Ġcau zele
Ġteritori ale
m ie
da Å£i
Ġtrup ului
de rile
ĠN O
Ġva d
Ġna s
Ġsemn atÄĥ
ĠRe sta
Ġacu zÄĥ
D om
ve an
tag oni
Ġpat rio
Ġtrece m
cÄĥ rilor
ĠDe schi
Ġsolici tan
log ie
ĠschimbÄĥ rile
Ġp iz
ĠJurn al
Tre buie
ĠSpor tiv
Ġte stat
den ÈĽa
Ġzil nicÄĥ
ÈĻ an
Ġtro tu
Ġpreala bil
ĠEx tra
Ġpreci pi
Î ¿
Ġpre dare
Ġpor c
ĠR ura
Ġmeni ul
Ġaccident ului
Ġacces ului
ter nÄĥ
ĠcercetÄĥ tori
ĠP un
Ġcaracteri sticile
Ġechip ament
Ġprocuro ri
Pri ma
Ġdis crimin
Ġcad relor
Ġbuge tar
Ġpiat ra
Ġperio dic
ĠsÄĥ rac
oder n
no w
ĠTe ri
D R
Ġcame rei
ĠAF P
Ġv Ã®r
ĠÅ¢ ara
Ġcontrac tant
Ġavent urÄĥ
Ġcolabor area
ĠAustra lia
ci al
ĠCod ru
Ġtransmite rea
ĠplÃ¢n g
Ġpersona jele
Ġs atele
Ġsp erÄĥ
Ġpa chete
vi te
ĠBo ok
Ġfi de
Ġbuge tare
ĠcÄĥ pitan
Ġro ÅŁii
Ġmodel ului
re g
ĠpregÄĥ teÈĻte
Ġsufle te
ĠcÃ¢mp ul
wa y
Ġsea mÄĥnÄĥ
Ġca dÄĥ
Ġvala bilÄĥ
ĠOam eni
ĠStÄĥ nescu
ĠÈĻti am
Ġcar tofi
Ġpro mite
sÄĥ rile
ie m
Ġ199 4
Ġtari fe
ĠJudecÄĥ toria
Ġpatrimoni ului
Ġpu ÈĽini
Ġlocu inÅ£e
Ġmete or
Ã® mb
ĠdouÄĥ zeci
ĠMunicipi ul
ĠobÈĽine rea
ĠÃ®nÈĽele gere
Ġdiscip lin
Ġri tual
Ġhor mon
ĠÃ®n du
Ġle zi
je ct
Ġanti oxi
Ġperson alizate
ĠPlo ieÈĻti
Ġpen is
Ġvorb ea
Ġminim Äĥ
ĠOr ban
Ġmeni te
ĠS ovie
Ġra tat
ĠÅŁan se
o ol
Ġtra g
ĠÐ ¾
Ġpedea psÄĥ
ĠG en
ĠcreÅŁ tini
Ġpie ton
Ġconstruc ÈĽie
tu alÄĥ
is mele
Ġvolum ului
Ġpu Å£inÄĥ
vie rea
ĠprÃ¢n z
ĠJ ack
ĠA ma
Ġg and
Ġac ÈĽiunea
Ġd izol
ĠB il
ĠT oma
Ġdigi talÄĥ
Ġcomuni ste
v alÄĥ
Ġfil mat
Ġrecipro c
Ġemo ÈĽii
ĠÃ®ntoar cere
Ġaccent u
ĠC V
ĠDin u
Ġdificul tate
, /
Ġdo rea
ĠMe xic
Ġrec entÄĥ
Ġpla ja
Ġmaghi arÄĥ
Ġtra tate
sti rea
ĠÃ®mpÄĥ ratul
ĠDe c
Ġfrigi der
Mi hai
ĠcunoÅŁtin Å£Äĥ
Ġpro bÄĥ
Ġda Å£i
ĠPoli ÈĽia
ĠC U
Ġaccep te
Ġcolec tare
Ġsc an
Ġlegisla Å£iei
Ġavanta je
Ġbil an
Ġc ca
Ï Ħ
ga s
Ġg Ã®n
pre ss
Ġvizita tori
Ġli ste
Ġeduca Å£iei
Ġeviden ÈĽÄĥ
Ġcompeten te
ĠadÄĥ po
Ġtranspor tat
er ului
Ġta l
Ġg rec
C h
Ġcontempor anÄĥ
Ġimportan Å£a
Ġnerv os
ĠAgricul turii
Ġin imile
il y
Ġne le
Ġdema rat
Ġ- ,
Ġoca zii
ĠÃ®ncÄĥl carea
ĠUn gheni
li te
ĠnemulÅ£ umi
Ġci teascÄĥ
ĠCu vi
Ġcelul ele
ĠIon el
Ġbron z
Ġsemnifica tivÄĥ
% ).
ge tul
ju rat
T a
and ra
Ġop ÈĽiuni
Ġre d
un are
ĠF I
Ġdum inica
trop ol
Ġaband on
Ġori ginea
Ġnicio data
Ġnera mbur
ĠD imen
Ġaprec iazÄĥ
Ġdel imi
ĠV eni
Ġimp unÄĥ
las h
Ġ19 40
ĠEconom ic
ĠFunda ÈĽia
ĠSin od
Ġdo are
fic ul
Ġinsul a
ĠP ho
ĠR alu
ĠMa ÈĻ
aliz eze
ĠCh el
C ar
Ġs ind
ni ri
ĠPe ter
Ġlini ÈĻte
Ġmijloace lor
Ġsuspen dare
ĠV II
ĠA ta
ĠD oamnÄĥ
Ġfap ta
ĠOlim pia
veni te
ĠplÄĥ cerea
Ġta xi
ĠLe g
mite rea
ren te
rup t
ba ma
ĠpoliÈĽi ÈĻti
ĠLibe ral
R M
ali ÅŁtii
lo ciu
20 20
Ġaccesi bil
ĠAn ca
me tru
Ġimp er
N E
Ã §
Ġcli entul
Ġinterpre tare
c Å£ii
Ġcon sti
ĠÅ£ inÄĥ
ĠMul ÈĽi
Ġasa s
ĠFam ilia
Ġimplemen tare
Ġcance rului
Ġimpozi tului
Ġpoten ÈĽi
Ġierar h
ĠD vs
Ġf uri
. âĢľ
fici alÄĥ
Ġmana geri
ĠÃ®ncep u
Ġautoturi sme
Ġsla be
Ġmand atul
Ġprotej ate
Ġmax ime
ĠjudecÄĥ tore
Ġpatrimoni ul
Ġreabili tare
Ġdige sti
à ¤
Ġsc oase
ĠOrgan iz
ia m
Ġfi t
Ġamen zi
Ġdie ta
Ġamen inÈĽÄĥ
ĠSuperi or
M ul
ĠpÄĥcat ul
Ġsub ie
Ġpopula ÈĽia
ĠO ric
ĠmenÅ£ine rea
ĠcÄĥr ÈĽii
Ġ199 5
ĠPlan ul
curo rii
Ġre ÈĽinut
Ġesen ÈĽiale
Ġuni tÄĥÅ£ile
Ġforma te
Ġcon ferÄĥ
ĠmÄĥrturi sit
Ġoportuni tate
Ġelabor at
ti la
Ġale agÄĥ
Ġin am
Ġdomeni ului
Ġtulbu rÄĥri
Ġinteresa Å£i
ĠdrÄĥ gu
ĠpurtÄĥ torul
ran a
ĠZ am
Ġba ze
Ġg las
Ġcre ier
en Å£ei
Ġvi rus
Ġcli pa
ĠtÃ¢r g
ĠcunoÈĻtin ÈĽe
Ġcerea le
C ine
Ġmeta bol
ĠH el
Ġpo ÈĻ
Ġinstitu ÈĽie
ĠRe z
Ġdispozi Å£ia
ĠurmÄĥri re
Ġs eni
Ġsme ren
Ġvi ru
Ġsolici tate
Ġcircul Äĥ
Ġuti lÄĥ
Ġrestr Ã¢n
Ġvo ta
Ġparti delor
Ġsimp la
Ġprofesioni ÈĻti
Ġmuzic alÄĥ
Ġm ondiale
ĠCen ter
Ġdiferi telor
Ġadop tate
Ġre e
zi tatea
sc op
Ġof en
Ġinti mi
hot ni
ĠMan galia
du pÄĥ
ĠAd unarea
o pe
un at
Ġjo ci
Ġlimpe de
Ġprive ste
Ġceleb rul
Ġlu area
Ġmi tÄĥ
Ġconferin Å£Äĥ
Ġru p
Ġjo curilor
ĠJ ose
bil or
Ġduhov niceascÄĥ
Ġar tific
Ġcredincio ÅŁi
Ġda ÈĽi
v entÄĥ
Ġcele bra
Ġbum bac
stea scÄĥ
Ġsemn ate
ĠAface ri
Äĥ rul
Ġc luj
ĠP Ã¢r
on ime
ĠÃ®nc oace
Ġclien Å£ii
Ġnerambur sa
ca s
Ġcaz urilor
Ġspons ori
Ġdu ci
Ġve terin
Ġg Ã¢
ĠPat ru
Ġanex a
tu rie
Ġprelu area
Ġstruc turile
Ġmodern izare
ĠD oamna
Ġsla bÄĥ
Ġfenomen ul
Ġdirec Å£ia
ĠÅŁan sÄĥ
ĠCorne liu
Ġsalari ilor
Ġparticul ari
com i
ĠDimi trie
Ġsca unul
ĠaÅŁte pt
ĠBistri Å£a
Ġcaz ino
ĠLoc ul
ta se
Ġf lui
Ġda une
Ġdis co
Ġfund al
Ġavans ate
Ġnop Å£ii
ĠÃ®mb ra
spec tarea
Ġvol an
Ġpetre c
ĠA ICI
ĠB ei
Ġprovo cÄĥri
ĠNu me
Ġriscu ri
ĠaÅŁe zat
r une
u mele
ĠAero portul
Ġasim il
Ġor bi
Ġpartene rilor
Ġatin gerea
Ġenerge ticÄĥ
are nt
Ġluc rez
Ġlegisla ÈĽia
Ġpo za
lic k
Ġnor me
Ġbijute rii
Ġcredin cios
ĠLum ina
Ġd oamnÄĥ
Ġco inci
ose bi
Ġregul a
sion al
Ġfor Å£ele
Ġproprie tar
de u
Ġter mo
Ġfotograf ia
Ã¡ n
ĠJa mes
Ġ ).
Ġsenti mentele
Ġblo curi
Ġa scu
ĠjudecÄĥ tor
le ni
ĠRe alitatea
ĠDezvol tÄĥrii
Ġstuden ÈĽii
Ġecran ul
Ġautom atÄĥ
Ġfotograf iile
F a
ĠSoci alÄĥ
ĠDanie la
M oldo
Ã®n gÄĥ
Ġcontrac tele
ĠsÄĥra ci
Ġna ra
Ġ6 6
Ġhi p
ĠMer cedes
Ġtrans mit
Ġcali fica
Ġconsil iere
Ġpri melor
Ġper cepe
Ġlu Ã¢nd
ĠCon gres
ĠadÄĥ post
Ġde mo
Ġsu stra
si u
å ħ
men ii
ĠbÄĥtrÃ¢n i
Ġadministra tor
Ġjude Å£ean
ĠÃİmpÄĥ rÄĥ
Ġne ws
Ġile gale
ĠE nescu
Ġur Ã¢t
Ġcomp lica
Ġcomple xÄĥ
S a
âĢĿ ).
Ġsprij inÄĥ
g na
Ġpreven tiv
Ġcutrem ur
ĠA stra
bÄĥ ri
Ġum f
Ġra dia
Ġcri zei
Ġclien Å£i
N o
Ġconsil ieri
Ġparlamen tar
Ġ6 2
Ġcape te
Ġtru pei
Ġs tÄĥm
por tului
ĠSin gura
ÈĽ urile
fa c
Ġmulti p
van ghe
Ġmeto dele
Ġdistru gerea
Ġco ÈĻ
g enta
Ġna zi
ĠPers onale
ĠC ro
ĠM ur
Ġvic torii
Ġautomo bile
ĠlucrÄĥ rii
ĠÃ®nche iate
E I
ĠCi or
ĠPoi ana
ve s
Ġmoder ni
ĠcuvÃ¢n tului
ta tive
Ġuni v
Ġcobor Ã¢t
tic o
chi ul
ctivi tatea
ĠMar cel
ĠG B
ĠJandar me
Ġjusti ÈĽiei
ĠA ni
co vine
ĠÃ®n cur
Ġcea sul
Ġt oale
Ġdeza stru
Ġma car
Ġe licop
ĠÃ®mpie dic
Ġarhitec turÄĥ
Ġpoten Å£ial
Ġaplica bile
ĠrecomandÄĥ ri
Ġfi gu
Ġlimi te
ĠIal omi
m ne
Ġor ar
ÈĽe anÄĥ
Ġdori Å£i
Ġo lande
Ġmedal ii
ĠRe vi
ĠMe di
Ġas umat
Ġsca ra
Ġacor de
ĠDol j
ĠÅŁcol are
Ġconstan tÄĥ
Ġma sca
ĠLi derul
u ch
g ma
UR D
Ġor n
Ġeg ale
a ct
b eni
Ġopera tor
Ġbibliote cÄĥ
Ġumplu t
Ġel ve
Ġdepune re
Ġproto col
Ġbucu rÄĥm
ĠP O
Ġfe rovi
ĠPoli ÈĽie
Ġh artÄĥ
che tele
ĠMul Å£i
ĠCe tÄĥ
Ġexperien ÈĽe
Ġvicepre ÈĻedin
Ġsar bat
Ġoxi gen
ĠÈĻ oc
b s
Ġpreluc rare
Ġcole ctive
ĠrÄĥ ul
ĠTe ch
d rep
Ġde vo
Ġofer tele
Ġrea ding
Ġjudici are
ĠapÄĥ rÄĥrii
Ġeta j
ÈĻi rea
ĠEl isa
ĠÃ®nchi p
lÄĥ rii
Ġat rÄĥ
Ġexcep Å£ie
Ġdiferen Å£a
ĠCine va
s il
Ġal i
ĠCu mpÄĥ
ĠAt h
ĠIP J
ĠA pe
ĠG ura
ĠF ul
Ġmo torul
u u
Ġ é
ti p
Ġefectu atÄĥ
Ġpersona jul
Ġba cte
Ġvizi te
Ġinstru men
Ġinfla ma
or oc
din ii
Ġdeci zi
Ġpi per
Ġconec tat
Ġ6 7
ĠAce ÈĻtia
ĠAv ea
Ġcuren te
m ora
te ro
Ġce ram
ĠCare i
Ġproiec tat
ÈĻ or
] [
Ġacord atÄĥ
Ġnumi rea
ĠHotÄĥr Ã®
o vei
Ġcredin Å£ei
ĠÃİnt Ã¢l
Ġt Ã¢mp
ĠslÄĥ bici
Ġimuni tar
ĠA li
Ġar teri
ordin ea
Ġvicti ma
Ġreabili tarea
ĠrealizÄĥ rii
Ġinteli gente
Ġtrime stru
Ġur mele
tre scu
Ġpe dago
ĠJ apone
oc ali
Ġutiliz atorul
ĠR use
Ġtri bun
Ġguver nÄĥ
Ġparticipan ÈĽii
ĠVol un
Ġfi inÅ£Äĥ
Ġcom o
Ġum brÄĥ
Ġpaci entului
Ġsub ordon
f onul
ĠUni ri
ĠCe tatea
4 00
Ġboli le
p arÄĥ
Ġrezol vÄĥ
Ġai ba
ĠPla hotni
Ġimi gran
ĠÃ®nloc uit
ĠTe mp
ĠAd unÄĥ
ĠDunÄĥ re
ĠCali for
b us
ĠO mului
ĠDia con
ĠGa z
Ġcompeti Å£ie
C i
be s
Ġfe ratÄĥ
che tÄĥ
Ġase arÄĥ
Ġdeclara Å£ii
Ġsuspen darea
Ġinci dent
ĠF ord
Ġcondi Å£iilor
ĠÃ®n spre
Ġangaja ÈĽii
Ġtempera turÄĥ
ĠV Ã¢n
ver sat
ĠÈĻcol ii
Ġt om
pro du
ĠArma tei
Ġho tÄĥ
Ġpopula ÈĽie
uter s
ĠMili tar
Ġop inii
Ġfab ric
L A
ĠAce ÅŁtia
Ġimplica ÈĽi
Ġdestin ul
Ġo mo
Ġau de
Ġemi siuni
Ġsalari ale
Ġt Ã¢l
Ġcomun ismului
gi at
Ġcoordon area
Ġporn ind
Ġrepe tate
Ġimp un
Ġregi unile
ĠvrÄĥ ji
Ġadministra Å£ia
Ġarti stul
U C
Ġre te
an ge
ĠDane marca
Ġsub tit
Ġacoperi te
ve ste
Ġfi bre
ĠCon te
Ġcop er
Ì Ĩ
Ġst ro
Ġjude cata
OR T
O G
ch in
Ġseg mentul
ĠrÄĥma se
Ġad versa
ca sa
Ġsalv area
ĠRe sur
stan bul
Ġamenaj area
Ã® ne
ĠpÄĥ st
Ġpre limin
Ġaloc at
ĠBib lia
di rec
Ġapro vizi
Ġsimul tan
D I
tri bu
Ġpisc inÄĥ
z in
b is
am iazÄĥ
ran te
Ġ199 3
or g
ĠCampion ilor
Ġ14 0
Ġdeschi d
Ġdepozi t
Ġcif ra
Ġincul pa
Ã®n tre
Ġata curi
th er
t rul
Ġyo ur
Ġsto care
ĠmÄĥs line
Ġpoveste sc
Ġs ter
ĠurmÄĥ resc
Ġstuden ÈĽilor
Ġinterpre tarea
ia za
ĠscÄĥ zutÄĥ
se menea
Ġucra ine
ĠrÄĥ mÄĥ
ĠpÄĥ sÄĥri
Ġhotel ului
b une
Ġi dea
Ġj oaca
Ġlocu inÈĽe
Ġpe trol
cu raj
di re
ĠÃ®ntÃ¢mp le
Ġpropune m
Ġt ut
mp ie
cÄĥm inte
Ġfrumuse ÈĽea
me tra
Ġru pe
Ġsiguran ÈĽa
Ġsalv are
Ġadec vate
v ini
Ġin cal
tof ii
Ġlap tele
ĠAnge la
Ġpesc uit
Ġ {
ĠGor j
Ġm Ã®n
Ġlocali tÄĥÅ£i
Ġvir tual
Ġro agÄĥ
ĠSoc iale
Ġsu stena
ĠVi tea
Ġsesi zat
i tÄĥ
Ġmar gini
Ġminim um
Ġcomis ia
ĠIor dache
Ġsp erÄĥm
Ġproiec tare
ĠnerÄĥ b
pu ÅŁi
Ġprim im
Ġbloc a
ÅŁ el
rie rea
ĠEU RO
de c
ra y
ĠFe ti
IC E
Ġpo di
ĠSe ria
ru rilor
tific at
scrie rea
Ġfi ÅŁ
ĠTim is
Ġreglemen tare
ĠÃ®mbunÄĥtÄĥÅ£i rea
l s
ĠRe uters
Ġin co
Ġuni versul
ĠlÄĥs Ã¢nd
ĠActivi tatea
ĠH y
b urile
Ġs Ã®n
Ġcompor ta
Ġrespin sÄĥ
Ġbal con
ĠR ol
Ġ6 3
Ġprofes orilor
Ġnavi ga
ci re
Ġcorpor a
ĠCopil ului
Ġpute rile
Ġauto strÄĥ
Ġtri mitÄĥ
Ġgene reazÄĥ
me diat
ĠF al
osea ua
Ġan ima
ri ului
Ġobli gÄĥ
Ġcaf en
Sun tem
Ġcon tului
ris m
Ġveni tul
ĠrÄĥ sturn
Ġate lier
A lex
Ġtradi Å£ie
Ġaline atul
Ð ³
on da
Ġte nul
ĠbÄĥ gat
ĠcÃ¢ÅŁti ga
Ġpa chetul
ĠSÄĥ ptÄĥmÃ¢na
Ġmen Å£ionate
ĠVia Å£a
N a
an Å£a
Ġ3 50
man uel
an ti
Ġferea strÄĥ
Ġsu ce
Ġfo i
ali ÈĻtii
Ġ194 4
Ġvala bile
ĠCampion atului
ĠmÄĥr f
Ġstrate gic
ĠÈĽ inÄĥ
Å£i rea
Ġpo zÄĥ
ĠTe ore
Ġutiliz Ã¢nd
Ġatin gere
ÅŁ oara
Ġta i
ĠÈĺ tiu
", "
Ġjurn alist
ĠMa c
fa be
Ġdep is
Ġcar bon
Ġincep utul
Ġintelectu alÄĥ
Ġle ne
ĠI tal
Ġur Ã¢
Ġlua Å£i
ĠCon curs
Ġanaliz at
ĠCre din
Ġafec tatÄĥ
Ġt v
ĠSim on
Ġscena riu
Ġdec ol
Ġproce durilor
ui rii
Ġan onim
ĠConstan ta
Ġimplic are
ĠvÃ¢r st
ï¼ Į
Ġlo tul
ĠMunte anu
ĠsÄĥ li
Ġate lie
Ne ws
tivi tatea
ĠC H
ĠGimna zi
Ġn ins
Ġsti ri
ĠÃ®ngrij irea
ĠS um
sÄĥ ud
en ÈĽei
Ġmo are
ce ÈĻti
ĠrecomandÄĥ m
ĠjucÄĥ rii
Ġpa ti
ĠmÄĥ re
ĠPh ili
ĠDe talii
Ġmar ti
v ind
Ġo cul
Ġformul Äĥ
Ġcal orii
ly wood
ĠM all
ĠcÄĥ p
ĠÃİn alta
for d
Ġimpozi t
t rat
zi ve
ĠE c
Ġconsidera bil
Ġrug am
tu iesc
ÈĽi oase
ĠCri me
Ġog l
Ġmultu mesc
Ġcri teriile
Ġsurprin de
Ġï »¿
ĠcÃ¢ tÄĥ
Ġum or
Ġeduca ÈĽia
ĠVe che
Ġconstruc Å£ia
ĠRezul tatul
Ġfotb alul
Èļ I
Ġex o
Ġobicei uri
Ġfun cti
d om
y er
ĠA ÅŁ
Ġ6 1
Ġturi ÅŁti
v Ã¢nd
si us
Ġspi talul
Ġape lor
stÄĥ m
Ġdirec ÈĽia
Ġdispozi ÈĽia
Ġne sf
Ġstom ac
Ġf r
ĠPortu galia
g os
Ġnu mite
Ġar h
Ġarti ÅŁti
Ġcurs ului
Ġmecan ism
ĠÃ®ndrÄĥz ne
Ġeg alitate
Ġex terioare
com uni
Ġechilib rul
fÄĥ rÄĥ
Ġdeschi dÄĥ
ĠÃ®ntreprin deri
ĠE du
Ġex ces
Ġsitua Å£iei
Ġcredin ÈĽa
Ġad ica
Ġfere stre
Ġpatrul ea
g ing
Ġe ÈĻe
il o
Ġfac torii
ce dil
Ġinov atoare
âĢĿ ?
Ġjude Å£ele
Ġcon tu
Ġi ve
ĠT al
Ġsu e
Ġsol dat
Ġeta jul
P E
ĠBar bu
Ġb ale
ĠS I
Ġpantal oni
IN G
Ġvrem urile
ĠUR SS
Ġa ma
ĠNoa pte
Ġorigin alÄĥ
Ġprimi tÄĥ
ran tÄĥ
Ġro m
Ġlans ate
Ġmesa jele
ĠDezvol tarea
Ġst Ã¢ngÄĥ
Ġaloc ate
Ġ que
Ġdomnul e
Ġmil f
ĠLuc rÄĥrile
Ġse siuni
Ġau torii
Ġstimul area
w in
ĠT umblr
ĠCri min
Ġcompara ÈĽie
Ġf ree
ÈĽe ÈĻte
Ġpresti gi
e e
ĠF ar
ĠpÄĥ strÄĥ
Ġinfluen Å£Äĥ
ĠI X
Ġdesc opere
Ġzil nice
ĠBasara biei
ĠPlahotni uc
Ġac Å£ioneazÄĥ
cen ic
Ġradic al
ĠO c
ĠaÅŁa dar
Ġutila je
Ġbenz inÄĥ
Ġse siunea
Ġvi ce
å Ľ
ĠB at
Ġtrebui au
ĠCo okie
ĠmÃ¢n e
Ġfi xe
ĠMo tivul
Ġbibliote ca
F or
Ġtermen ii
c ÈĽii
ĠÈļ ara
ĠtrÄĥ ieÈĻte
Ġe vol
Ġocu pe
Ġrecunos cute
Ġlin gurÄĥ
Ġparticipan Å£i
ĠDobro gei
ĠrÄĥzb oaie
ÈĻ ind
an ÈĽii
Ġma ster
Ġentuzia sm
ĠAugu stin
ÈĽ Ã¢nd
, ,
vi tatea
Ġesen ÈĽial
Ġpopula Å£ie
cep re
ĠprimÄĥ riei
ĠÈĻtiinÈĽi fice
Ġepo cÄĥ
Ġal l
Ġdep rin
Ġcar osa
Ġsperan Å£a
Ġmonum ent
Ġbote z
Ġposi bilitate
Ġ8 9
ĠÅŁ oc
å ®
Ġfi zi
Ġ13 0
Ġpolitici enii
ĠA ÈĻ
ci r
ĠcetÄĥ ÈĽean
st rele
ĠO ccident
Ġcum peri
ĠÃ®nc olo
Ġdeb ut
ĠÅŁtiinÅ£i fic
mini strul
Ġvizi bile
Ġ7 6
ĠmenÈĽine rea
ĠCorne l
Ġinstan ÈĽÄĥ
rin i
ver sit
Ġz odia
Ġinva ta
Ġtransform area
T M
p ania
ce ÅŁte
Ġordin ii
mb er
ĠsÄĥrbÄĥ toarea
ĠAgen Å£iei
Ġdie tÄĥ
ĠÃ®n ÅŁi
ĠcÄĥ derea
ĠÅ¢ i
Ġspor tivÄĥ
Ġacele i
ri ana
la h
Ġeuro parlamen
Ġvo tare
Ġgenera lul
f ului
ĠVo ic
ĠHa gi
ĠH ard
ĠPoli tica
Ġprevede ri
g urilor
Ġen ume
Î ¹
Ġin stin
lÄĥ m
Ġlimba jul
Ġsu stin
Ġz o
Ġrezol vat
Ġsc la
Ġcost um
Ġine dit
b im
Ġexemp lul
ĠReg atul
ĠÃ®n tele
Ġre pa
ha il
Ġimpo za
Ġsu mei
ĠrÄĥ su
ĠSp une
Ġbicicle ta
Ġtre ci
Å£ urile
op ping
Ġdu ble
ĠÃ®nce tat
Ġseri oasÄĥ
Ġbil ate
ĠvÃ¢n tul
ĠÃ®mp le
Ġperson alitatea
Ġdescoperi rea
S E
Ġto tale
Ġsatis face
Ġregiz or
Ġg oale
Ġlu ci
Ġrepe tat
ĠJusti ÈĽie
Ġde ÅŁ
Ġf ani
ĠAre na
ĠcunoÈĻtin ÈĽÄĥ
alo gul
rÄĥ toare
Ġme re
ĠUS B
Ġaste pta
Ġterm ic
Ġte orie
Ġlimi tatÄĥ
Ġcon turile
Ġar bit
Ġob tin
Ġo u
ve lor
ĠPo wer
Ġelect rici
âĢ Ķ
ĠH am
ov o
ĠDel ta
Ġre forma
ĠCi vil
Ġsuprafa ta
Ġcontempor ane
ĠurmÄĥ reÈĻte
Ġgenera te
Ġeduca ÈĽiei
Ġcobor Ã¢
ĠROM ÃĤN
Î ½
Ġpa cea
Ġzi cea
ĠC lo
Ġb ri
ĠpregÄĥ teÅŁte
Ġpreo Å£i
ĠTime s
ĠP enitenci
ĠaÈĻa dar
ĠPo vesti
Ġacci dentul
ĠÐ º
o do
rici le
Ġrecomand atÄĥ
ĠÃ®n vÃ¢r
Ġex cesi
Ġortodo xe
Ġfotogra fi
Ġedi ÈĽii
Ġinten sÄĥ
Ġviz ate
Ġansamb lul
ĠIn spec
Ġmar cheazÄĥ
Ġ6 8
Ġconfi denÈĽi
Ġcon stat
Ġdi vin
ĠSM URD
am al
Ġpoe tul
Ġunivers al
Ġriscu rile
Ġconferin ÈĽÄĥ
Ġfier b
": "
ĠRomÃ¢n eascÄĥ
o fi
ĠPers onal
Ġidentific ate
P T
Ġlum inii
Ġconstitui rea
Ġpaci ent
Ġsla va
ĠRegi strul
ui l
Ġtre pte
Ġgaran teazÄĥ
Ġextre me
Ġfamil iilor
ĠCor ina
Ġomeni rii
ĠDe putatul
gi an
Ġincom pati
ĠAfi ÈĻat
ĠP ale
Ġcarie rei
Ġpaci entul
contin uare
ĠH d
Ġreu ÈĻeÈĻte
ĠÃ®nve ÈĽe
ĠRalu ca
o ten
ĠÃ®n gu
Ġcon turi
OR UL
ĠâĢ ¡
ĠIn dian
Ġcerin ÈĽele
Ġclub uri
Ġcite ÅŁte
ĠRa pid
ĠrÄĥsp lÄĥ
Ġparticul ar
Ġre vinÄĥ
Ġora s
Ġtrans mi
ĠMari ana
ine l
Ġpetre cute
ĠIon uÅ£
Ġauten tic
ĠGre en
Ġpro viz
ĠO bama
Ġcolec tate
Ġcif rÄĥ
Ġspectacul oase
me d
sc riere
Ġavi onul
Ġitali anÄĥ
Ġsiguran Å£a
Ġrecupera rea
Ġlum ini
Ġmese ria
Ġrela Å£iilor
Ġcole cÈĽie
ol f
ĠO m
Ġre Å£in
Ġlog icÄĥ
A rt
Ġcost urilor
Ġproa sp
ĠBritan ii
ĠS ara
tri cÄĥ
Ġmedic ina
ĠEconom iei
ĠBistri ÈĽa
Ġtradi ÈĽie
Ġada pta
a f
Ġpa ÅŁi
Ġstadi onul
Ġsana tate
ĠÃ®n ze
Ġmar tor
Ġben zi
ĠE p
Ġobsta cole
Ġg rÃ¢u
sc en
form are
ĠÅŁti am
ĠE mi
Ġva g
g Ã¢n
tat ului
? âĢĿ.
ĠAdul ÈĽi
Ġam bii
ĠOl tenia
oa lele
Ġcompon entÄĥ
ĠO scar
Ġinterpre tat
ĠpreÅ£ urile
Ġcalen darul
Ġreferin Å£Äĥ
d r
Ġob ra
one s
Ġcan ale
Ġbas chet
v area
Ġstu die
ĠTeat ru
Ġhand bal
ĠI stanbul
Ġsublin iazÄĥ
ĠT ale
Moldo va
O F
Ġclas ament
Ġsarcin ii
Ġpro cla
Ġpu ÈĽinÄĥ
Ġth is
ĠdÄĥ unÄĥ
Ġcoa dÄĥ
ĠconÅŁti enti
Ġcu vi
ĠCh ri
Ġsf inte
ĠÃ®ntÃ¢rzie re
Ġdin tÃ¢i
Ġcomis ie
Ġwork shop
Ġfit ness
Ġre ÈĽine
Ġcan al
Ð½ Ð¸
ĠE co
Ġcritic at
ĠCa z
Ġ7 9
ĠH it
Ġpsih olog
ĠÃ®nscri se
p oni
Ġmod alitatea
lan dei
ĠEvanghel ia
ĠAr sen
Ġen or
Ġob iectele
spe ci
Ġscen ari
Ġcertific ate
ĠalÄĥ turat
Ġspital ului
Ġcontempor an
Ġalimen tele
ĠCon trol
Ġvede Å£i
Ġdi vinÄĥ
ĠMun cÄĥ
ce don
ÅŁ or
va cia
Ġclin icÄĥ
ĠÃ®ndemÃ¢n Äĥ
Ġva se
Ġro chii
Ġtra uma
Ġpie toni
Ġnivel uri
ĠGrat uite
Ġcere b
Ġv Ã¢ndÄĥ
ĠO a
Ġero ri
Ġra s
f fe
de ÈĽi
or ge
om ir
Ġz dro
Ġlegisla ÈĽiei
Ġpil ot
Ġapropi atÄĥ
ĠFlo rea
an ÈĽa
ĠDepar tamentului
ĠMe teor
Ġexamen ului
Ġarbi tra
icÄĥ ieri
Ġdra gul
Ġexisten Å£ei
Ġpoten Å£i
Ġdeza vanta
ĠstrÄĥ du
Ġciti tori
Ġdecizii lor
Ġdesfa sura
ĠOcta vian
t t
Ġmin cin
Ġcata stro
ĠDÃ¢mbovi Å£a
Ġt une
Ġcandida Å£i
Ġch at
Ġcompara Å£ie
Ġcite ste
Ġprofil ul
ĠRe ge
ĠÃ®ncÄĥr care
ghi ta
uter nici
Ġposes ia
pu ÈĻi
ĠÃ®nt ins
ĠIn gredi
, âĢ¦
den ta
Ġche ia
Ġpre con
Ġcent rele
ĠlucrÄĥ toare
ĠCra ciun
ĠAp us
Ġviz at
Ġcele bri
ĠConta ct
nic ia
Ġcent rului
E l
Ġagen da
Ġfe ed
ĠÃ®nÅ£ele gem
ĠÅŁan sa
ĠA ss
ĠD am
Ġsalari ului
Ġcombina ÈĽie
in Å£elor
f ia
s ate
il ind
tu dinea
Ġvre ÈĽi
hi te
oli t
Ġver b
Ġav ia
Ġtex tului
Å£e ÅŁte
ĠbÄĥrba ÈĽii
b ot
Ġpreveni re
tura l
ĠCE O
Ġcondi Å£ia
ĠTudo se
ĠÃ®ncepe m
Ġadul t
Ġpar Å£ial
ĠÅŁti ri
ĠGi gi
ĠDi vi
ĠrÃ¢ ul
Ġparlamen tari
Ġpi ra
ĠÃ®nÄĥl ÈĽime
å ¤
ĠsÄĥ ri
Ġinter dic
Ġsolu ÈĽia
Ġf on
Ġna scut
Ġdispozi tivul
ĠUr ban
Ġviz ual
o ÅŁ
Ġag ricol
Ġam atori
Ġarhi te
Ġ9 00
Ġangaja Å£ii
Ġcerce tÄĥrile
ĠÐ ´
Ġpreci zie
ĠFor ma
ĠCerce tare
Ġprop riilor
Ġpla ca
Ġsing le
ĠpÄĥrin telui
ĠÃ®nvÄĥÈĽÄĥ mÃ¢ntul
ce len
de an
Ġfurniz ori
Ġmin una
ĠMe ri
Ġinvesti t
ĠIs la
si ÈĽi
rin g
gÄĥ tori
Ġsta bi
k u
le ze
ba i
Ġpor toc
Ġtrans forme
Ġgra Å£ie
ĠCÃ¢ teva
V e
ĠP ui
ĠCom peti
Ġcapi talei
Ġinculp atul
Ġevi tarea
Ġindependent Äĥ
ĠX II
Ġderul at
Ġcandid atul
man ii
Ġartic ula
Ġsemn area
be c
Ġsele cÈĽie
Ġd Ã¢nd
Ġli stele
ĠEra u
Ġvi deoclip
Ġintegra te
ÑĢ Ðµ
m pe
Ġpre universitar
ĠPÄĥ mÃ¢ntului
Ġze i
str Ã¢nd
ĠdesfÄĥÅŁura te
ĠEgi pt
m us
ĠAn samb
ĠDum inica
Ġlin iile
Ġdenumi t
ĠMax im
Ġfurniz or
Ġprocur orului
bio tice
Ġmo da
Ġmer sul
Ġinven tat
ma ri
Ġvin uri
ĠÃ®mpo do
otera pie
ĠÃ®nf lori
Ġca ie
Ġplane ta
Ġb oa
is pre
Å£i tul
ve chi
Ġprelu ate
ĠjudecÄĥ tori
ÅŁ uri
Ġlu are
Ã¢mb Äĥ
Ġbene fice
Ġrecomand ate
ĠK o
Ġconsum atori
p lay
ä »
rÄĥ mi
mp ion
Ġver bal
ĠÃ®ntÃ¢mplÄĥ tor
c arÄĥ
ĠTom is
ĠgrÄĥs imi
Ġvinde care
ĠaparÅ£in Ã¢nd
Ġg er
Ġlip sesc
Ġacele ia
Û Į
den ti
ric anÄĥ
uz ii
Ġciti torii
Ġbeneficia ri
ĠPro curorii
Ġimportan ÈĽÄĥ
Ġsigu re
g iale
ran ul
Ġcorespun de
Ġtermin area
Ġdestina ÈĽie
Ġcopa c
Ġtra ining
rele ss
Ġliv rarea
ber ne
ĠmÄĥr furi
sec unde
Ġstabile ÅŁte
deam nÄĥ
ĠcÃ¢n ta
ĠfuncÈĽion area
ĠCalifor nia
ĠM ED
Ġconstr uiascÄĥ
Ġfa bul
p tate
ĠI mediat
Ġscrii torul
Ġelimin at
Ġbun ica
ĠBan at
Ġopre sc
? âĢĿ,
ra tele
Ġmoment ului
de cum
au s
ĠG rin
C ea
g ov
p y
ĠcÄĥ min
na se
bo reazÄĥ
Ġplan ului
Ġspiri tului
da ÈĽi
ĠÃ®nconjurÄĥ tor
Ġsani tar
Å£i ul
Ġcorup Å£ie
? ,
t he
Ġrele van
ĠCenten arului
s ut
ĠÃ®nt Ã®l
Ġe ÅŁe
an Å£ii
rum use
ruc ii
ĠcopilÄĥ riei
ĠrÄĥ sti
ĠCons um
Ġavi oane
ĠShe male
ĠRegi onal
ĠÃ®mprej urÄĥ
Ġintitul atÄĥ
ar ci
Ġpre fer
Ġlung imea
zÄĥ tori
Ġop une
Ġaero portul
ver y
ĠpÃ¢n a
ĠP MP
Ġcre dea
Ġbicicle te
Ġautori zat
ĠCamp ania
ĠBraz ilia
ĠFedera Å£iei
Ġreie se
Ġcer t
Ġprof unde
ÑĤ Ðµ
Ġrezisten t
Ġinfrastruc tura
ĠOf fice
6 00
ĠM ON
Ġfund amental
m Ã®nt
Ġdispozi tie
ĠmÄĥnÄĥsti re
Ġne ui
Ġzi ar
p si
fe rea
Į Ĺ
Ġde ca
Ġcelui lalt
v icÄĥ
Å£ eascÄĥ
ĠÃ®nd reaptÄĥ
Ġvari ate
ĠiniÅ£ia tiva
ti z
ĠG rand
Ġreli gia
ĠP us
Ġatra g
ĠmÄĥri me
Ġdeclan ÅŁ
ĠBi g
ĠmÃ¢ntui rea
Ġre une
Ġinforma Å£ie
Ġpreocu pÄĥ
ĠLesbi ene
ĠB us
Ġpa cate
ĠSta tu
ĠgÄĥz duit
Ġingredi entele
Ġlipsi tÄĥ
Ġarmon ie
ĠPopor ului
Ġdepu sÄĥ
dis cip
te fÄĥ
Ġtax ei
Ġinte ro
Ġlo t
201 9
Ġatra gÄĥ
Ġamp loare
ĠÃ®nÈĽele gem
ĠMih Äĥ
Ġteritori ului
Ġogl indÄĥ
Ġno stri
Ġasisten t
ĠE m
Ġdec re
Ġalege m
ĠFÄĥgÄĥ ra
ri ve
Ġurm eaza
p us
Ġpla sat
Ġintrodu se
z ona
Ġne pÄĥ
Ġspectacul os
o pa
Ġprotej atÄĥ
d uitÄĥ
Ġdo tate
Ġru se
ĠA ju
ĠGrup ului
ĠInsta gram
ĠCopil ul
Ġum bre
ĠzÃ¢mb et
Å£i tÄĥ
Ġprogram are
Ġstimul eazÄĥ
ĠO range
che ie
Ġanul area
âĢĿ !
Ġmem ora
Ġco pi
Ġdipl omÄĥ
è ½
Ġreg la
Ġzgom ot
Ġap lice
. -
a dicÄĥ
Ġ qu
Ġdis puta
Ġjuni ori
ĠMasa j
ĠmÃ¢ng Ã¢
u sa
å ¹
Ġac torul
d inile
ĠLiber tatea
Ġe stul
ĠAl im
Ġrezol ve
Ġh er
Ġan xie
Ġh otelul
ĠÃ®nÄĥlÅ£ ime
se d
pune rea
ĠGlo bal
zi re
Ġcost ume
Ġnecesi tate
rea k
ĠaÅŁte ptÄĥ
Ġpro po
ĠstÄĥ tea
Ġf loare
Ġve stul
Ġexperi mente
Ġspa ti
Ġrisc ului
Ġmiro sul
8 00
si ste
ĠE va
Ġab stra
Ġconsil ierii
Ġsub ordinea
ĠalcÄĥ tuit
Ġscris ori
Ġcuvinte lor
ĠZ Äĥ
à ¹
Ġg ala
ĠÃİ mb
ĠcercetÄĥ rilor
Ġpro bele
Ġap le
Ġdimen siunile
Ġde se
Ġmili secunde
ĠSM S
ĠrÄĥ c
Ġmat ure
ĠMer kel
Ġnume roa
A cum
Ġcar dul
ĠvÃ¢r stei
Ġspecta tori
ol ici
ĠB lo
Ġne te
Ġprodu cat
ele ct
ĠBu covine
Ġguvern amentale
Ġven ind
Ġelim inÄĥ
ĠFranci sc
Ġac va
Ġasigu ratÄĥ
Ġpriv im
R ead
Ġno ci
Ġgenera ÈĽii
Ġjusti fica
ĠTeore tic
au r
ĠtÄĥ cere
ĠÃ®ndepÄĥr tat
Ġcole stero
ĠCo sta
ĠSimi on
Ġune ia
Ġing rij
ĠBra sov
nu iesc
Ġcli p
Ġconsum at
gu rarea
ta in
ĠurmÄĥ reÅŁte
ĠFri day
Ġaface rile
Ġde licate
Ġcon tine
de scu
Ġperman ente
Ġeta je
to le
Ġabsol utÄĥ
Ġexpe di
ĠD ea
ĠM odul
Ġsec ven
ĠRu sÄĥ
tin ul
Ġfrumuse Å£ea
Ġra mas
ĠpÄĥr ÈĽile
Ġma ste
fi da
Ġex pre
Ġpro s
Ġco te
Ġop ÈĽiune
ĠcÃ® te
Ġrecla mÄĥ
Ġcopa ci
j ur
ĠÃ®n deamnÄĥ
Ġmar cate
Ġsele cta
Ġadministra ÈĽiei
Ġgerman i
man n
Ġcelule lor
Ġcelorlal Å£i
ĠstrÄĥ zii
ol ar
Ġpro tagoni
Ġproprie tarii
ĠTh om
ĠFedera ÈĽia
as ca
U D
Ġglob ale
Ġsuplimenta rÄĥ
ĠNorve gia
Ġive alÄĥ
ĠSfÃ¢n tu
ĠCoc oÈĻ
Ġu ÈĻa
Ġreferin ÈĽÄĥ
Ġa ferent
le ge
ĠF MI
Ġta be
Ġexclu sivitate
Ġdetermin atÄĥ
ĠmÄĥ rimea
ing s
ĠIa cob
ĠXV III
Ġfi ÈĽi
Ġsocie tÄĥÈĽi
Ġimplica Å£i
Ġm ingea
Ġz ici
tivi tate
ĠMe can
ric ane
Å£ enie
ĠCon cep
ĠLa sÄĥ
Ġinteri mar
Ġzic Ã¢nd
Ġnecunos cut
P I
ĠT urn
Ġproble mei
Ġra te
Ġintegra re
p tui
Ġob o
ĠnemulÈĽ umi
ĠO S
rac ului
ĠÅŁtiinÅ£i ficÄĥ
Ġde ze
Ġl on
ori ce
ÈĻe ÈĻti
P ar
in ar
ĠfÄĥ cÃ¢ndu
Ġu ÅŁi
Ġconse cutiv
Ġb lon
Ġne lini
Ġint rÄĥrii
Ġdescrie rea
Ġusturo i
ze z
Ġciup erci
Ġpacien Å£ii
ma dÄĥ
gi r
ĠFe rici
Ġexista u
Ġin chis
Ð¾Ð »
Äĥn ui
Ġb eau
Ġtra teazÄĥ
ĠÃ®nve Å£e
min tele
Ġop reascÄĥ
ĠSing urul
Ã¢n te
Ġproce selor
Ġdrago stei
Ġte orii
ĠNo uÄĥ
Ġdia bet
ĠrÄĥni te
Ġ ului
Ġavanta jele
Ġnoroc ul
Ġreveni rea
Ġarhe ologice
s am
Ġzile lor
ar mon
Ġre na
ui tor
ni te
Ġturi sticÄĥ
Ġconsecin ÈĽÄĥ
ĠsÄĥvÃ¢r ÅŁirea
Ġde ten
Ġsca pÄĥ
Ġma cro
ĠpreÈĽ urile
ĠÃ®ndeplin eascÄĥ
p ate
ĠSex ul
ĠTÄĥ u
Ġf ia
Ġsto c
Ġci tatÄĥ
Ġsufle teascÄĥ
Ġfolos ul
ĠcÃ¢ntÄĥ re
Ġinforma ÈĽie
Ġfran ci
ĠMÃ¢ntui torului
C M
Ġtre ime
Ġsoci o
Ġactiv at
Ġsluj bÄĥ
d re
Ġpre dis
mÃ¢n du
Ġtelefon ului
Ġaf l
ĠFlo ren
ĠDos arul
U A
ba ta
ĠTermen ul
zi unea
Ġlic enÈĽÄĥ
Ġaparte n
ĠItal iei
Ġp ene
Ġas ociere
Ġneferici re
r or
ne gru
Ġpo zele
Ġru tierÄĥ
Ġeduca Å£ia
ĠLup u
ĠArhi tec
ĠJ an
Ġdepla sat
ĠD im
di da
Ġfal si
Ġextraordin are
Ġf ante
ĠD ori
pl an
Ġfolosi ÈĽi
ĠÃ®nchi derea
ĠiniÈĽia tiva
Ġfruc tele
ĠPro cesul
Ġdat orie
Ġconsum atorii
ÈĻi te
Ġreferendu mului
Tu be
Ġpremi um
Ġro ÅŁie
po le
Ġdepla sa
Ġtaxe lor
Ġo l
Ġin voc
ĠPro mov
Ġresponsa bilÄĥ
Ġesen Å£ial
ĠÃ®ndrÄĥgo sti
Ġduh ul
Ġevol ua
Ġcomuni stÄĥ
Ġsperan ÈĽa
Ġurb ane
Ġtre m
Ġmodi ficatÄĥ
Ġputer nici
AS A
Ġturi ÈĻti
Ġconfir ma
Ġsimbol uri
fici u
Ġmajor area
ĠprezentÄĥ m
ĠlÄĥm Ã¢ie
en tal
ĠA cu
bo x
Ġexpune rea
Ġre cur
Ġob Å£inÄĥ
ĠmulÅ£ umit
ĠC Ã¢r
Ġvo ci
Ġcomple xi
Ġavans at
Ġautomo bil
ĠMemb rii
Ġdia be
Ġmonitori zarea
Ġpresedin tele
f one
ĠJo curile
ĠÃ®ncer cÄĥri
Ġzbor uri
Ġlen je
Ġa stronom
Ġspor tul
Ġconstruc ÈĽia
am ing
Ġesen Å£iale
scri se
z y
ĠÃ®ncad reazÄĥ
ch a
ĠAf la
Ġacord ului
Ġanun Å£a
ĠDeputa ÈĽilor
ĠNa poca
or n
Ġba sara
Ġinf lu
re la
ĠD ic
ESC O
Ġperfec te
l nice
Ġsun a
Ġorganiza Å£iei
ĠStra da
tis h
Ġreu ÈĻesc
Ġaprec iate
Ġdistribu ÈĽie
U l
Ġme ÅŁte
ĠTe ra
Acea stÄĥ
ĠSex date
Ġdom in
Ġcri tice
Ġdestin atÄĥ
Ġsf Ã®r
Ġluni le
Ġfir melor
Ġser vit
Ġmar gin
âĢĿ [
Ġh ra
Com entariile
ize ci
te am
Ġin car
ĠAdministra Å£ia
Ġoportuni tatea
ĠUni versit
Ġfra Å£ii
Ġpens iilor
M atei
man d
Ġde ces
Ġtru pele
Ġdeclara ÈĽii
ĠB ut
ĠRÃ¢mn icu
g rat
Ġsup ran
ĠreÈĽele le
ĠComplex ul
CL US
Ġmi siuni
ĠFedera Å£ia
ĠBibliote cii
Ġun an
ĠP RE
Ġpor nire
Ġconferin ÈĽe
Ġte re
ĠArge ÈĻ
ĠI mi
Ġ11 0
âĢ ¢
Ġprogram atÄĥ
Da ca
ĠTine ret
Ġh al
ĠcurÄĥ ÈĽ
ĠÃ®ntÃ¢l nim
ĠRÄĥ dulescu
ĠmÄĥnÃ¢n ce
Ġfer mÄĥ
Ġstabile sc
Ġjandar mi
Ġmi tropoli
Ġdar uri
Ġnume rele
ĠFor um
Ġlocali tÄĥÅ£ii
Ġtalen tul
l um
ĠscÄĥ zute
ĠPom pie
O D
Ġca sca
Ġregiz orul
ĠÃ®ncÄĥ pÄĥ
ĠcÄĥldu ra
Ġsonda j
p arte
Ġusc atÄĥ
Ġorgan e
Ġimp lement
ĠDi stri
Ġre lie
ÄĤ T
Ġfac tura
vie rii
Ġse ce
ĠvÄĥ zÃ¢nd
Ġac torii
Ġpi st
ĠconÅŁti inÅ£a
Ġcic lul
ÅŁe ÅŁti
ĠC oa
Ġdec eniu
Ġime dia
I ST
cu iesc
ĠS tele
h ttp
Ġanun ÈĽa
ĠUr meazÄĥ
Ġascul te
ĠProdu sele
Ġsuper mar
p tele
U RE
ĠJ un
E le
ĠS mart
Ġtri mit
Ġintegra lÄĥ
Ġac ne
ĠIe rar
Ġingin er
Ġuimi toare
pu ter
ĠÃ®ndeplini t
Ġspor tului
Ġlat inÄĥ
Ġfavora bil
Ġmo toare
Ġcolo ana
Ġsepa rate
pe t
and ri
ĠDumi trescu
Ġno teazÄĥ
ĠSe verin
Ġvechi ul
S M
ĠÃ®mp uternici
ĠDoi lea
ĠÃ®ncal cÄĥ
Ġre puta
ĠSe min
ĠGh er
Ġmeta lice
? "
Ġpre dat
ĠH and
zb ate
Ġistori cul
Ġble ste
Ġs am
vi ta
ĠBucovine i
Ġo sta
he din
ju sti
Ġconferin Å£e
Ġuni rea
Ġch ei
ĠcreÅŁte rii
ĠasemÄĥnÄĥ tor
ĠcunoÅŁtin Å£e
ĠD ele
ĠaÅŁte ptÄĥm
Ġinterzi sÄĥ
.... ..
ur s
Ġcad rele
fe s
Ġro ÈĻie
Ġdestina Å£ie
ĠMe m
Ġine dite
Ġl oi
ĠA da
Ġmu ta
scul are
exi sten
Ġadolesc ent
ĠV rei
ĠadÃ¢n ci
ĠTÃ¢rgovi ÅŁte
ime tri
Ġcrea tive
Ġhi bri
ĠB ala
ĠÅŀ tiri
ĠSi ghi
Ġne in
Ġdo tÄĥri
ĠAdministra re
ĠChar les
Ġautom ati
t ran
Ġne mai
Ġpersonali tÄĥÅ£i
ĠiniÅ£i at
p al
ĠmÄĥr turie
Ġcircula Å£ia
ĠgÃ¢ndi rea
Ġpro mul
Ġtradu s
Ġmana gerul
ĠTribun alului
Ġoportuni tÄĥÈĽi
ĠPre ÅŁedin
ĠPar oh
Ġin loc
Ġdirec torului
Ġs tii
Ġle s
Ġgra dului
tis mului
Ġtrime strul
ĠÃ®n dea
ie z
Ġ7 7
Ġexp us
Ġlicita Å£ie
Ġv Ã¢nd
ine ze
Ġimpact ului
Ġneui tat
ran ului
ĠResta uran
op arte
Ġac Å£iunilor
Ġregul ament
Ġdure rile
h y
Ġal bu
Ġpri zon
ĠbÄĥtrÃ¢n e
ĠuÅŁ ur
Ġplan tÄĥ
Ġzg omo
ĠRÄĥspun sul
Ġsubtit rat
Ġprem iera
Ġimpozi te
ĠTÃ¢r gul
Ġ194 5
ĠMo bil
ĠaplicÄĥ rii
ie sti
Ġpa st
ĠÈĺ I
ĠVia ÈĽa
ĠArma ta
Ġindi feren
ĠA h
Ġspectacol ului
Ġal tii
Ġfamilia ri
Ġremar cÄĥ
Ġfolc lori
Ġre vÄĥ
Ġzi d
Ġlo ok
ie ste
Ġen erv
ia c
ĠM os
Ġan g
Ġru ta
Ġoca zi
si an
Ġabord area
B S
Ġconfi gura
ĠTÄĥ nase
Ġexploa tarea
ĠO bra
torii le
Ġic oane
Ġf Ã¢nt
rie s
AN D
ĠGav ri
ĠP is
ĠRe gina
ĠieÅŁi rea
Ġdator ate
Ġcre an
Ġba calaureat
Ġcau zei
Ġmanife stat
ĠtÃ¢nÄĥ ra
Ġele mentelor
Ġno stal
) )
or are
Ġs mul
tu mesc
ĠÃ®nloc uirea
Ġconvin gerea
Ġteore tic
ĠE ÈĻti
Ġor g
Ġ16 0
ĠBo b
ĠcercetÄĥ torii
b ori
erÄĥ rii
Ġesti meazÄĥ
Ġp atul
Ġdo g
Ġdefini t
ĠplÃ¢n gere
Ġconexi une
Ġnesf Ã¢r
ĠDe j
Ġ7 8
Ġseri al
Ġinsul Äĥ
Ġiub im
Ġpre parat
e v
ç ī
Ġopera torii
Ġbicicle tÄĥ
ĠP od
Ġcin cea
Ġflori le
j unc
o za
ti ti
Ġca ti
ĠapÄĥ ra
Ġsitua tia
Ġscris oarea
ĠÃ®nf rico
ne ws
Ġcomand at
Ġpost urile
ĠMaramure ÅŁ
ĠcÄĥlÄĥ toria
ÈĽion aÈĽi
om ie
ĠD er
ĠRe cun
ĠVoic ulescu
zi vÄĥ
ĠCri stea
ĠIr landa
Ġautobu ze
o ban
Ħ ¢
Ġm ala
Ġspe ct
Ġdis con
Ġint reaga
ĠdepÄĥ ÅŁit
ĠAv ram
Ġfi Å£i
Ã®n cÄĥ
d t
Ġvesti men
ĠPo zi
Ġdeci siv
Ġfier t
ĠdesfÄĥÈĻura rea
âĢ¦âĢ¦ âĢ¦âĢ¦
R Äĥ
sul e
ÅŁ tele
Ġcapi talul
ĠExe cu
ĠpregÄĥti ÈĽi
Ġcontro lat
Ġcoa da
ĠÃ®ncor por
ĠM one
Ġpo ker
Ġs fi
Ġafec ÈĽiuni
Ġechipa j
ĠrÃ¢ ului
tin du
Ġte nului
Ġum bra
ĠSc or
Ġalimente lor
Ġindi rect
Ġbloc ului
Ġelibe ra
äº ¬
Ġnu d
Ġroman ului
Ġcontrac tuale
Ġanim ate
Se verin
Ġd ru
ĠN ova
ĠU ite
Ġac ÈĽioneazÄĥ
Ġmar catÄĥ
ju dic
Ġde oparte
Ġsolu Å£ia
Ġagen ÈĽii
ĠpÄĥrÄĥ si
Ġizbuc nit
Ġinter fa
Ġum il
Ġbo x
Ġu ÈĻi
Po e
ĠYou Tube
ĠB log
Ġl ov
Ġl Ã®ngÄĥ
Ġregi unii
Ñģ Ðº
IV E
Ġizol at
Ġre ÅŁedin
ĠÃ®nsÄĥrcin atÄĥ
ĠGimnazi alÄĥ
Ġsi guri
ĠÈĻti a
Ġde cur
ĠG y
ut y
ÈĻte rea
ĠcomunicÄĥ rii
ĠObie ctivul
s unt
lÄĥ u
din and
Ġocciden tale
ĠâĢ ļ
Ġfi gura
Ġlun are
Ġcalen dari
Ġevre ilor
Ġdisp are
bi rea
Ġmi gran
ĠMode lul
st uri
Ġcu ge
Ġindustri al
Å£e sc
ĠdesfÄĥÅŁura re
Ġpe trea
veni tÄĥ
Ġr Ã®nd
Ġgenera Å£ii
ĠÈļ i
ĠÃ®mpie dica
Ġh d
Ġcar bu
ĠMar tie
ĠgreÈĻe alÄĥ
cti c
ÅŁe f
ĠgrÄĥ dina
Ġde por
Ġcre deam
Ġtex tele
k om
Ġcon feri
Ġro sti
Ġteat rului
ĠOri entul
ĠÃ®mpÄĥ ratului
Ġhran a
Dum neze
Ġv ene
Ġnim Äĥnui
Ġdistribu Å£ie
C red
O V
ĠbÄĥi atul
Ġ rat
si ta
Ġsu melor
Ġapro bare
ĠCh rist
ĠAsia tice
! ,
Ġdesi gnul
Ġlocali tÄĥÈĽi
ĠPic s
Ġnume lui
ĠMun tele
ĠJ iu
Ġprim are
ĠmÄĥ m
Ġprez int
Ġreac ÈĽie
Ġcoti dian
ud ate
ho o
ĠbÄĥie ÈĽi
ĠTransp ort
ĠjudecÄĥ torilor
Ġrenun Å£at
ĠIM M
Ġpo fida
Ġrezisten ÈĽÄĥ
9 2
ĠF re
Ġac Å£iona
Ġdos arele
Ġha bar
ĠN um
Ġsol are
Ġprime j
Ġimpe ca
Ġn icÄĥieri
Ġrespe ctiva
ne lor
Ġparti dÄĥ
Ġconsta ta
Ġex teri
Ġdep arta
Ġum ili
Ġape re
Ġtrimite rea
Ġdeze chili
Ġpo ste
Ġadministra torul
Ġafec Å£iuni
Ġmar cÄĥ
Ġm Ã®
Ġg ea
ĠmÄĥnÄĥsti rii
Ġfi rea
ut ri
ĠbÄĥ tu
Ġba ck
Ġcomp licat
ĠBi t
ĠBÄĥ i
Ġmachia j
Ġangaj are
ĠiniÈĽia tivÄĥ
n ilor
Ġam bal
ĠgÄĥsi tÄĥ
Ġelibe rare
ut Ã¢nd
Ġri gi
ĠCe hia
Ġada ptat
C OM
man ul
Ġgra ÈĽie
Ġaminte ÅŁte
Ġproc ente
ĠspÄĥl are
Ġsec Å£iunea
Ġtre cÃ¢nd
Ġjude Å£e
AN T
ĠLice ului
j it
ÈĽ imea
ĠMi oveni
Ġmerg ea
Ġinsi sten
ĠSof ia
âĢ ĭ
Ġca po
en tarea
Ġar dei
ĠG reu
ĠV il
Ġpsi ho
Ġarun ca
Ġsenza ÈĽia
ĠdÄĥr uit
CLUS IV
ro mÃ¢n
ĠX VI
Ġc ronicÄĥ
ĠFunda Å£ia
u x
Ġfi ului
ĠF en
ĠNo iembrie
ĠMagistra turii
ç ļ
Ġcri mÄĥ
Ġinvesti tori
Ġpriete na
Ġexpri mate
Ġse ver
j el
de ral
Ġex terioarÄĥ
A stÄĥzi
Ġra mane
ĠStu diul
Ġcea pÄĥ
ĠstrÃ¢n sÄĥ
le g
ĠConsili u
o w
ĠcÄĥ su
ĠÃ®n locu
om on
ĠvrÄĥ jma
ĠA ct
ĠF Äĥl
do ar
Ġcer ului
Ġsal veze
Ġdos arului
Ġtelefon ic
ĠÃ®ntreru pe
Ġb Ã¢r
Ġace stia
Ġstrate gice
ĠiniÈĽi at
N Äĥ
Ġ1 01
Ġmin us
Ġexerci ÈĽii
Ġtre bu
Ð¾ ÑĢ
Ġengle za
x it
ĠK en
ĠSi guran
ĠOrdonan Å£a
bi tÄĥ
Ġfii i
Ġdisp lay
ĠChi ri
Ġvie Å£i
Ġe go
ĠÃ®ntÃ¢lni rii
Ġmen Å£ion
Ġob ÈĽinÄĥ
tori ul
ĠEx pres
Ġprelun git
Ġinaugu rat
Ġme ga
ĠÃ®nvÄĥ ÈĽare
Ġsem nele
Ġp ru
Ġcondi tii
Ġpacien Å£i
ĠMuz icÄĥ
Ġ7 3
Ġexp an
Ġplane tÄĥ
Ġma gni
de Å£i
ss o
ĠNo bel
ĠÈĻcol are
ĠfiÈĻ iere
ĠUni t
Ġgra ficÄĥ
ĠCo opera
Ġcru ci
ĠLoc alÄĥ
Ġreac Å£ie
ĠcunoaÅŁte re
Ġ7 1
Ġvin ul
Ġcalcul at
ĠP RI
ĠcunoaÅŁte rea
ĠAmb ele
Ġo ÈĽel
Ġdisp un
Ġpromo veze
ä ¹
ĠFrum os
ĠCon cer
ĠTele vizi
Ġcomp ens
Ġobicei urile
Ġdiferen ÈĽÄĥ
n isa
Ġpe ti
ĠU p
Ġadres atÄĥ
tÄĥ toare
Ġdu bi
d eni
Ġorgan ul
Ġexclu s
ĠAf gan
Ġcere m
Ġprimi re
Ġspe c
ĠRe zer
Ġra tÄĥ
Ġfor Å£e
Ġdesc riere
Ġepis odul
Ġcri tica
Ġcuri os
j ar
n are
Ġci or
ĠlÄĥsa ÈĽi
Ġa spi
Ġvaria zÄĥ
ĠbinecuvÃ¢n tarea
ĠcÃ¢nte ce
ĠA voc
Ġstabili tate
Ġindividu alÄĥ
Ġvolun tar
ĠL ei
Ġexerci ÈĽiu
Ġformul ar
ĠSt ruc
ĠgÄĥz du
ĠÅŁ ofer
Ġconclu zii
Ġinterme di
Ġdeclara ÈĽie
h ari
Ġcer c
Ġcump Äĥr
Ġmateri a
Ġextra tere
Ġbac teri
Ġexecu tate
Ġintelectu ale
ĠE UR
Ġare st
Ġopera torului
ĠprimÄĥ rie
ĠStre et
ÅŁi re
Å£i oase
man Äĥ
ĠE t
gh eazÄĥ
Ġpsihi at
Ġab ro
Ġpor tu
ĠDo ina
ĠStu dio
Ġamenaj at
titu dini
Ġcomis ii
da ritate
ĠIon uÈĽ
ĠdesfÄĥÈĻura te
ĠV ac
ĠVrem ea
i ar
Ġtradi Å£ia
Ġrefu za
ĠÃ®ncura ja
Ã¢ ine
Ġcon cord
Ġne limi
ĠK iev
MA G
ti tul
ĠarÄĥ t
Ġiube ÅŁte
Ġmin or
Ġsimptom ele
Ġare stare
Ġsf Ã¢ntÄĥ
ĠcÃ¢n tec
Ġregi onalÄĥ
ĠRena ult
Ġo men
Ġac om
Ġcele bre
ĠVo da
b la
on ar
ĠS ony
Ġp arÄĥ
Ġur cÄĥ
g rij
za ri
ĠÃ®ncer ci
Ġcol orat
Ġagen Å£ii
Ġreprezenta tive
Ġmese rie
ĠSu c
Ġpi an
Ġantic orup
Ġnegocie ri
Ġexcelen te
G a
a cum
k en
shi p
ĠHol lywood
re na
Ġdep unÄĥ
pl ini
ĠÃ®nde osebi
ĠalÄĥ tura
Ġfra Å£i
Ġtera sÄĥ
Ġdina intea
ĠÃ®n rÄĥ
Ġne muri
Ġiar bÄĥ
Ġplan telor
Ġlider ului
ĠJa va
ĠMana ger
ĠiniÅ£ia tivÄĥ
d rale
ti ta
Ġe ron
mÄĥ rile
Ġcap tiv
Ġavi zul
Ġs he
st ric
Ġvo uÄĥ
ĠAutori tÄĥÅ£ile
Ġcafea ua
Ġgro za
Ġinve ste
ĠBi le
ĠCi oc
Ġstuden Å£ii
Ġfrance ze
ĠAb sol
Zi ua
ĠsÄĥ ru
lat ina
ĠMo bile
ĠStati sticÄĥ
s la
Ġpoe tului
ĠdepÄĥ ÈĻit
Ġselec tate
ori ilor
Ġconta bil
Ġcomb inÄĥ
Ġve chea
fic ii
Ġcrea Å£ie
Ġaplica Å£ii
ĠDe cre
Ġtradi ÈĽional
Ġpla sa
ic on
Ġz von
Ġtranda fi
C ri
Ġcaracteri zeazÄĥ
Ġlice ului
j eni
u ze
Ġspeci alizatÄĥ
ĠImpor tant
t one
Ġda scÄĥ
Ġteren urilor
ĠfÄĥce am
lic area
ĠÃ®nce tarea
Ġidenti ficÄĥ
Ġrecunos cutÄĥ
Ġampla sat
Ġc ilind
Ġde la
ĠrÃ¢nd urile
Ġpacien ÈĽii
Ġvo tului
ote i
gure anu
ĠO li
aliz aÈĽi
Ġinter vine
ĠComp an
ĠfÄĥcu se
Ġinstan Å£ei
ĠProgra m
Ġmunci tori
Ġo sti
tÄĥ rilor
ĠTi be
ĠProtec Å£ia
Ġfolc lor
Ġval u
Ġdipl ome
UB L
Ġbun icii
Ġsur sele
Ġadministra Å£ie
le an
C ent
Ġmateri alului
Ġfab ri
p tarea
tÄĥ torii
Ġcere rile
Ġcaracteri sticÄĥ
Ø§ Ø
Ġcele bru
Ġvie tii
Ġe dil
Ġdezbate rea
Ġfunc Å£iei
Ġpreci zaÅ£i
Ġtotu si
Ġautostra dÄĥ
S I
ÈĽi ul
Ġpre mat
ni Å£a
ĠÄĥ ia
Ġfor ÈĽele
ĠÃ®nscrie rea
ca ri
ĠMul ti
Ġcorpor alÄĥ
Ar tic
ĠCon curen
ĠO R
Ġinterzi se
Ġope reazÄĥ
Ġprofes ie
ĠurmÄĥri rea
Ġim un
ali u
Ġfabrica te
Ġh ome
Ġdispozi Å£iilor
zÄĥ torul
Ġnici decum
Ġcite ÈĻti
Ġadmini strat
Ġja zz
ĠSupra veghe
gra me
ĠÃ®ncer ce
Ġcalcul atoare
ĠSu ce
ban os
Ġangaj eazÄĥ
fÄĥ cut
Ġbiro cra
ĠbÄĥrba Å£ii
ĠstÄĥpÃ¢n i
Ġpis ici
Ġjuma tate
Ġlegi tim
Ġevent uale
ĠÃ®ncep Äĥ
ĠFe min
ĠInter ven
li tÄĥ
Ġopera torul
ia ÈĽi
g la
Ġevi te
Ġdoc torul
Ġrecru tare
d oi
ĠO ctombrie
Ġata cul
Ġstic la
Ġflo area
Ġinevi tabil
ĠN ok
ĠÃ®ndrep tat
ĠDrep tul
ĠPatriarh ul
ĠS k
Ġsan at
Ġstruc turii
Ġofi Å£e
Ġcop t
ĠUniversit y
ĠA men
Ġa be
ĠUN ESCO
P O
Ġ7 4
ĠgrÄĥ madÄĥ
ĠP in
ĠPo po
il at
Ġpara dox
Ġacc entul
Ġcerin Å£ele
Ġtole ran
Ġ( "
ĠPetre scu
ia de
Ġpre judic
ĠÃ®mbrÄĥ cÄĥminte
Ġci berne
Ġopti mÄĥ
ĠWillia m
ĠS ky
Ġiubi ta
Ġfuse serÄĥ
Ġofer indu
Ġvicti melor
Ġturi smului
Ġplane tei
ĠprimÄĥ ria
Ġviolen t
Ġpagin ii
Ġpropo vÄĥ
Ã®n tului
gii lor
ĠÃ®mprej uri
ĠAfgan istan
Ġpeisa jul
ÈĽion eze
Ġpericol ul
Ġtimp urile
cÄĥ dere
ĠcumpÄĥ rare
cic lope
Ġiubi tul
ĠTi p
zat oare
Ġmu sa
Ġalco olice
ĠbÄĥu turÄĥ
Ġorganiza ÈĽie
Ġraspun s
Ġle pÄĥ
A B
Ġven eau
Ġinter veni
ĠT an
ĠÃ®nmatricul are
Ġcertific atul
ĠÃ®nfÄĥ Å£iÅŁ
ĠdÄĥ ru
ĠfrÄĥ mÃ¢n
a de
ĠOb serv
Ġproprie tÄĥÈĽi
Ġretra gere
ĠC inci
om ul
Ġso si
Ġimen sÄĥ
gan ul
Ġfurniz orii
Ġdes f
Ġadministra ÈĽia
Ġprofes orului
ĠD ana
Ġpo dul
ĠmÄĥnÃ¢n ci
çļ Ħ
Ġveni te
ap oi
Ġc enti
ĠO ut
ĠRe cent
Ġcri sta
ĠIul i
Ġamp lu
Ġpotri v
Ġorien tare
Ġau x
tic eni
Ġcada v
9 8
ti ona
ĠEx celen
Ġaccep tarea
Ġrepl icÄĥ
Ġco tÄĥ
ĠU lei
ĠbÄĥrbat ului
Ġsco ala
ĠPo stul
Ġcali ficarea
ĠBÄĥie ÈĽi
ĠcÄĥ dea
Ġpu rÄĥ
tra re
ĠPa gina
Ġvicti mÄĥ
H E
te s
Ġpa sionat
Ġuni tÄĥÅ£ilor
ĠÃ®nfiin Å£at
p atÄĥ
ĠD ro
ut h
Ġprodu sÄĥ
Ġpreven tivÄĥ
Ġexp lice
Ġfolo seÈĻti
Ġho ta
ĠgÄĥsi Å£i
Ġmi re
ĠCer na
ĠdesfÄĥÈĻura re
Ġpro stitu
ĠÃ®nt ri
ĠCa s
ĠrÃ¢ v
Ġconcer tul
Ġnop ÈĽii
u rea
ĠadevÄĥ ratul
Ġa stro
hi p
ĠCon f
imin ea
ĠĠĠĠ ĠĠĠĠ
Ġ8 2
ĠMÄĥ dÄĥ
Ġexpozi ÈĽie
Ġadres ate
ĠÃ®ngro zi
ce au
Ġre view
ĠFer dinand
Ġl Äĥr
ĠpÄĥrÄĥ seascÄĥ
ĠDi feren
Ġucra in
Ġlar gi
cani ce
Ġo coli
Ġfap tÄĥ
ris mului
P RES
ĠÃ® si
Ġ9 8
Ġtrimis Äĥ
Ġexper ÈĽi
Ġaband onat
ispre zece
ĠbÄĥ tr
bo ard
ĮĹ äº¬
Ġtradi Å£ional
Ġma stur
Ġi ron
Ġpolitici le
Ġtempor arÄĥ
d ri
Ġf rom
ĠM ele
Ġesti mat
Ġlim bile
Ġvicti mele
Ġsprijini t
Ġte stare
ÈĽe sc
ĠÈĺti inÈĽe
Ġprop ul
Ġgaran tat
rid ge
x ana
Ġvizi tei
Ġlic enÅ£Äĥ
Ġinstru mentele
Ġchine z
ĠmoÅŁte ni
Ġla gÄĥ
Ġsovie tic
Ġdim ine
ĠP R
Ġcine ma
ĠWe st
ĠvÃ¢nÄĥ toare
ĠRich ard
Â ¬
tu dine
Ġpre de
Ġimpresion ant
ta Å£ia
ĠâĢ ĭ
Ġz od
Ġdura bilÄĥ
Ġintensi tate
Ġca tal
ĠL os
Ġachizi ÈĽie
ĠhrÄĥ ni
Ġtransfe rat
ĠClin ic
ĠD IN
ĠUni re
Ġgrup urile
Ġe cu
ĠFisc al
ĠAntre n
S al
vi sion
ĠurmÄĥri rii
Ġdispu tat
Ġde fav
tor y
ĠSc ris
Ġinfrac Å£iunii
Ġ( +
be ÅŁte
ĠÅŀti inÅ£e
Ġlate rale
Ġbu zele
Ġexperi ment
Ġachi tat
IC A
ĠTe m
Ġcondam nÄĥ
Ġran g
Ġna Å£ion
Ġcole cÈĽia
Ġfurniz eazÄĥ
Ð½ Ñĭ
Ġream in
Ġp ne
Ġau die
ĠSil viu
Ġprogra mate
ĠEconom ice
N ic
ĠAu re
ĠP rut
ran ja
ĠDis cu
ĠÃ®ncuraj eazÄĥ
Ġpl ini
Ġtrans mitÄĥ
E ST
ĠÃ®n ÈĻe
Ġper pe
Ġcondi ÈĽiilor
g am
ĠD ub
Ġprop usÄĥ
Ġru rale
Ġaverti zeazÄĥ
Ġfotb alist
Ġanve lope
g oni
Ġmon tat
ĠMon um
ĠsÄĥrbÄĥ torilor
Ġdemocra tice
ĠPracti cÄĥ
ĠElisa beta
ĠÃ®mp uÅŁ
Ġbi r
Ġrezi sta
Ġoficial ii
ĠC lip
sp ort
Ġstru guri
d d
Ġli ke
Ġargum ent
ĠÃ®ncep i
ric k
Ġaten tÄĥ
Ġnea mul
ĠDunÄĥ rea
Ù Ī
Ġniciun ul
Ġproveni te
Ġinf ini
ĠS talin
ĠgÄĥ tit
ĠmaÈĻ inii
ĠPers on
jun s
Ġcal m
ĠLu do
Ġmunci t
Ġinse raÅ£i
rat on
ria c
Ġinfrac ÈĽiuni
Ġsimb olul
Ġtut un
stra da
Ġdep un
Ġmil osti
t to
ÈĻ el
ĠC M
Ġre stan
Ġinten Å£ia
Ġstre sul
al ia
Ġpri sma
ĠCel sius
ĠCole ctiv
ĠUlti mul
ĠcÄĥ ile
du se
stÄĥ rile
Ġti mb
Ġcrea tiv
b ene
ĠY a
ĠÃ®nfiin ÈĽarea
ĠI mo
Ġamen d
lici tate
Ġanaliz eazÄĥ
Ġneb unie
ĠpÄĥ zi
Ġo dini
Ġjusti Å£ie
Ġpreziden Å£iale
ĠproducÄĥ torul
ĠDe z
ĠBi r
Ġnea ÈĻte
Ġconvin gÄĥ
ĠmulÈĽ umit
ĠB BC
Ġinter vinÄĥ
ĠTe od
Ġno ri
ĠMa cedon
Ġfe dera
Ġautori tÄĥÅ£i
ĠtabÄĥ rÄĥ
Ġz u
Ġurb anÄĥ
Ġier tare
Ġseri alul
Ġsurprin zÄĥtor
Î µ
ĠC lÄĥ
ĠExe mp
9 6
Ġperioa dele
Ġdom e
ĠhotÄĥr Ã®
ĠmaÈĻ inile
Ġrezisten Å£Äĥ
Ġdetermin area
ĠpurtÄĥ tor
c rea
st riei
gu a
âĢĻ .
ĠAv ra
il d
Ġco ÅŁ
Ä ±
Ġconcent rat
Ġpacien ÈĽi
Ġsf atul
Ġanun ÈĽ
Ġtit lului
Ġavoc atul
Ġvalor oase
ĠMul t
Ġcomp u
Ġprin dÄĥ
Ġdiver tisment
Ġreprez inte
Ġdirec ÈĽie
ĠrugÄĥci unile
Ġepis oade
ĠmÃ¢nd rie
Ġangaja ÈĽilor
Ġdob Ã¢nd
ĠÃ®ndelung atÄĥ
j ob
ĠS chi
Ġdepres ie
Ġchesti uni
ĠnaÅŁte rea
Ġcance rul
ĠAmat or
Ġpa stor
Ġrela ÈĽiilor
Ñ Ĩ
Ġdrum urilor
ali ste
Ġregi strul
ĠSto ica
Ġstabi leascÄĥ
ĠMo ÅŁ
ĠCre an
ĠPat rimoni
ĠFinan ÈĽelor
Ġtra ducerea
Ġpetrece ri
ĠMe hedin
ĠNic hi
ĠH id
min tea
Ġedi tura
Ġaro ma
ÈĽion ar
ĠRÄĥ mÃ¢ne
Ã¢n dit
Ġin ex
ĠCon tro
ĠG ran
ĠvÄĥ zutÄĥ
Ġore z
ĠAt lan
Ġexisten Å£Äĥ
Ġgaran ÈĽie
ĠFel ici
a scÄĥ
ĠNi k
Ġet no
Ġresta bili
ĠMaramure ÈĻ
tic ule
Ġresponsa bile
ĠrugÄĥci uni
Ġexcurs ie
b ului
Ġo li
ĠF arma
ÈĽÄĥ rii
Ġmuscul are
ĠCi ob
ĠAn ghel
ĠHar ghita
ĠaÈĻtepta ÈĽi
ie rele
Ġo data
Ġver te
Ġcomite rea
ĠÃ®ndepline sc
ĠFotograf ii
u k
Ġcomi se
ĠdiscutÄĥ m
Ġesti matÄĥ
ĠMij lociu
! ),
Ġde odatÄĥ
ĠCon clu
te h
Ġinclu zÃ¢nd
ĠlÄĥ ca
Ġstuden Å£ilor
Ġplat forme
t v
Ġuni tÄĥÈĽile
Ġpe lic
ĠÃ®ndrÄĥgo stit
b ona
ĠCom entariile
Ġinven ta
Ġvoluntari at
ĠLa s
rita nice
Ġpo dea
Ġpa zÄĥ
ĠuÅŁ Äĥ
ĠAmbasa da
ĠMulÈĽ umesc
c anu
Ġl atura
Ġspeciali ÈĻtii
Ġtrimite re
Ġe m
ĠÅŀ tiu
ĠmÃ¢n cÄĥ
ĠconsiderÄĥ m
Ġtable tÄĥ
Ġpar ÈĽial
Ġinstitu Å£ia
Ġstom at
vo dari
ĠPre gÄĥ
Ġangaj ator
Ġcalcul atorul
Ġdo tarea
Ġme tru
Ġferea stra
al th
ĠSf antul
zÄĥ re
Ġpa sti
Ġpolitici an
ĠsusÅ£in utÄĥ
Ġc rÄĥ
ĠI D
Ġru ÅŁine
Ġefec telor
Ġren ov
ĠFiind cÄĥ
Ġde cursul
ĠMa e
Ġru ÅŁi
Ġtri um
Ġsex u
ĠÃ®nÈĽele p
Ġsunte ti
ĠProdu sul
ĠH OT
Ġhi po
Ġfa cute
urn al
Ġtur c
Ġsla vÄĥ
Ġcolec tarea
g enera
Ġavanta jul
Ġcabine t
Ġreve la
Ġpor tul
Ġ8 4
Ġnega tivÄĥ
Ġsom nul
A G
ĠInte gra
Ġcardi ova
tin gul
Ġfinan Å£area
Ġmetod ologice
ĠA tena
Ġanti se
ĠdepÄĥ ÅŁeÅŁte
Ð¾Ð ´
Ġpro mp
Ġmo le
ĠAu g
Ġrenun ÈĽat
Ġasi stat
ĠuÈĻ Äĥ
L OR
U r
Ġve stea
ĠAnd re
ĠstrÃ¢n ge
199 0
Ġportof oliul
Ġpompie ri
ĠgÃ¢nd eam
ĠMul Å£
Ġâ Ĺ
ĠR ose
man te
Ġcrede Å£i
Å¢ I
Ġeval ua
re en
oc ii
ĠJ uni
Å£ eni
Ġ ]
Ġre cipi
ĠA banos
Ġmen stru
Ġprefe ratÄĥ
ĠIndu strie
Ġdestul e
Ġprofi ta
ici u
Ġartic ul
ĠCent rale
ĠÃ®ncon jurat
oc au
ĠfÄĥ gÄĥ
Ġzi are
Ġpa stra
Ġru de
Ġcur ge
ĠÃ®mb inÄĥ
Ġcrea ÈĽie
ĠMil ano
! âĢľ
ĠSe cÅ£ia
cri tice
ĠexecutÄĥ rii
Ġe s
ÅŁ trii
for mele
ĠH ua
Ġatin gÄĥ
ĠL ans
ĠÃ®mp lin
ome tru
Ð¾Ð ¼
ĠHit ler
ĠSa int
Ġinstan tane
Ġpresup un
ĠdÃ¢n sul
Ġfond ului
Ġveri ficat
Ġta bere
Ġv ale
pen sa
Ġvizita torii
Ġadap tate
ĠDomniÈĻ oarÄĥ
, âĢĿ
Ġre des
ĠB oli
Ġadul Å£i
im ul
Ġdi alogul
Ġdirec Å£ie
ĠRegi onale
Ġpresedin te
ĠsfÄĥ tui
ĠCÄĥlÄĥra ÈĻi
Å£ ene
Ġne v
ĠCine ma
ĠI rak
Ġdiferi tele
Ġspeciali ÅŁtii
Ġbile tele
ĠcÄĥutÄĥ m
to arce
ĠDe ja
Ġreu ÅŁeÅŁte
Ġ198 0
Ġipo sta
Ġso sirea
Ġtrecut ului
ĠInterna ÈĽionalÄĥ
ĠÃİnvÄĥ Å£Äĥ
Ġalar mÄĥ
ĠTimis oara
Ġde Å£inÄĥ
con tra
Ġag ric
Ġrepe ti
Ġimpresion antÄĥ
Ġstabile ÈĻte
en ÈĽii
ĠIn stan
Ã¾ i
c ola
ta ile
er va
ĠCa ran
Ġcaz ului
ĠEx ista
Ġadministra tivÄĥ
Ġmateri alÄĥ
Ġare sta
ĠMi tropol
ĠAv eam
Ġcen u
Ġautoh ton
Ġh Äĥ
ĠdÄĥr Ã¢
Ġmanu ale
Ġamenaj ate
ctive le
Ġconse cu
Ġcomenta riile
ĠsÄĥ rit
Ġva gin
Ġop ÈĽiunea
Ġten siunea
ĠjudecÄĥ torii
ĠDrÄĥ gu
ĠjudeÈĽ ene
Ġvo u
Ġteat rul
Ġpetrea cÄĥ
ĠCon ducerea
ĠAme rican
Ġmas ini
ĠA ward
Ġfe stivalul
IC AT
Ġdiscip linÄĥ
Ġp ate
Ġimp lice
Ġce ruri
Ġper mise
Ġev la
ÈĽ eascÄĥ
Ġ9 2
Ġdocum entului
Ġcoc os
Ġcreste rea
Ġ ÄĤ
Ġautori zate
Ġextin sÄĥ
Ġparlamen tarÄĥ
Ġdec lin
Ġin formÄĥ
Ġte mele
ĠCons erv
Ġec ologice
Ġ Å£ie
le z
Ġcampion atul
ta jul
Ġcu rate
ali tÄĥÅ£i
ficÄĥ rile
Ġgaz dÄĥ
Ġfarma ceu
Ġcontro vers
? )
A vem
Ġpolitic ilor
Ġcoordon at
t ti
Ġarti stului
ĠgÄĥz dui
tri ce
Ġdi ferÄĥ
Ġtehn ologice
Ġag entul
Ġpri cepe
ĠÃ®nsÄĥ ÈĻi
Ġsensi bile
Ñ Ī
chi ar
Ġdeplas area
Ġevre ii
ĠparticipÄĥ rii
ĠE N
Ġcopil a
ĠIa ta
ĠsÄĥ ptÄĥm
Ġcol ÈĽ
Ġsu pusÄĥ
fect ului
fe i
Ġstri cÄĥ
Ġdeclan ÈĻ
ore scu
comi tent
Ġcomen zii
e ra
Ġconcep ute
Ġconfir marea
t n
Ġpar in
ĠAr ta
Ġ8 1
Ġsin tag
Ġcon cu
Ġtele specta
Ġcondi ÈĽia
Ġconsultan ÈĽÄĥ
f ron
Ġopti me
ĠDa cian
Ġsupraveghe rea
Ġtransform are
ĠM arte
Ġangaja Å£ilor
ĠpÄĥtrun s
mÄĥ rii
ĠU SD
Ġpic tura
ĠTrans ni
Ġgrea cÄĥ
Ġte stul
Ġat le
ĠrÄĥni Å£i
z n
ui s
ĠS na
ĠO cu
Ġeta pei
o zÄĥ
Ġcla sat
Ġfe ri
ĠCara giale
ĠFlori an
Ġari pi
Ġdul ap
ĠsusÈĽin utÄĥ
Ġvege tale
Ġbule vardul
Ġseg ment
s ort
Ġp len
Ġparticip ant
cti uni
Ġjude ÈĽean
ĠPre sedin
Ġalege ÈĽi
ĠÃ®nÅ£ele gerea
ĠMon tanÄĥ
lis h
ĠOlim pice
ul ung
Ġin stitui
Ġdo v
ĠRÄĥ dÄĥ
J u
ura te
Ġf une
Ġcea suri
Ġge stul
ICI AL
Ġorganiza Å£ie
Ġsucces ului
Ġcelorlal ÈĽi
ĠcreÈĻ tine
ĠCru cea
Ġamplas ate
Ġcircui tul
Ġto varÄĥ
Ġedi Å£ii
Ġciti torilor
ĠsÄĥrbÄĥtori t
Ġaverti zat
Ġobo sit
â Ħ¢
ĠV lÄĥ
Ġmar tori
Ġfi rul
vi ous
Ġalimenta rÄĥ
9 3
stre zi
Ġmeni u
ĠÃİn cepe
Ġdis puse
Ġe se
Ġca uzat
ĠAnd r
Ġbate rie
e di
Ġau stria
Ġalb umul
ĠadÄĥu gatÄĥ
Ġstruc turilor
Ġsecuri tÄĥÅ£ii
Ġbra z
Ġsovie tice
guvern amentale
ĠEle ctor
Ġwi reless
Ġim buna
Ġpriete nÄĥ
Ġcorup ÈĽie
Ġg ine
Ġmen Å£ioneazÄĥ
ĠCop iilor
Ġintamp la
Ġgla sul
e sc
Ġla ÈĻi
Ġcomp usÄĥ
ĠasigurÄĥ rii
Ġaf is
Ġore lor
ĠÃ®nso Å£it
B Äĥ
l op
Ġcuren tÄĥ
f iz
Ġsitua ÈĽiei
G he
ĠP UBL
ĠÃ®ntreÅ£ine re
ĠD V
Ġiubi tÄĥ
ĠmÄĥr ci
ĠMani fe
p lÄĥ
ĠsusÈĽine re
Ðµ ÑĤ
Ġnecon di
ĠPute Å£i
Ġdege tele
Ġdiploma tice
Ġp eni
ne ul
rea sfin
Ġmul tina
ĠFam il
Ġre ÈĽin
ĠD ul
Ġfond at
Ġmunicipi u
Ġbra ÈĽe
Ġbenefici ul
ÅŁ ea
ĠJude Å£ul
Ġtelef oanele
Ġformul ate
ĠclÄĥdi rile
cu rea
Ġa sp
ĠcÄĥ ma
tic s
ĠNici un
ĠgreÅŁe alÄĥ
h t
Ġcondi Å£ionat
Ġparticip ante
ĠÃ®nchi riere
Ġaprin s
Ġgl umÄĥ
ĠpregÄĥti Å£i
Ġinferi oarÄĥ
Ġsenz ori
Ġspe cula
Ġcomen tat
Ġjapone z
ĠImperi ul
Con s
Ġaminti rea
ĠG ara
Ġcin stea
ia Å£i
ĠCon gresul
ĠplÄĥ cute
Ġscand alul
che telor
Ġciti tor
Ġfal sÄĥ
Ġimportan ÈĽi
ĠclÄĥdi rilor
ENT RU
gÄĥ torii
Ġcanti tÄĥÅ£i
Ġo i
Ġfrumuse ÈĽe
Ġmem ori
å ±
Ġm all
Ġcump a
Ġgaz da
ĠF iz
Ġeventu alele
Ġvre Å£i
Ġcrede ÈĽi
Ġvie ÈĽi
Ġextre mi
Ġaminti re
ĠFedera ÈĽiei
Ġdori tÄĥ
P ub
ç ł
Ġvo teze
Ġsoli dari
iel d
ĠSlo bo
ĠPorno grafie
me l
Ġsp art
ĠInterna Å£ionalÄĥ
Ġdormi tor
Ġcondu se
H r
Ġde semna
ĠBa dea
Ġsate lit
ĠcreÈĻte rii
ĠrÄĥspuns urile
ĠEti chete
Ġae rian
v ard
si tor
Ġier nii
ĠFacul tÄĥÅ£ii
Ġincom ple
Ġren ume
ĠMedic ii
Ġsfar situl
ĠE li
ĠPeri oada
Ġsec toare
ĠadÃ¢nc ime
Ġcuan tu
ci pe
Ġdra gÄĥ
Ġautoturi smul
Ġmira cul
Ġo trÄĥ
Ġse ctiunea
ĠM ala
Ġver siuni
ĠS and
ĠM C
ÅŁi rii
Ġac Å£iunii
ĠmÄĥr turii
ina rii
ĠcÃ® ÅŁti
Ġco sti
Ġlimi tate
ĠÃ®n mÃ¢n
Ġcontro leazÄĥ
de mice
Ġobicei ul
paci tatea
Ġmod ule
Ġorganiza ÈĽiei
Ġascun sÄĥ
ĠScrii torilor
Ġexerci tÄĥ
ĠAcord ului
ĠLesbi an
b ea
Ġmun cesc
Ġfond ator
ĠM icÄĥ
ĠT ren
Ġaface rii
Ġcrimin al
ĠProtec ÈĽia
ĠRecom and
ĠIngredi ente
Ġz iari
Ġpat uri
ĠMo tor
ĠPoli tehn
Ġdeclara Å£ia
ĠRegi unea
ĠÃ®nte mei
. âĢĿ,
Ñ İ
Ġci tim
Ġcic lu
Ġm ila
Ġpu sti
Ġri gu
ĠÃ®nsem nÄĥ
Ġexac tÄĥ
å Ī
Èĺ i
ĠVir gil
Ã¢ ta
Ġnim e
Ġprovoc ate
Ġtransmis Äĥ
Ġacelor a
ĠCh an
Ġcau ciuc
ĠÃ®ngriji ri
ic li
ĠieÈĻi re
ĠmÄĥnÄĥsti rea
p tatÄĥ
ĠÃ®n se
Ġvede te
Ġinferi or
F C
bili are
Ġasi sta
Ġstri gat
z en
sp a
ĠconducÄĥ tor
ĠlÄĥsa Å£i
Ġomor Ã¢t
Ġun ica
Ġne si
ĠFin landa
æ ĸ
Ġexam ene
Ġsupor ta
Ġministe rului
gan i
ĠUtiliz area
Ġb atÄĥ
Ġcomuni tar
Ġpa ste
ĠÃ®ngrij orÄĥ
ĠÃ®ntoarce rea
ĠC ola
ĠPa ci
ÈĽi os
Ġpere chi
A nul
V o
Ġexpl oata
Ġbiserici le
Ġpun Ã¢nd
ĠvÃ¢n tului
Ġtablo u
Ġpsihi ce
Ġcunoa ste
ĠDrag omir
Ġchesti e
ĠOF ICIAL
h ol
.. ]
ĠGrigo rie
c and
Ġi ra
Ġmin Å£ii
Ġrezer ve
ĠGrin deanu
ri us
Ġma g
ĠmiÅŁ carea
Ġsta gi
Ġru dele
Ġga me
Ġanaliz ate
Ġavent uri
Ġinspira ÈĽie
k t
ĠS latina
Ġmi rare
Ġpor um
Ġjusti ÈĽie
Ġfrag mente
Ġsapta mana
ĠUnite d
ĠpÄĥcÄĥ to
Ġexpri me
Ġcandida ÈĽi
ĠFÄĥl ticeni
ta ni
st op
ĠLi fe
Ġiube ÈĻte
Ġemb le
Ġmor ÈĽii
Ġbu curi
ci tÄĥ
ori s
D an
ÈĻi a
Ġdin totdeauna
Ġne credin
Ġadec vatÄĥ
ĠSina ia
Ġneg ocia
U Z
a g
da bil
Ġacoperi rea
ĠCÃ¢ te
Ġreuni t
ĠDem ocra
bÄĥ tu
ĠMan ole
9 1
Ġsoc o
Ġfotbal ului
Ġpatrimoni u
Ġodini oarÄĥ
å ¿
Ġsu pÄĥrat
ĠIn fo
Ġtre zesc
Ġresp on
Ġconta ctul
ĠTine rii
Ġprim arÄĥ
ĠInforma Å£ii
ĠpÄĥtr unde
Ã¢mbÄĥ ta
Ġgra fic
vor bi
Ġimplic atÄĥ
Ġstadi on
ĠO rÄĥ
Ġsol ar
tali tate
ĠTeh nic
Ġfo stei
Ġcontrol atÄĥ
Ġpotri veÈĻte
ili an
Ġreprezen tare
Ġcore cti
P N
ĠsÄĥnÄĥ to
ĠPartene ri
Ġexisten t
Ġin al
Ġcampion atului
Ġs teri
ĠVasile scu
Ġspe riat
Ġexerci Å£iu
Ġconsil ierul
Ġdemni tate
Ġcinemat ograf
B O
g Ã¢ndu
ĠrÄĥspun derea
Ġinfluen ÈĽÄĥ
ĠPen siunea
ĠFun dul
tea sca
Ġnecunos cute
Ġtramva i
ĠL G
Ġpre scrip
ĠÅŁedin Å£ei
dea scÄĥ
Ġsc al
Ġin vali
iz Ã¢nd
ĠW ord
is n
ili ul
vi tÄĥ
Ġextre mÄĥ
Ġdescri se
S port
gat ului
Ġic on
for mi
ĠRom ane
Ġvo inÅ£a
Ġiubi torii
ĠneÃ®n ce
ĠuÅŁur inÅ£Äĥ
Ġcan alul
ĠMic hel
j er
ĠSe ptembrie
Ġcri me
Ġexecu Å£ie
Ġparticipan ÈĽilor
Ge orge
Ġluc rezi
ĠÐ½ Ð°
Ġinvi zi
Ġcu b
Ġun d
ĠB d
ĠgÃ¢nd eascÄĥ
ro me
Ġ8 8
Ġdisponi bilitatea
z nice
Ġlun ga
Ġinf init
Ġbenefic ieze
ĠAgen ÈĽiei
ĠdeÈĻe urilor
Ġsa i
Ġad verse
ĠDivi zia
ĠTem pera
Ġextra s
Ġlat in
ĠIn tro
Ġregul ilor
M E
C ele
ĠDa y
Ġ194 8
Ġcone cta
ĠW ww
s ic
Ġnou tate
Ġdia critice
Ġaccep tate
Ġa uri
ba ri
Ġam ar
ĠbÄĥtrÃ¢n ul
Ġbut on
ĠtabÄĥ ra
Ġcompen sa
ĠK an
k an
ĠF urn
ali tÄĥÈĽi
AR T
ĠTatÄĥ lui
p tare
lÄĥ n
Ġisra eli
Ġv s
Ġv ro
Ġmar fÄĥ
ĠgÄĥ seÅŁti
ĠNok ia
vÄĥ m
Ġuni tÄĥÈĽii
ĠPre fec
ĠSol ici
Ġprejudici u
ĠMatrimoni alÄĥ
ĠFi ului
Ġacti une
7 00
E st
ÈĻe scu
Ġprima ri
Ġexecu ÈĽie
p Ã¢nÄĥ
Ġma sive
ĠS ul
Ġsp alÄĥ
ĠDe zbate
ĠpÃ¢ inea
B I
Ġdisp ar
Ġlovi turi
ĠconducÄĥ torul
Ġco boarÄĥ
Ġsin cron
Ġciti ÈĽi
Ġulei uri
Ġt Ã¢n
ĠP CR
Ġparti dei
Ġmelo dii
cti une
ĠFran ÈĽei
AL DE
Ġco s
ona j
Ġsuge sti
Ġsil ue
p oate
ti za
ĠRege lui
ĠS ani
ĠCa sÄĥ
ĠgÄĥ s
Ġefor turilor
ĠPute rea
ma ta
Ġelibe reazÄĥ
Ġconflic tul
Ġfund amentalÄĥ
æĹ¶ æĹ¶
Ġfeed back
ĠC C
pe dia
Ġmor ÈĽi
Ġinsta lare
Ġaux ili
Ġnea ÅŁte
Ġspe rie
ĠFran Å£ei
ĠMesa jul
Ġopin iile
Ġro stit
Ġcau ta
Ġcar ton
Ġtradi ÈĽionalÄĥ
Ġopin iei
ĠVitea zul
me mb
Ġve ci
Ġcite ÈĻte
ÈĽi rea
Ġcoopera rea
Ġdemon streze
Ġate stÄĥ
Ã¼ r
ĠsÄĥrÄĥ cie
Ġre ÈĻedin
Ġdo za
Ġparticipan Å£ii
st rei
Ġsele ctaÈĽi
ĠcÄĥ rÄĥmi
Ġpoli Å£iei
Ġregul amentul
Ġconflic te
ĠvÄĥ zute
ĠAD N
Ġb are
ĠÐ ¼
Ġcompeti ÈĽiei
ĠImperi ului
Ġdra matic
su rat
ĠbucÄĥtÄĥ ria
Ġadmini streazÄĥ
Ã Ħ
ÈĽ eni
du rÄĥ
Ġora sul
Ġfrance zi
c os
ar hi
ĠInte res
Ġfavora bile
ĠR AM
Ġe vanghel
vel op
ĠbÄĥn cii
ĠC ante
ĠcumpÄĥ rate
æĹ¶æĹ¶ å½©
9 7
Ġde Å£inut
Ġsal on
ĠjucÄĥ torilor
Ġgene ros
Ġlocali tÄĥÅ£ile
ĠCasa Å£ie
Ġf urÄĥ
ic ale
Ġli re
Ġdomn iei
ĠE L
Ġdiferen Å£Äĥ
ĠCer nÄĥ
Ġtempera turile
Ġvecin ii
Ġabon ament
Ġsitua ÈĽiile
Ġarti ficialÄĥ
ĠMic ro
Ġbi ologice
Ġv on
Ġbine Ã®nÈĽeles
Ġpsih ic
Ġvinde carea
Ġdate azÄĥ
to xi
ĠV iz
D oamne
Ġde pa
Ġsp len
Ġinten se
Ġconsul ta
C or
ĠÃ®n ÈĻi
Ġexpozi Å£ie
Ġc ronice
ni Å£Äĥ
Ġdra ma
Ġdetal iate
Ġpsih ologic
Ġpetrece rea
Ġdemers urile
Ġconsili ul
ĠEX CLUSIV
ĠI ord
Ġle mne
Ġdom nia
Ġspani ol
Ġa mi
Ġne pri
Ġ3 60
gra ficÄĥ
Ġsoli d
Ġinclu sÄĥ
Ġfolosi Å£i
Ġplas ate
ĠNo tÄĥ
Ġde st
âĢĿ -
ĠSea ra
ĠDe ocamdatÄĥ
tp reasfin
gÄĥ rii
ĠSe zonul
ĠZ o
Ġexperien Å£e
ĠpoveÈĻti le
Ġasoci atÄĥ
Ġar mate
ĠO s
å ¼
Ġinvesti ÈĽie
ĠÃ®mpÄĥ rat
Ġza dar
ĠA ler
Ġâ Ļ
G A
Ġb bw
ĠS el
UL T
h on
Ġpre le
Ġmun tele
Ġsolici tare
ĠSec torul
ĠAcord ul
Ġfor Å£ei
Ġ9 6
Ġ ron
Ġf oaie
ĠDe ta
Ġhra mul
ĠÃ®nc Ã®t
ola ta
Ġsuferin Å£Äĥ
ĠÃİ Å£i
Ġface ti
ĠSte fan
ĠTran ny
Bu cure
S cri
n area
Ġs and
imi tate
Ġconta bile
Ġfacili ta
Ġsperan Å£Äĥ
ĠMitropoli tul
Ġlo gic
Ġunivers alÄĥ
Ġspani olÄĥ
Ù Ĩ
or ghe
ĠA ri
Ġad ver
Ġvi se
Ġpur tate
Ġd il
in Ã¢nd
ste d
Ġfu g
Ġechilib rat
ÈĽi ÈĽi
ĠSibi ului
terni tate
Ġju rÄĥ
ĠÃ®nc lin
Ġcuprin sul
Ġdimin u
Ġconcent rare
Ġsurpri za
ĠasigurÄĥ rilor
ĠGol d
Alex andru
ĠP ENTRU
ĠOrdin ului
èµ Ľ
T R
ĠS ome
Ġacadem ic
Ġpre fa
Ġmodi ficate
ĠGa ze
Ġbran dul
Ġcreativi tatea
Ġin registra
Ġfolo seste
Ġcontra ban
ĠlucrÄĥ m
Ġriscu rilor
Ġal u
Ġinten Å£ioneazÄĥ
ĠCiob anu
ro man
Ġsub iectele
ĠK rem
ĠÃ®nde lun
Ġlup tei
Ġbran duri
ĠEvalu area
Ġc ti
ÈĻ uri
Ġla sat
ĠR are
Ġexp on
ti anu
Ġopera Å£iuni
Ġperforman te
ĠTuri sm
on ica
se ala
zi unii
Ġacord are
Ġstil ului
ĠSlo vacia
Ġminci unÄĥ
ie li
Ġcanti tÄĥÈĽi
Ġrespin ge
T i
ĠAf lÄĥ
H A
ĠgÄĥ lÄĥ
Ġfinan ÈĽat
Ġven im
Ġpatron ul
Ġampren ta
c li
Ä į
Ġale ÅŁi
Ġmi ster
Ġ197 0
Ġadap tare
Ġalt uia
Ġc inÄĥ
li rt
Ġcere rilor
Ġpericul oasÄĥ
discip lin
ni k
Ġbi bli
Ġprepa rare
Ġcomp ri
ĠContra ctul
Ġatribui re
b uni
ĠPro fi
Ġcomuni tÄĥÈĽi
ĠPite ÈĻti
Ġcad rului
Ġpier zi
ĠbucÄĥ Å£i
Ġclo po
ĠBÃ¢r lad
Ġabd omen
' .
Ġa gÄĥ
alÄĥ u
Ġprofes iei
Ġcol Å£
Ð° Ð»
ĠÅŁcoli le
ĠHua wei
Ġse riei
Ġra sÄĥ
ĠCa stelul
l urilor
Ġautori tÄĥÈĽi
Ġope rat
Ġco gni
Ġne e
Ġpropune rile
Ġemo Å£ii
Ġavent ura
ĠA V
Ġpra dÄĥ
ĠGeorge scu
Ġperse ve
9 4
p os
Ġin forme
ĠUni tatea
ĠP are
ment s
Ġacces at
Ġproduce rii
ĠDece bal
Ġna tional
Ġpoveste ÅŁte
Ġgestion are
ĠThom as
Ġob ezi
Ġconclu zi
Ġambasa dorul
ĠMi ÅŁ
ĠPar cÄĥ
Ġbra Å£e
Ġspa tiu
C at
u tori
Ġvi sele
ĠB od
ĠconÅŁti ent
ĠInforma ÈĽii
Ġabili tÄĥÈĽile
Ġperse cu
ici an
Ġadministra te
Ġini Å£ie
ARE A
Ġd Ã®n
Ġg rin
Ġso ÈĽie
Ġ8 6
Ġpersonali tÄĥÈĽi
ãĢ Ĥ
Ġai urea
ui toare
Ġpa pa
Å£ion ar
feri tor
Ġdispozi Å£iile
Ġinterven Å£ia
Ġcata lo
ĠEnerg iei
ĠC ala
ĠvÄĥ tÄĥm
Ġinter nat
ĠSu fle
ĠbucÄĥ ÈĽi
Ġoche lari
ĠhotÄĥ rÄĥ
Ġrecla me
t rans
Ġpre siuni
a sta
Ġam Äĥ
we en
Ġselec tat
Ġf inÄĥ
Ġfin isa
è½ ¦
Ġde cu
Ġele mentul
ĠEn erge
Ġvinde ca
ĠÃ®nÅŁe lÄĥ
ca dru
ĠG AL
Ġsub ÈĽire
ĠAr gent
ĠMo ÈĻ
Ġconse c
Ca sa
Ġdele gat
ĠCe zar
Ġcomi sion
Ġtable te
Ġpano uri
F ran
ĠU i
Ġ194 1
Z I
ran e
Ġpa sion
ĠpreÅ£ urilor
Ġpovesti ri
Ġdinam icÄĥ
ĠJurn alul
ĠMoni torului
Ġre chizi
ĠBib lie
Ġbeneficia rii
Ġ Ï
che tat
ĠMar cu
Ġcapa bilÄĥ
Ġse turi
scu mpÄĥ
C op
Ġde ra
Ġm y
ĠCo st
Ġresp i
Ġproa ste
u ti
Ġpozi ÈĽii
Ġâ ĸ
ĠFormul a
ĠP erman
Ġcome die
ĠrÄĥ pi
ĠSal va
Ġlicita ÈĽie
ĠAsigurÄĥ ri
u tat
Ġin fer
ĠC las
ĠNÄĥ vodari
Ġintervi uri
Ġb ie
Ġac opere
ĠÃ®ntre bi
t z
om an
Ġfi inÅ£e
Ġdemocra tic
Ġpoli Å£ia
Ġanul at
ĠCor pul
ĠFil armon
ĠInf rastruc
ĠG Ã¢nd
IT ATE
Ġcoordon ator
Ġfestival uri
ĠC Ã®nd
di d
ori te
Ġsolici tÄĥri
Ġce dat
ca o
Ġci udate
c m
ÈĻ oara
Ġspunea u
Ġdif uzat
F ie
mÄĥ r
ĠOr hei
Ġcredin ta
ĠÄĥ ÈĻtia
Ġeduca ÈĽional
Ġpara graf
Ġmonum ente
ĠM ici
ĠSocie tÄĥÅ£ii
Ġimpres ie
Ġau dit
ĠMi ron
Ġui taÈĽi
ĠAve ÈĽi
Ġ8 3
ĠDom ni
Ġlip seÅŁte
ĠmulÈĽ umim
ĠAu torul
Ġ12 5
ĠmÃ¢ntui re
lnice anu
ĠLudo vic
Ġdom ina
ac olo
Ġproduc Å£iei
Ġaprec iere
g nit
Ġbine Ã®nÅ£eles
ĠMar gare
Ġtur ci
Ġsenti men
ĠNor oc
Ġagricul turii
Ġre facerea
Ġra zboi
Ġtrans fera
ER PRES
Ġauten ticÄĥ
ãĢ ģ
Ġporunci t
Ġsitua Å£iile
Ð½ Ð¾
ona ri
Ġcontro ale
ĠcÃ¢ÈĻti ge
ĠGa ran
Ġconcep te
ĠAv anta
ĠP res
nic ilor
ĠÅŁ oma
ĠCol um
Ġrecunoa scÄĥ
ro ba
Ġteren urile
è ®
Ġnu ci
Ġexpune re
Ġå ĮĹäº¬
ĠliniÅŁti t
Ġtrans ni
gh in
Ġechivalen tul
Ġre struc
Ġsanc Å£iuni
Ġinf ra
Ġcal ciu
Ġsto cate
Ġtehnic o
Ġobiec telor
Ġau dÄĥ
ĠAn at
Ġtri stÄĥ
ĠÃ®nain ta
Ġclima tice
an de
Ġpre cÄĥdere
Ġsupor tÄĥ
Ġlezi uni
Ġsune tul
Ġreglement Äĥri
Ġcrescu tÄĥ
ĠN ote
Ġexpl icit
Ġbucure ÅŁte
is ie
Ġscop urile
voc are
Ġdefav ori
Ġdo tare
Ġori cÄĥr
ĠRe veli
Ġrapor tare
A D
Ġca selor
ĠL og
uÄĥ rii
ĠgÄĥ uri
ĠPre da
ĠSp aniei
Ġdenumi tÄĥ
ĠiniÈĽia tive
ĠÃ®nconj oarÄĥ
Ġdipl om
C ei
f unda
o uÄĥ
Ġse con
Ġocup ate
Ġexperti zÄĥ
cul are
ĠCa bine
ĠreÅ£ele i
ĠFil at
Ġaminte ÈĻte
ĠP unctul
ĠAdministra ÈĽia
t onul
um an
ga ja
Ġproces or
Ġdulci uri
he im
Ġdom niÈĻ
bo re
Ġloca ÈĽie
ĠÈĻtiinÈĽi fic
ĠVol ks
Ġnere spectarea
Ġretro gra
at orie
bi an
Ġdem ol
Ġgo alÄĥ
ĠmÃ¢nd ri
ĠlÄĥs ate
ĠSur sa
Ġomene sc
iz z
l ans
ĠP and
Ġauten tici
As ocia
Ġprivi rile
Ġsecre tul
Ġcompeti ÈĽia
ĠZe ci
Ġlog ica
ii i
Ġdo zÄĥ
ver bal
ĠtÄĥ rie
ĠevaluÄĥ rii
Ġpira mi
ĠFe tele
Ġpensiona ri
ĠFemin in
Ġdin ÈĽi
Ġb us
por a
Ġreu ÅŁesc
De spre
Ġformul atÄĥ
ĠRo xana
Ġpierdu te
ar da
gu rare
Ġob se
scul ar
ĠPoli ticÄĥ
v ana
le lor
ro mul
ĠT O
Ġmedic in
Ġpsih ologicÄĥ
ĠÅ£in Ã¢nd
in gi
Ġsu spect
ĠCrÄĥciun ului
Ġurm au
Ãİ mi
Ġ ×
ĠA j
cu z
Ġb ala
Å£ion eze
Ġfinan ÈĽarea
Ġden si
ÑĢ Ð¸
ĠConferin ÈĽa
ĠElve Å£ia
Ġdistru se
Ġrelu at
ĠS Ã¢r
olog y
Ġon oarea
ĠNic ula
ĠcapÄĥ tÄĥ
ĠieÅŁi re
ĠÃ®n geri
Ġcon spira
ĠCom una
loc ul
ĠsusÅ£ine re
ĠreÈĽe tÄĥ
at unci
Ġsa co
tori alÄĥ
Ġacoperi tÄĥ
Ġcaracteri stic
di os
ĠSi ghe
ĠGrec iei
ĠCrean gÄĥ
ĠSex ualÄĥ
pro ape
Ġpreluc rate
Ġaminti rile
Ġpedep sei
Ġta lie
zz le
Ġsub iec
Ġprincip iilor
Ġliv rate
Ġflu xul
k m
ĠpÄĥ lÄĥ
Ġvi deoc
Ġdepozi te
ĠgÃ¢nde ÈĻti
ĠSpecta colul
ra f
Ġan tice
co in
Ġprivi toare
Ġcircula ÈĽia
en iei
ĠPre ÈĽul
ĠÃ®ng er
Ġiz bÄĥ
ĠÃİn ce
Ġti me
ĠcreÈĻtin Äĥ
Ġmagh iari
a sÄĥ
Ġmi siunii
ĠPro ject
Ġdezvol tatÄĥ
Ġfilos o
Ġdefici t
Ġimplement Äĥrii
Ġfunc Å£iile
Ġcasti gat
ĠSoare lui
bi te
Ġexemp lar
ĠIu da
F P
g ori
te xt
in fla
Ġcon dim
ot s
Ġstati stici
ĠM O
ĠMus ic
Ġidea le
N ici
Ġpro toc
Ġzi arului
Ġveni Å£i
ĠSfin Å£ii
ĠP odul
Ġti ga
go rii
Ġexerci ta
ĠspaÈĽi ului
ers on
ĠCur sul
Ġpeisa j
ĠAmat ori
ĠAr han
ĠzÃ¢mbe tul
ĠoricÄĥr or
Ġreprezentan Å£ilor
199 9
Ġprofesioni ÅŁti
Ġevolu Å£ie
ĠÃİnal tpreasfin
Ġpodi um
ĠÃ®n gre
Ġfi xÄĥ
Ġsele cÅ£ie
ĠIu stin
" )
ĠI le
ore sc
Ġde ven
ĠSe mn
as hi
Ġmi g
ĠNe xt
Ġcerce ta
Ġrem une
Ġdor mit
Ġadop tÄĥ
Ġreglemen tarea
in ÈĽelor
ĠS oarele
Ġpu f
are st
ĠT ok
Ġprofun zime
ĠUE FA
ĠSol omon
ole i
no rii
Ġcar duri
Ġscur ta
Ġlumin os
Ġstri cte
s os
Ġalba strÄĥ
Ġcontribu Å£ia
ĠFacul tÄĥÈĽii
Ġfe tei
ĠSa va
Ã¼ n
Ġdefici en
Ġmemo riei
Ġbord ul
Ġme ÈĻte
ĠrÄĥ sÄĥri
ĠAdministra Å£iei
Ġful l
ĠScrip turÄĥ
Ġbur sÄĥ
Ġdeclara Å£iile
ĠGeor gia
Ġume ri
min are
ĠbunÄĥ vo
Ġbar bat
Ġin ac
Ġcole ctivÄĥ
ĠstÃ¢r nit
ĠP am
Ġderul eazÄĥ
ĠpÄĥcat ului
ĠM ona
ĠL ung
Ġape lat
Ġconta bilitate
ĠE S
Ġdiavol ul
ĠSlobo zia
Ġvizita torilor
oc k
ĠpÄĥ gÃ¢n
Ġuci de
Ġsecund ar
ĠÃ®n viat
ba ra
Ġulti m
Ġmajori tar
xi stÄĥ
Ġin fir
Ġdev ii
ĠVol umul
ĠDoc tor
Ġpa ral
Ġata curile
Ġâ Ĥ¬
Ġprofi tul
Ġa z
ul Äĥ
ĠS w
ĠK im
Ġcin stit
ĠveÅŁ nicÄĥ
on ie
ÅŁ ina
Ġbaz in
ĠGrÄĥ dina
h im
ĠH G
ĠRomani an
Ġca su
ch ing
Ġconta ctaÈĽi
b lo
ĠT R
den ii
Ġdizabili tÄĥÈĽi
Ġsp ul
Ġagre siv
Ġsprijini rea
Ġnucle are
Ġcu tii
ĠF arul
Ġpar ca
ĠcunoÈĻtin ÈĽele
ĠÃ®n sa
Ġb ritanice
ÈĽion Äĥm
ĠCluj ului
Ġabord at
ici anul
ĠAd riana
Ġdesi gne
Ġproprie tÄĥÅ£i
Ġvedea m
Ġviolen Å£Äĥ
ĠgÄĥ l
Ġschim bi
Ġsen in
ĠS Ã¢nge
ĠVa tic
Dumneze u
is melor
Ġap us
Ġsoli dÄĥ
ÅŁ eni
ĠÃ®n strÄĥ
ĠS om
Ġat Ã¢r
ĠCarac teri
Ġse l
Ġim or
ĠPo Å£i
Ġsen atorul
Ġs lu
ĠMe tro
Ġbun ului
Ġcar bo
pon de
ĠVolun tari
ie le
ĠaltÄĥ datÄĥ
Ġaro me
ca ra
Ġsur sei
a b
vo dÄĥ
ĠLe gi
Ġperfec ta
ĠDo cu
Ġasc und
ĠConstitu Å£iei
ĠSor os
Ġautostra da
tali tatea
Ġdispozitive le
ĠAG ERPRES
Ġimportan Å£i
Ġextin dere
Ġorgani zÄĥrii
se be
Ġst Ã¢nd
Ġcomuni ce
ĠsÃ¢nge lui
Å£ enii
ĠplÄĥ mÃ¢n
b eazÄĥ
Ġaler gat
ĠgÃ¢ndi rii
ene sc
Ġperi cole
Ġordin arÄĥ
Ġsperan ÈĽÄĥ
ta ÈĽia
Ġne sim
Ġfemin inÄĥ
Ï ģ
Ð ¶
Ġfi inÅ£a
tor va
cti ei
Ġor ga
Ġzone lor
Ġpar curi
Ġaju toare
Ġ8 7
Ġfab rici
Ġperpe tu
Ġepiscop ul
Ġindi ce
Ġprem iile
Ġferici ÈĽi
Ġlip site
Ġconfir mare
ali stÄĥ
Ġpretin de
á ¹
ra ri
ĠL isa
Ġime diatÄĥ
Ġinteli gentÄĥ
Ġviolen te
Ġs cep
Ġac ÈĽiona
Ġfunc ÈĽiile
Ġformul at
IT ORUL
Ġdege te
ier curea
ĠmaÅŁ inile
ĠL ore
ĠMi ÈĻ
Ġcontro late
ĠÃ®ncepe re
ĠÈĻan sele
Ġcondi ÈĽionat
ĠVe ÈĽi
Ġdescoperi re
ĠAsi an
Ġavans atÄĥ
Ġra chete
Ġrespec tate
Ġsoli de
ozi tatea
ĠâĢ º
Ġfla gran
Ġinforma Å£ia
ĠÃ®nfiin ÈĽat
ĠProiect ului
ĠDi pl
Ġvac anta
Ġt ind
Ġconflic tului
Ġparticul are
Ġcl inice
Ġconstr uire
Ġmone de
Ġnuan ÈĽe
ĠL ar
ĠK ing
Ġechi pat
Ġinsta late
Ġmagazin ului
ĠSitua Å£ii
A casÄĥ
Ġaeri anÄĥ
ÈĽi tul
Ġap o
Ġave rea
Ġeconom ii
Ġdia spora
Ġfrun zele
Ġtenta tivÄĥ
Ġp oata
ĠEx cel
ĠAC S
Ġpele rina
Ġelegan te
Ġspe cie
fica ci
ĠS oft
Ġgrup urilor
a ici
la ta
Ġpol u
ine ri
ĠE fec
Ġrepe tÄĥ
ra men
Ġorganiz eze
ĠVer de
Ġpof ta
u ie
Ġde ÈĽinÄĥ
Ġbu c
ĠÈĽin utÄĥ
ĠAnsamb lul
ĠP ici
can tul
Ġachizi Å£ie
Ġderul area
che ster
Ġuni t
ĠÃ®nvÄĥÅ£Äĥ mÃ¢ntului
Ġcateg oric
ti une
li pi
Ġdez le
Ġreg izat
Ġrespin gerea
Ġindis pensa
ĠC rin
Ġre stitui
ĠrÄĥ sÄĥrit
ĠieÈĻi rea
Ġpul mon
Ġpis ica
ĠM I
Ġi o
Ġfa cuta
ĠÃ®ndrÄĥ gi
Ġemite rea
Ġ ),
Ġlice ul
E U
ER T
ĠSÄĥ laj
ĠâĢĵ ,
ĠgÄĥsi rea
F OTO
ĠproducÄĥ torilor
Ġan tici
Ġgene ro
ĠÃ®ntreÈĽine re
I a
at ri
ĠO K
Ġgene tic
ĠbÄĥie Å£i
Ġcreste re
Ġjapone zÄĥ
ĠÈĻo feri
z icÄĥ
on eazÄĥ
ĠC AS
ĠMar ina
Ġprelu atÄĥ
Ġin hi
Ġevolu eazÄĥ
Ġlovi tura
ĠregÄĥ si
wa gen
ĠFol os
ĠT g
be ÈĻte
Ġval uri
ĠPoli tici
Ġstati stice
ĠEpiscop ul
ĠDrago ÅŁ
Ġa bilitate
ĠM is
Ġso Å£ie
Ġsen ator
Ġmu tÄĥ
ĠArsen ie
ĠKrem lin
ĠB iz
ĠDo bre
Ġtrase e
ĠdespÄĥgubi ri
Ġpre jude
Ġha ve
ogÄĥ lniceanu
ĠResur se
Ġreg ret
Ġprelungi rea
ĠAgricul turÄĥ
Ġla cului
Ġata ÈĻ
ĠInterna Å£ionale
ĠreÈĽele i
ten iei
Ġteritori alÄĥ
Ġcomer Å£
ĠÈĺ colii
Ġsupre m
Ġsal atÄĥ
ĠMuz ica
ĠÃ®ndeplini te
Ġceremon ia
ĠDura ta
Ġpe diat
ĠG la
Ġfurniz at
ĠhotÄĥrÃ¢ rii
ĠaÈĻe zat
ĠIntra rea
u zi
ĠdobÃ¢n dit
Ġeva ziune
ĠSupraveghe re
Ġimp rim
ĠmÃ¢nd ru
ĠPopo vici
ĠLi psa
Ġmij lo
Ġsupl imen
Ġlegu mele
Ġofici u
ĠpÄĥ cii
gra ma
Ġmand ate
ĠInte l
ve rii
Ġconsim ÈĽÄĥ
Ġmin oritÄĥ
Ġgra fice
cin ate
Ġfor ÈĽe
ĠUn gureanu
Ġadministra ÈĽie
ĠNici odatÄĥ
desc operi
ce ÈĻte
ol y
Ġimpor t
Ġprecedent Äĥ
ĠBre xit
ĠÃ®mp a
ĠvÄĥ du
Ġas or
cate rina
ĠÃ®ntreprin derilor
Ġnece sara
ĠD O
Ġti pÄĥ
Ġlum Ã¢nÄĥ
Ġscrie rea
ĠspaÅ£i ului
ra u
Ġexpi rat
Ġzb orul
ĠLa cul
Ġab out
er ry
Ġin sti
Ġcre scÄĥ
Ġindi an
Ġfrumuse Å£e
Ġstandar delor
Ġno bil
Ġinteres ului
xe li
Ġemis Äĥ
Ġenti tate
Ġsmar t
Ġp p
Ġpacien ÈĽilor
Ġhe pa
ĠS how
ĠTe ologie
ĠPre sa
ĠVoda fone
Ġli tur
Ġproiec tate
Ġplim bÄĥ
Ġc loc
Ġpe se
Ġapar tamentul
ĠcÃ¢ÈĻti g
Ġcase ta
ĠconducÄĥ torii
Ġdie te
ha ria
Ġeduca tive
Ġechipamente lor
Ġfiz ica
ï¿½ ï¿½
Ġproasp ÄĥtÄĥ
Ġori cui
na inte
Ġinter cep
Ġuniversi tate
Ġp li
Con stan
ĠPro cura
ĠBu ch
Ġfenomen ului
Ġfi reascÄĥ
Ġreprezen tate
ĠcunoaÈĻte re
Ġmelo die
ĠCÄĥlÄĥra ÅŁi
Ġra cord
Ġmode ra
ÈĻedin tele
Ġfra ge
ban g
Ġbritan icÄĥ
ĠA scul
entÄĥ rii
Ġplan tele
ĠpÄĥstra te
Ġfore sti
Ġsingu rele
Ġinca pa
Ġindustri alÄĥ
Ġsor ti
Ġsune te
fÄĥ rul
Ġpu stie
Ġfunc ÈĽiei
Ġofi Å£
ĠBrÃ¢n cu
Ġanun Å£
Ġinten ÈĽia
Ġmijloc ii
Ġco t
Ġfabric area
Ġobliga Å£i
Ġlegi ti
te ne
ĠcÄĥ s
ĠArtic ole
Ġbucure ÈĻte
Ġg r
ĠK ogÄĥlniceanu
Ġsuplim ent
Ġreferendu mul
l ant
Ġjude tului
Ġgrup area
Ġeta pele
ĠliniÈĻti t
tÄĥ torul
ĠI c
ĠL oca
Ġas amb
Ġteri bil
Ã³ n
Ġpop oare
Ġmo torului
Ġfond atorul
ie s
Ġin el
cu tul
Ġor che
Ġadu cÃ¢nd
Ġexerci Å£ii
ĠstrÄĥluci toare
sta bil
Ġapro x
Ġsecuri tÄĥÈĽii
Ġfron t
Ġapu cÄĥ
Ġprin d
Ġli derilor
Ġfi le
Ġfe za
Ġpsih ologie
Ġrestauran tul
ĠstrÄĥ lu
Ġus u
Dom nul
Å£Äĥ rii
Ġtelefon ie
ĠÃ®ncÃ¢n tat
Ġegi pte
Ġap ortul
Ġfar furi
ESC U
ĠSele c
D is
Ġdo ze
na ÈĽi
Ġcru cea
Ġobose alÄĥ
Ġcirc uit
ĠEdu ard
Ġle nt
ĠLun gu
se arch
Ġchine zÄĥ
Ġla ÅŁi
Ġmon tate
Ġefici enti
Ġprotej at
ĠApro ximativ
Ġcampi oanÄĥ
ĠMON ITORUL
tu p
Ġpu zzle
Ġdece sul
ĠCapi tal
ĠcercetÄĥ tor
Ġmone da
ĠXX I
ĠCeau ÈĻescu
ta tivÄĥ
ĠS ine
Ġcer titudine
Ġata cÄĥ
Ġfu gi
Ð¾Ð ³
ĠE pi
ĠÅŀ colii
èµĽ è½¦
E n
Ġda c
ĠSU V
ĠÃ®ntoc mai
ĠsÄĥlba tice
Ġdo ream
Ġsol ului
Ġautori tÄĥÅ£ii
Ġmerg Ã¢nd
ĠHid ro
ĠR od
Ġo ara
Ġme lan
ĠÈĽin tÄĥ
Ġaccele ra
ÄĤR ÃĤ
Ø§Ù Ħ
go ci
stri al
Ġcon vocat
d os
Ġa ga
Ġasigu rate
Ġape lul
Ġinterzice rea
d one
unt rul
Ġsemn ale
Ġactu alizarea
Ġcolabor at
Ġrefu zul
Ġabili tÄĥÈĽi
C er
Å£i os
ĠÃİn su
Ġini ÈĽialÄĥ
Ġpost ura
ĠAlexand ria
pe sc
Ġfabri cat
ĠS ÄĤ
ĠUni versul
Ġlip seÈĻte
ĠXV II
Ghe orghe
is tica
na Å£i
Ġmen tal
Ġbur se
ĠLuc rurile
Ġcredincio ÅŁilor
Ġrepub lic
G o
ĠCon du
Ġconclu ziile
ĠAdunÄĥ rii
Ġtransni stre
d ge
loc a
ĠDom eniul
Ġdore ste
re fo
ĠPre vious
Ġinform area
Ġmecan ic
ĠrÄĥs fÄĥ
ĠArde al
il le
Ġpor ci
ĠuÈĻ oare
g ui
im u
ĠLa dy
Ġfil tre
atori u
Ġdori te
Ġsuper b
Ġnevoi tÄĥ
Ġderul ate
y al
ĠJ en
ĠAn aliza
Ġfolosi re
ĠAdministra Å£ie
ĠLeg isla
ci rea
ve dere
ĠTra tamentul
ĠTehn ologia
ĠRe stul
Ġsf inÈĽi
ĠSf Ã®ntul
Ġde mn
Ġen un
ĠÅ£Äĥ rilor
Ġdore ÅŁti
ĠÂ ©
Ġbarba ti
fici ul
Ġpozi Å£ii
ĠTi ra
ĠCerce tÄĥrii
ĠgÄĥz d
Ġpro x
ĠstÃ¢n g
Ġinteg ritatea
Ġdatorii le
ĠW hite
Ġpartene re
Ġcauz atÄĥ
Ġmanipul are
an ce
Ġre ia
ĠÃ®ntre bu
ĠmiÈĻ carea
Ġure che
trin Äĥ
Ġpreci za
Ġile galÄĥ
Ġcapital ului
âĶĢâĶĢâĶĢâĶĢâĶĢâĶĢâĶĢâĶĢ âĶĢâĶĢâĶĢâĶĢâĶĢâĶĢâĶĢâĶĢ
ĠconfidenÈĽi alitate
ĠMul tumesc
Ġperforman ÈĽa
rur gie
Ġde toxi
ĠS cur
Ġfor Å£elor
Ġfal iment
Ġagre ment
Ġnum ea
Ġi ste
ĠCom erci
IC ÄĤ
Ġdori ti
ĠHotÄĥrÃ® re
Ġinforma ÈĽia
ĠCo ordon
Ġviz uale
Ġde curs
oa pe
Ġsp umÄĥ
Ġgaran Å£ie
ĠMosc ovei
Ġsoli daritate
Ġsom nului
sÄĥ rilor
Ġutiliz eze
Ġopera ÈĽiuni
Ġarti ficial
ĠÃİ ÅŁi
Ġanun tat
S V
ma Å£i
Ġdecora tive
ĠVen us
ĠÂ °
ĠpotenÈĽi alul
T oate
Ġpar do
ĠasigurÄĥ m
Ġzah Äĥrul
at ure
Ġag ro
Ġdia con
ĠstrÃ¢n se
ĠAnge les
ĠÃ®nregistrÄĥ ri
Ġprop riului
Ġfru stra
ĠMed gi
ĠC ic
ĠPro iec
Ġliber tÄĥÅ£ii
ĠÅ¢ Äĥrii
ĠÃ®ndrep ta
ĠreÅ£ele le
ĠsemnÄĥ tura
Ġvop sea
At unci
Ġsp ove
Ġsec Å£ia
Ġimagin at
Ġti cÄĥ
tri c
ĠAnticorup Å£ie
Ġsp oritÄĥ
Ġcomp une
Ġdu rÄĥ
Ġporun ca
Ġpre fectul
Ġz Ã¢m
Ġcontra val
ĠvÃ¢nzÄĥ rile
ĠCrime ea
Ġ3 000
Ġpa g
Ġevident Äĥ
ĠSpor tului
Ġme tale
ĠMar keting
Ġlemn ului
si de
Ġpie sei
Ġacces area
Ġmoldo vean
ĠFoc ÅŁani
ĠFR F
b rul
Ġsuve rani
sti re
as ing
Ġmini ÅŁtri
Ġpro pozi
ĠmÃ¢ntui rii
Ġne mi
Ġmor mÃ¢nt
ĠpicÄĥ turi
ĠAma zon
s ar
ĠLi tu
Ġdra pe
room la
ĠCante mir
pe ste
ĠCa d
ĠBan ii
ĠD at
Ġportu ghe
Ġa zil
ĠSpe ran
Ġrespira torii
Ġmo use
Ġra b
Ġfrate lui
Ġportof oliu
Ġanti biotice
Ġprive li
Ġincer cat
ĠAce ea
Ġvari atÄĥ
Ġcorpor ale
Ġpre fi
Ġprem iere
Ġlocali tÄĥÈĽii
ti uni
ĠS pÄĥ
Ġca ci
Ġpier dem
Ġme lea
ĠoraÈĻ ele
ĠaparÈĽin Ã¢nd
Ġori gini
Nic olae
Ġcata log
ĠsusÈĽin ute
A i
Ġ2 20
ĠU V
Ġk e
Ġmen ÈĽioneazÄĥ
Ġcunos cuta
ĠRus u
Ġero u
Ġodi hn
sÄĥ turi
Ġparte r
Ġscrie rile
ĠintrÄĥ m
Ġrezerv are
ĠÈĻtiinÈĽi ficÄĥ
unghi ul
ĠTibe riu
ĠS ie
Ġca vale
gi o
co vi
tie s
ĠFe lix
Ġcole cÅ£ie
Ġide ilor
ĠIubi rea
çł ģ
is ia
up i
Ġda ci
Ġbi ru
Ġcomerci alizarea
Ġsemin ÈĽe
ĠIn ten
Ġic oana
Ġtren d
Acea sta
Ġtra gÄĥ
ĠÃİntre bat
Ġl is
Ġpa cat
Ġsto p
Ġtehnolog ic
Ġvala bilitate
Ġteore tice
cien ce
ĠMED IA
Ġatra ctive
Ġobliga Å£iile
Ġconcent reazÄĥ
ĠEr do
ĠS til
Ġnive le
Ġmedic amentele
Ġlice e
ĠEro ilor
Ġra rÄĥ
ven ii
Ġba gÄĥ
tr ului
ĠPub lica
Ġrol uri
Ġcolo anÄĥ
Ġla cul
ĠÃ®mpline sc
Ġcu st
Ġsu cul
ĠIN TER
ĠR ac
Ġindic ii
Ġdra mat
ĠCS U
va ta
Ġpor nesc
ĠcÄĥl cat
Ġstudia zÄĥ
ÈĻ eni
Ġle ga
ĠdesfÄĥÅŁura tÄĥ
Ġamenaj are
of fice
Ġachi ta
Ġ196 8
Ġgest uri
ĠDÃ¢mbovi ÈĽa
Ġarhite ct
Ġre fa
Ġzg Ã¢
Ġveri fice
ĠmÄĥrturi si
ramen roomla
C ON
Ġme rit
ĠH omosex
Ġproiec tarea
ĠPra ga
ĠAutori tÄĥÅ£ii
Ġpof tÄĥ
E X
ÈĻ trii
ĠSe m
anta j
Ġelegan tÄĥ
Ġconsultan Å£Äĥ
Ġo tom
ĠA chizi
Ġini Å£ialÄĥ
Ġachizi ÈĽii
Ġvirtu alÄĥ
ĠDesc operi
Ġcreativi tate
c tu
ĠrÄĥ i
Ġsf Ã¢ntul
Ġvirtu tea
Ġintervi ul
p ini
ĠrÄĥmÃ¢n Ã¢nd
ĠFili ala
ĠC in
Ġul terioarÄĥ
ĠLi pe
Ġof fice
ĠbÄĥn cilor
Ġsenza Å£ia
ĠEro tic
Ġade ver
bal l
al ba
Ġamerican ii
core spun
ĠTit lul
Ø ª
form area
ĠÃ®nf rumuse
Ġ4 50
Ġru ÈĻine
ĠLe gÄĥ
ĠÃ®nÈĽele gerea
Ġachizi ÈĽionat
Ġadau ga
Ġun guri
ĠD C
na me
Ġadun area
bon y
Ġtar ziu
ĠBule vardul
ĠÃ®n m
aliz aÅ£i
ĠAn na
ĠPre ci
Ġscrii torului
Ġbl Ã¢nde
de os
Ġfac torilor
Ġuni tar
Ġsal ub
Ġrenun Å£e
Ġrezisten te
Ġvicepre ÅŁedinte
Ġg olul
Ġru ÈĻi
Ġaju tÄĥm
Ġactivi tati
ĠSta di
ĠInvesti ga
ĠHum ani
in di
Ġpra ful
Ġmici le
Ġagricul tura
ĠÃ®n ot
Ġre tail
Ġfe telor
Ġprote jeze
nu mele
Ġdiminea ta
ĠÈĻcoli le
ĠTuri smului
Ġt Ã®r
Ġac ÈĽiunilor
Ġcli puri
Ġprim ind
Ġnecesi ta
ĠcunoaÅŁte m
Ġhomosex u
Ġt inde
ĠDis ney
Ġpar ul
Ġulti melor
Ġgroa zÄĥ
ĠrÄĥm Ã¢i
den ie
Ġdiscu Å£iile
Ġine ditÄĥ
Ġtitul ar
U P
Ġani ver
Ġsprij ine
Ġauten tice
Ġne justi
Ġex port
ĠDe p
ĠpÄĥ durea
ĠInter viu
Ġsanc ÈĽiuni
ĠCaran sebe
Ġa ria
ĠB lon
ĠapÄĥ rutÄĥ
Ġcorec ta
Ġoa se
Ġope rei
ĠÃ®ntÄĥri rea
ĠL y
ni tÄĥ
ĠHo use
Ġinterne tul
Ġsfat urile
ĠAvoc atul
ui torii
Ġprez inta
Ġeduca ÈĽionale
ĠarÄĥ tÃ¢nd
Ġdure rii
ĠIn gine
Ġbloc ul
Ġfur ni
ĠSfin Å£ilor
Ġdivi den
G uver
ge ÈĽi
bi r
Ġcul inare
Ġ9 3
ĠadÄĥu gÃ¢nd
ĠjudecÄĥ torul
Ġdul cea
ĠPl ane
Ġmedicamente lor
ĠProfes orul
Ġmin ore
ĠMun Å£ii
AR A
Ġengle z
Ġlichi de
C ul
Ã ¥
ĠP ula
ĠÅŀ colar
Ġtip ic
Ġatra ctiv
Ġreac Å£ii
ĠSer gh
Ġf unci
Ġli ga
ĠÅŀ I
Ġga stronom
Ġexce siv
Ġdiscip lina
Ġfotb ali
ĠH un
Ġase mÄĥn
ĠcÄĥsÄĥ toria
Ġal titudine
ĠCe va
Ġatri buit
Ġcurio zitate
ĠF run
ĠW in
Ġcap c
Ġstatu tului
P SD
Ġin o
ĠB ill
Ġopera tori
Ġpan icÄĥ
I TE
me ga
Ġfolosi rii
Ġexa cti
Ġcredincio ÅŁii
Ġtrupe lor
ĠsÄĥ pun
ĠsÄĥptÄĥmÃ¢n al
ĠGh im
Ġinu til
Ġi OS
Ġauto area
ĠlegÄĥ turile
Ġpsih ologice
ĠcÄĥlugÄĥ ri
nÄĥ scu
n ume
ĠBan atului
Ġchel tuit
ĠGheor ghiu
ĠReprezentan Å£ii
Ġsedin ta
ĠCh inei
Ġdescoperi tÄĥ
ĠServ iciile
Ġliv ing
f ol
ĠAn gaj
Ġple ci
Ġapar ut
Ġcomer ÈĽ
Ġdiscre t
ĠR y
ca pi
zÄĥ rilor
Ġferici te
Ġferici Å£i
ĠÃ®nca dra
ĠrÄĥdÄĥ cini
Ġgan dit
Ġpar carea
Ġascul t
ĠÈĽin ute
ĠTine ri
Å¢ ÄĤ
Ġarun ce
ĠSecre tarul
Ġte za
ĠH ill
Ġdecla ratÄĥ
Ġvizi bilÄĥ
Ġlumin oase
Ġdovede sc
Ġde gu
Ġduce m
Ġdefini te
Ġpred omin
ĠðŁĺ Ģ
Ġpro mit
co vei
ĠMateri al
Ġma mele
Ġinstitu ÈĽia
ĠsÄĥrbÄĥ torile
ĠÃ®nÅ£elep ciune
Ġna sul
Ġstic le
g erÄĥ
Ġdinam ic
ĠneplÄĥ cute
Ġdezin fec
ru ci
Ġcomuni tare
ĠBla j
Ġsuge stii
ĠLin k
Ġmaturi tate
b l
Ġuni form
ĠLu xe
Ġacciden tat
d rei
g orit
Ġc anÄĥ
Ġsuc cesi
Ġelabor ate
ĠIz v
Å ¡
Ġasia tice
Ġtari f
Ġvoia m
Ġdovede ÅŁte
ĠMedgi dia
H z
L ink
Ġo cean
ĠBa ra
ke d
ĠdepÄĥ ÈĻeÈĻte
G E
b eascÄĥ
Ġi poc
ĠBa za
ĠHar ry
n oa
Ġefectu Äĥrii
Ġde licat
Ġpar ticule
ĠCiolo ÈĻ
ĠrealizÄĥ ri
Ġcon exe
Ġmemb rÄĥ
Ġitali ene
ĠâĨ Ĳ
u ru
ĠS tri
Ġcontra st
Ġopti mis
Ġtablo ul
Ġecu a
ĠSe cuiesc
Ġmaj orat
Ġpens iile
ĠEduca ÈĽie
Ġmone dÄĥ
Ġto arnÄĥ
ĠCa b
ĠCo stin
Ġechipe lor
ĠPen al
Ġinci dente
ĠO pre
Ġas uma
bo y
ĠAc cesul
aturi i
Ġneobi ÈĻn
lÄĥ ri
Ġsim pozi
ĠJude ÈĽeanÄĥ
ĠPo arta
ĠStatu tul
Ã¢n z
de ÅŁte
oc tur
Ġpre v
ĠJude Å£eanÄĥ
Ġmor mÃ¢ntul
ĠÃ®nchi dere
ĠInterna ÈĽionale
Ġpro vi
Ġcomunic ate
Ġfemin ine
ĠSpeci al
vo cÄĥ
ĠÅŀ erban
Ġoferi rea
Ġindic ator
ĠNicole ta
ĠPolitehn ica
Ġechilib ratÄĥ
Ġortodoc ÅŁi
t rina
Ġnedrep t
va da
Ġ19 50
res h
ĠNic u
oni st
Ġjude ÈĽe
Ġsca pi
Ġcurs urilor
Ġsupor te
Ġpa ran
il are
Ġdosare lor
è Ĥ
Ġva male
Ġinterven Å£ii
ĠL ili
Ġfolosi ta
Ġemo ÈĽiile
Ġcredi telor
199 1
ĠÅŀe ful
v y
Ġre tori
Ġroman ii
Ġbise ri
w ell
Ġpreo tului
Ġobiectiv ului
ĠLuc rarea
ĠnÄĥdej de
Ġp Ã£
ĠÃ®n ÅŁine
Ġga ra
Ġase meni
Ġactu alitate
Ġscoate rea
Scri pt
ĠÃ®n ro
ĠLi berÄĥ
ĠÃ®ncÄĥl cat
ĠPromov area
ĠcÃ¢ torva
Ġlini ÅŁtea
ĠÃ®ncÄĥr cÄĥ
ĠÅŁedin Å£e
Ġautonom ie
ĠL Ã¢ngÄĥ
Ġdimin uarea
Ġpol one
ĠP iz
Ġmon arh
Ġexecu ta
Ġcenz urÄĥ
Ġunel te
B N
RI E
ĠMe ciul
ĠprezentÄĥ ri
ĠBrÃ¢n co
ĠT in
Ġst oma
ĠÃ®nce teazÄĥ
Ġev reu
Ġiz ola
H o
ĠS tarea
ĠrÄĥmÃ¢ne m
ĠreÈĽe te
ĠLat ina
cÄĥ ra
ĠDo b
Ġpune re
Ġpotri vesc
Ġstati stic
Ġpropagan dÄĥ
Ġlibera li
inte gra
Ġnor ve
ĠÃ®ntÃ¢mplÄĥ ri
Ġprime ÈĻti
ĠÃ®nch inÄĥ
Ġcomen zile
Ġbote zat
Ġim bra
ĠÃ®n gerii
Ġadop te
ĠalcÄĥtui tÄĥ
Ġcenti metri
Ġv alea
ÈĻti le
ĠBa be
Ġ17 0
ĠscÄĥ dea
ĠsÃ¢n ul
Ġtrico u
Ġderanj eazÄĥ
à ¦
Ġan t
Å£a Å£i
ĠConstitu Å£ionalÄĥ
Ġsensi bilÄĥ
ĠR AT
ĠEx erci
pro fe
ÈĻ tele
Ġeste tic
ĠI unie
ĠPÄĥ mÃ¢ntul
ĠSal onul
ĠsimÈĽ im
Ġfa ze
Ġdi viz
Ġinu tile
ea ua
ĠG PS
Ġcomple tare
Ġream inte
ĠDire ctiva
ĠModi ficÄĥri
on line
zi sten
Ġamp lÄĥ
tos ani
ĠWe ek
ĠFir ma
er sul
ĠD G
ĠRe li
Ġpoveste ÈĻte
ĠStan ciu
Ġasfal t
u turi
ĠromÃ¢n o
ĠMi siunea
ĠÈĻedin ÈĽei
Ġdistra cÈĽie
Ġs cute
Ġscrie re
Ġcompon enta
ĠrÄĥsturn at
os of
Ġomene ÅŁti
tr y
ĠCom parti
ĠCe h
ĠBi anca
Ġvechi le
Ġmeni t
Ø ¯
Ġco stat
ta ge
Ġvis at
ĠRu gÄĥ
ĠsusÅ£in ute
Ġtransp arent
Ġver se
Ġmaghi ar
ĠCha mpion
Ġseme stru
Ġcomuni tÄĥÅ£i
Ġinvesti Å£ie
ĠTra tatul
zu ta
s up
Ġno tele
Ġco ord
Ãİn tr
Ġtradi Å£ionalÄĥ
ĠAmb ul
Ġcul mea
fron tal
W S
Ġse vere
Ġep ocii
Ġinterven ÈĽia
ĠÃ®ncerca ÈĽi
Ġreci tal
Ġopozi Å£ie
Ġc icÄĥ
Ġcul min
fa ra
Ġnume rar
tera pie
ĠA qua
Ġ15 00
Ġpreci zÃ¢nd
Ġparticipan Å£ilor
ĠTÃ¢nÄĥ rul
ci unii
Ġan trop
Ġmom entan
Ġurechi le
at o
Ġan ver
ch t
Ġzi se
ĠCu v
Ġofer tei
Å£ elul
Ġcu tia
ĠtÄĥ mÄĥ
Ġinterven ÈĽii
Ġd ane
Ġop Å£iuni
ĠCo joc
Ġstabili rii
Ġre tu
ĠF ara
ĠG au
Ġnivel urile
ĠSte ph
ĠSch en
Å Ĥ
Ġprega tit
ona Å£i
Ġaca demice
ĠRÄĥzboi ul
ĠHOT ÄĤRÃĤ
. /
ĠMa scul
ĠpÄĥre ri
ĠconÅŁti inÅ£Äĥ
ĠPrez enta
Ġinter sec
Ġstra turi
Ġdura bile
Ġcon venit
Ġcump lit
ĠurmÄĥtoare lor
Ġaverti zare
Ġa cutÄĥ
Ġs ilv
ĠÃ®nvÄĥ Å£are
Ġg lice
Ġsc Ã¢r
ĠJude tean
Ġna sc
ĠiP ad
Ġs ic
il ate
ĠP A
ĠrÄĥ sc
Ġbra d
ĠMÄĥnÄĥsti rii
Ġinferi oare
Ġra zÄĥ
mit h
19 89
ĠconÈĻti ent
Ġtre cea
ĠÃ®ncÄĥl care
ĠDrago ÈĻ
Ġsol arÄĥ
Ġlocu inÅ£Äĥ
Ġfier be
ĠSpe ciale
ĠsemnÄĥ turi
ĠÈĽe su
Chi ar
ĠM IN
Ġvalori ficarea
Ġcookie s
ĠaÅŁtepta Å£i
Ġta van
Ġgh im
Ġprofesional ism
te anu
ĠM erg
Ġdec orat
Ġob isn
Ġdor inÅ£Äĥ
Ġneg ri
Ġdispera re
po pul
Ġforma Å£ia
Ġdoc tori
ĠRoc k
Ġade seori
Ġcomplex ul
ĠOfici ul
j os
Ġas umate
Ġadop ta
Ġpara dis
Ġacumul ate
! ).
ĠD ure
ĠJuri spru
ĠPrimÄĥ rie
ĠRe por
Po int
Ġlitor al
ĠÃ®mprÄĥ ÅŁti
T S
Ġs mÃ¢nt
Ġf Ã£
Ġg au
ma ÈĽi
Ġinforma tiile
Ġ[ ..]
Ġredu c
Ġa rii
stre z
Ġlacri mile
teri toriale
Ġpur tÃ¢nd
ĠÃ®ncÄĥl ÈĽÄĥ
Ġreglemen teazÄĥ
ĠÃ®nso ÈĽit
ĠAp ar
ĠÃ®nfiin Å£atÄĥ
Ġin stituirea
Ġpost urilor
Ġnerambursa bile
drale i
Ġin oc
ai r
Ġsitu eazÄĥ
Ġefectu eze
ĠCel ui
I atÄĥ
Ġse z
Ġcea pa
Ġmotiv at
ĠÃ®nvÄĥÅ£Äĥ turÄĥ
Ġproc entul
E di
d f
ĠPro gno
Ġui ÈĽi
tefÄĥ nescu
Ġdi vine
cul tura
ia j
umi rea
ĠÃ®ntoc mirea
Ġaro mÄĥ
Ġdistin cte
Ġimobil ului
Ġmaghi are
ĠPlat forma
ĠdeÅŁe urilor
Ġma ke
sea sca
Ġadun ate
Ġsatis fÄĥ
si va
Ġinforma tice
Ġdecla rate
Ġcapa bile
Ġcola bora
ĠstÄĥpÃ¢n ire
ĠAnt oni
ĠM P
Ã® ni
ĠRe feritor
ĠTele kom
ĠsÃ¢n i
ĠStÄĥ pÃ¢n
Ġfinan Å£at
ĠMÄĥ rÄĥ
ĠRo dica
ĠÃ®mprumu turi
Ġre formÄĥ
Ġne w
ĠBasara b
ĠcreÈĻ tini
Ġcau tare
Ġ9 4
ĠGene va
n iei
Ġde vice
Ġgimna zi
ĠSebe ÈĻ
Ġne sÄĥ
Ġaduce rea
Ġtex tile
Ġcontribu ÈĽia
ĠAsia tic
Ġchirurgic ale
ĠE caterina
Ġconsul taÈĽi
an cÄĥ
me u
Ġpoe ziei
Ġsuplim ente
Ġpo state
Ġsp o
ĠÃİn Å£ele
ĠTur nul
ä¸ ī
ĠTeri torial
ĠA ÈĽi
Ġse tÄĥrile
Ġfor ÈĽei
Ġinstan ÈĽa
ĠÈĽin Ã¢nd
ĠcreÅŁtin ii
Ġfrontie ra
j ing
ori cÄĥ
Ġeste ticÄĥ
ÈĽion alitate
ĠÃ®ntÃ¢mp inat
Ġimagin ilor
Ġacord uri
ci uni
ĠSc and
ĠcunoaÈĻte m
Ġnavi gare
Ġchirurgic alÄĥ
Poe zie
Ġdu cea
Ġvo lei
Ġpara metri
Ġsenza ÈĽie
Ġimpresion ante
Ġla ser
Ġin ta
Ġr Ã®
Ġromane sc
fav ora
m ing
be scu
Ġpicioare lor
Ġgar ni
Ġgale rie
Ġsecole le
si Å£i
ĠO pri
ĠÅŁti inÅ£a
Ġretra gÄĥ
ĠElve ÈĽia
ĠP lu
ili u
Ġacea st
ĠÅŁef ului
s si
ĠT y
chi p
Ġiubi tor
Ġvea c
Ã¢n tului
Ġgre ci
ss en
Ġfrag ment
Ġrot un
Ġcole gul
g ali
ĠÃ®ntÃ¢lni te
ĠEl iade
ĠBene fic
ĠSunte ÈĽi
B B
de zvol
Ġcompeti Å£iei
ĠSec Å£iei
Ġincre dere
ĠCapi tala
la c
Ġmor tal
Ġsecre tÄĥ
ĠBote z
Ġf ant
Ġalb ine
ĠcÄĥsÄĥ toriei
Ġi r
ĠTe odo
Ġdesc en
duri i
ĠTur ciei
ĠschimbÄĥ rii
an un
ĠBu cÄĥ
loc k
IO NAL
ĠÅŁi r
ĠIn c
Ġtra gic
Ġrecu perat
ĠÃ®ntoarce m
teri a
ĠmÄĥs oarÄĥ
Ġdescoperi m
Ġagen Å£i
Ġcompon entele
Ġvers urile
Ġcontac tat
S p
Ġstat ui
B ra
Ġjude ca
Ġat om
ĠcÃ¢ inii
Ġeviden te
Ġiar ba
Ġperson alizat
ĠCar tier
ĠcontinuÄĥ m
Ġportoc aliu
ĠVolks wagen
Ġob ses
Ġlocali tÄĥÈĽile
Ġs fe
oase le
ĠformÄĥ rii
Ġparlamen tarii
Ġgar dul
Ġre face
ĠI t
Ġgenera li
Ġge opoli
Ġintele s
Ġinspi rate
en Å£ii
ĠB l
ap py
Ġconsil ierilor
ĠÃ®n e
Ġlocu inÈĽÄĥ
mp on
Ġco fe
Ġlocal nici
ÅŁi Å£a
ĠmaÅŁ inii
Ð½ Ð°
ĠlÄĥs atÄĥ
p tului
ĠÃ®n ne
Ġmar o
ĠDum neav
ĠCom and
ĠÃ®nc arce
Ġcontinu tul
ĠgrÄĥ sim
ĠD l
Ġpre ponde
Ġk a
Ġcombina Å£ie
ĠgreÈĻe li
ĠTÃ¢rgovi ÈĻte
Ġre taile
ĠV ai
Ġ198 7
ĠOb ser
Ġpre cau
Ġper tur
ĠSu ma
Ġecran e
Ġferm ieri
ĠÃ®nde m
ke y
ĠcÃ¢ÅŁti ge
ĠAi ud
Ġvehicule lor
Ġghea Å£Äĥ
ĠFul l
z na
ĠCu gir
Ġprote ctie
Ġstrate gicÄĥ
bel icÄĥ
Ġtendin ÈĽa
Ġsmeren ie
g ri
g au
Ġma ternÄĥ
Ġme sei
Ġam ator
Ġdi se
tan as
ĠMun tenia
Ġredu cÄĥ
Ġrezolv are
Ġhard ware
Ġcon vers
Ġrela tat
Ġch a
Ġgh ini
infla mat
ĠÃ®mp uÈĻ
Ġnor mÄĥ
ĠpÄĥtra Å£i
Ġterapeu tice
ui oc
Ġro stul
Ġachizi ÈĽionarea
Ġconferin ÈĽa
Ġtendin Å£a
ĠIn tre
Ġfin is
ĠDomnul e
ĠArhi va
Ġprovo cÄĥrile
ĠEnerg ie
e stul
ses erÄĥ
Ġfilmul e
Ġglu me
Ġex tind
ĠCon turi
vil le
Ġstimul a
Ġunivers ului
Ġ \
ĠE volu
Ġcom od
Ġta tua
ĠgreÅŁe li
Ġbomb ard
Ġg ang
Ġveni ÈĽi
Ġ9 1
ĠbÄĥr bÄĥ
Ġief tinÄĥ
L um
Ġci re
Ġh ot
Ġnea utori
Ġcompeti ÈĽii
Ġci tind
Ġsim ti
ĠJava Script
pte ze
ĠplÄĥti tÄĥ
Ġexperimen tat
Ġcur ricul
ris mul
Ġui tam
Ġbate rii
Ġomeni rea
Ġduhovnice ÅŁti
å ľ
Ġor alÄĥ
Ġintamp lat
Ġbre ve
ic at
zi at
ĠK u
ĠsÃ¢n ii
Ġtre izeci
Ġaf il
ĠDrep turilor
Ġacumul at
Ġcon comitent
Ġsta bilÄĥ
Ġsem neze
Ġvol anul
Ġnum im
Ġmuze e
Ġemo ÈĽional
Ġdub la
Ġpacien Å£ilor
Ġ ÈĽii
cu rÄĥ
Ġsurprin zÄĥtoare
Ġasocia Å£ii
ve lul
Ġechip amentul
m urÄĥ
enta i
Ġspectacul oasÄĥ
Ġdisp arÄĥ
Ġvorb ele
ĠrecomandÄĥ rile
ĠComuni tatea
Ġexcesi vÄĥ
Ġace stÄĥ
rac k
Ġconfrun tat
Ġaferen tÄĥ
Ġment ine
ar us
ĠÃİn Äĥl
Ġexplo atÄĥ
Ġamuz ant
Ġlesbi ene
p pe
Ġnevoi Å£i
ĠPus sy
e ar
NÄĥ sÄĥud
ĠErdo gan
r Ã®n
Ġde venim
Ġar mele
ĠrÄĥ scumpÄĥ
Ġrespec tÄĥrii
ĠPers oana
Ġocup are
ic s
âĢĻ âĢĻ
ĠÃ®ndepÄĥr tarea
ĠÈĻedin ÈĽe
c ologie
en tare
Ġco operÄĥ
ĠRomÃ¢n i
Ġso ia
Ġautom ate
ĠSal v
Ù ħ
ĠIn ci
S tu
ui ala
Ġpierdu tÄĥ
Ġvoie v
ĠMem ori
AL E
Ġimpozi tele
ĠaÈĻtepta m
ÅŁti le
Ġchi rie
Ġdor inÈĽÄĥ
Ġdef en
ĠsÄĥrbÄĥ tore
ĠÃ®mpÄĥrtÄĥ ÈĻi
Ġpreziden ÈĽiale
Ġcum inte
Ġ9 7
Ġconvin sÄĥ
Ġca fe
ÈĽion ala
Ġra zele
ĠCerce tÄĥtorii
Ġhomosex ual
ĠSilv ia
Ġo ce
ĠLuxe mb
á »
ĠplÄĥ ci
ĠSocie tÄĥÈĽii
ri g
ti erul
Ġg arde
Ġno tificare
Ġro bu
Ġpla cul
Ġparteneri ate
a h
Ù Ĭ
Å£ion alitate
ĠCru ce
o de
sti ei
ĠLi v
ĠrugÄĥci unii
ĠTeodor ovici
ĠTe ma
Ġtit lurile
Ġcircum scrip
ĠClub ului
Ġn ic
ĠA Å£i
Ġpa pu
ĠÃ®nÈĽele gi
Ġpension are
di ta
Ġexi gen
Ġstructura le
ĠSfin tele
Ġviru sul
Ġpre zi
li gen
Ġgre co
Ġmode rat
Ġeduca Å£ional
ĠAmbasa dei
ĠP Äĥr
Ġproce dat
ĠS tro
ĠG R
Ġfe mini
Ġconsta tate
ĠneÃ®n Å£ele
Ġmodali tÄĥÈĽi
P er
Ġde ÈĻ
Ġi ute
Ġga sesc
Ġr Ã£
ĠTransni stria
ta torii
an c
Ġal fabe
Ġne corespun
ĠOra ÈĻul
A gen
p to
.. ...
po re
ĠÅŀ oferul
Ġdor nici
Èļ IE
Ġdator at
Ġamuz ante
Ġanticip ate
Ġp oalele
Ġulti mului
Ġpompie rii
Ġe vanghe
Ġfacul tatea
Ġreda ctor
ici ul
Ġmin u
Ġade rarea
ĠÃ®ntÃ¢mp inÄĥ
Ġcome mor
Ġup date
Ġnumeroa sele
on ilor
Ġpo starea
Ġcomp licate
Ġfund amen
Ġunivers ale
Ġre forme
Ġexpozi ÈĽia
Cent rul
à ®
Å£i at
Ġno t
da c
Ġinforma ticÄĥ
Ð» Ð°
Ġaloc area
ĠP ante
ĠEuro vision
ĠpregÄĥ teascÄĥ
TE NT
Ġgesti une
Ġnutri tive
ĠHol ocau
Ġfotografi at
rÄĥ rilor
Ġdate i
Ġec ologicÄĥ
ĠÃ®nÄĥ untru
Ġm ute
Ġcri stal
Ġurban ism
ĠAutori tÄĥÈĽile
Ġne favora
ĠK os
und at
Ġangaj amentul
Ġlac tate
âĢĿ âĢ¦
Ġinfrac Å£iunilor
Ġministe rul
T rans
Ġorgan ice
Ġofer telor
ĠConstantin opol
ĠPÄĥrin Å£ii
ĠBur sa
Ġt onul
Ġmi ting
Ġdep ind
ĠCre ÅŁtin
Ġincep and
Ġprogre sul
Ġdemni tatea
Ġma gic
Ġsolu tie
ĠiniÅ£ia tive
Ġilum in
Ġabd omin
Cite ÅŁte
Ġtradi ÈĽia
Ġur gent
Ġpromo vÄĥrii
zu Å£i
ĠIn sa
lo ween
ĠÃ®mpo tri
Ġtox ice
ĠuÅŁ oare
Ġreme diu
tex tul
tura re
ĠEx act
Ġstr Ã¢m
Ġde ÅŁte
Ġpo te
Ġdiver selor
ster n
Ġpriete ne
Ġde cer
ĠMoldo van
Ġproces are
ĠStrate gia
se y
ĠarÄĥ tÄĥm
ĠÃ®nvÄĥÅ£Äĥ tura
Ġpens ia
spÄĥ im
ĠMaÈĻ inÄĥ
Ġcul tiva
Ġum Äĥr
ER S
V C
Ġc iz
Ġb rune
ĠCh ine
Ġc roa
Ġcre me
ĠH ara
Ġcuprin d
Ġlucra ri
ĠS cu
ge d
Ġme mor
ĠO k
Ġpro zÄĥ
I NA
Ġi rita
Ġdure ros
ĠC amb
ĠBa calaureat
Ġascul tare
Ġciu datÄĥ
Ġputin Å£Äĥ
E xistÄĥ
Ġma tern
Ġcomun ism
Ġvin ovÄĥ
ĠoraÅŁ ele
ãģ ®
Ġmecan ismul
Ġposibili tÄĥÈĽi
f urt
ti zate
Ġdescoperi ri
Ġclim at
Ġcon junc
Ġdeclara ÈĽia
Ġobliga ÈĽi
Ġgesti ona
Ġinculp atului
ĠH as
nÄĥ scut
Ġdes k
Ġmen ÈĽin
Ġecran ului
Ġcomi si
am in
Ġtransp une
Ġconta cte
Ġa bilitatea
ĠR CA
Ġia d
Ġrezi stat
Ġcalcul eazÄĥ
Ġanaliz ei
ĠF A
Ġdes curaj
Ġdistribui te
Ġcu re
ran ii
ĠZ en
Ġroman Äĥ
ĠproducÄĥ torului
ĠSlo ven
ĠNoa ptea
Ġfarme c
V ia
ÈĽ elul
at Ã£
de la
Ġfi inÈĽÄĥ
ĠpÄĥ reau
Ġarticole lor
ĠCÃ¢mp ulung
Ġrat ing
li pul
Ġcana pea
. ;
Ġorigin ar
Ġcombate re
D S
æ Ĭ
gan t
Ġlun arÄĥ
Ġsti m
Ġremarca bile
Ġmo toarele
Ġzah ar
ĠdispÄĥ rea
Ġetiche ta
ĠE V
Ġmon tarea
Ġbe st
Ġcandida Å£ii
Ġcif rele
i se
Ì ¦
Ġpu tre
Ġpere tele
Ġdie sel
g ilor
Ġdo tatÄĥ
co peri
Ġba zei
Ġanti chi
Ġexpozi ÈĽii
Ġconsecin Å£e
ĠQ ue
ĠCÃ¢mp ia
ĠTira sp
Ġvede ta
Ġciti torul
Ġaprec ierea
Ġa urul
on in
ĠRe cep
ĠBa sescu
Ġplat formei
ĠslÄĥ bit
X X
Ġe ficaci
ĠR og
Ġfin alizate
Ġstabili tatea
Ġec ologic
Ġrenun Å£Äĥ
ĠSchen gen
Ġde vasta
ĠT ari
Ġmili tarii
Ġafi ÈĻa
ĠveÅŁ nic
ĠzÄĥpa da
zi rea
ĠbinecuvÃ¢n tare
ĠMedic ul
ĠDrep turile
Ġfili ala
ĠExp lo
Ġata ÅŁ
Ġcondamna Å£i
ra Å£ii
ia sca
ĠÃ®nc lina
Ġsupra ve
Ġameste cul
ĠmanifestÄĥ rile
Ġbilate rale
cu Å£i
f ond
ç ½
Ġs tere
Ġto pi
Ġmi r
Ġmon stru
Ġple nul
Ġver nisa
Ġge ometri
Ġconserv area
CC J
ĠBuch arest
ĠI o
Ġpar cului
ĠA J
Ġvis eazÄĥ
ĠÅ£in tÄĥ
Ġatitu dini
Ġtrage die
Ġtun s
Ġdru me
u res
Ġde ni
Ġm uni
Ġfi guri
Ġdo bor
Ġas ume
Ġsti pul
Ġero i
Ġrul a
Ġfeti ÈĽÄĥ
ĠWi ki
Ġsuro ri
Ġferovi ar
Ġne sp
Ġpa ÅŁa
ĠPro cur
ĠCo stel
ĠtÃ¢nÄĥ rului
Ġdialog ului
Ġcre stin
Ġru brica
Ġmar gine
Ġdem ersul
Ġet nice
Ġiden tice
Ġ ÈĽie
Ġnor oi
Ġpsih icÄĥ
Ġprincipi ului
ĠpÃ¢n zÄĥ
Ġmanagement ului
F il
ĠU z
Ġloc omo
ĠAd or
Ġspecific ul
ui alÄĥ
tan ul
ĠRo bu
Ġfic at
Ġfanta stic
ĠWillia ms
ĠE ÅŁti
he re
ĠMa cron
ĠcÃ¢te odatÄĥ
ĠLe gen
ĠJandarme riei
v ro
ĠH IV
Ġchi ria
ster dam
Ġfoc ului
Ġbeneficia rilor
ĠCultura lÄĥ
ĠTex tul
Ġelibe rate
ort h
roa d
Ġamp le
Ġfan ilor
ĠS ima
Ġprincipal ii
Ġpreocu pa
ĠcopilÄĥ ria
Ġadau gi
Ġabu ziv
g li
Ġp anÄĥ
ĠL imi
Ġprezen ÈĽÄĥ
ĠMa covei
Ġachi te
Ġintegra tÄĥ
Ġpersonaje lor
ici te
Ġposibil ul
mÄĥ m
ĠStu diile
Ġrecu pere
Ð» Ð¸
a ÅŁa
ĠcÄĥ mÄĥ
me dic
Ġfi ti
Ġprote stul
Ġsuper bÄĥ
Ġadau gat
Ġ2 30
Ġdec ent
Ġopri re
ĠPÄĥrin Å£i
ĠIul iu
Ġduhovnice sc
ĠC uri
Ġspor turi
Ġexclu de
ĠZa haria
ĠConferin Å£a
ĠLEG E
Ġin existen
Ġcre ion
Ġsovie ticÄĥ
Ġsfer turi
sti cul
ĠBra d
ĠHotÄĥrÃ¢ rii
Ġrepara Å£ii
ĠmÄĥrf urilor
Ġl ut
Ġmon taj
Ġhi ro
Ġsimp lul
len ii
Ġtable ta
ĠMÄĥr turi
ui ri
Ġsp orit
Ġsar cinile
Ġfin aliza
ĠX IV
Ġrepe ta
Bi se
ÅŁ al
Ġt ort
ĠU L
Ġor al
Ġlocu ieÅŁte
Ġatra gerea
Ġï Ĥ
Ġcupl uri
Ġfigu reazÄĥ
g men
ĠsÄĥ turat
Ġpro stie
ĠIn tr
ĠZ im
Ġlin iei
Ġemo ÈĽie
ĠMo del
Ġciti te
Ma ria
Ġalterna tiv
Ġnegocie rile
ĠCip ru
il uia
Å£i Å£i
Ġso diu
Ġvizi teazÄĥ
ĠAN RE
ĠMA E
M AN
Ġtari fele
ĠpoliÈĽi st
Ġnop ÈĽi
Ġrelie f
ÅŁ ele
Ġop tat
ĠMan chester
! âĢ¦
ĠS oli
ga ra
Ġase man
ĠX III
Ġpromi siuni
h eazÄĥ
ĠC y
Ġdec lar
Ġcomple tatÄĥ
ĠHor oscop
Ġde libe
ĠM ol
Ġj en
Va sile
Ġna tal
Ġvii toarea
ĠIma ginea
Ġdetali at
ĠconÈĽinut ului
Ġfa s
Ġcop ia
Ġrespectiv ul
De zvol
S te
ĠIn sula
Ġdis cer
ĠmÃ¢n cÄĥm
Ġconfrun ta
Ġneobi ÅŁn
ĠBi o
ĠjudecÄĥtore ÅŁti
Ġ- --
ĠPe t
ĠSc rie
Ġcomp licatÄĥ
tura te
O am
Ġc lor
Ġurma te
Ġobli gatÄĥ
Ġdistru gÄĥ
Ġomen eascÄĥ
ri ght
Ġle asing
Ġadu ci
ĠneÃ®n tre
ĠmiÈĻ cÄĥri
ĠvÄĥ tÄĥ
Ġactu alizate
Ġachizi Å£ii
ĠNoi le
Ġpresti giu
Ġdom inat
ĠtÄĥ l
ĠlÄĥ un
ĠSen atul
C ur
S tar
Ġb er
Ġbuge tarÄĥ
Ġcolo ane
ĠBrÄĥ tianu
ĠA dÄĥu
Ġproce de
Ġantren amente
Ġimposi bilÄĥ
Ġd Ã¢ndu
ĠPetro m
Ï Ĥ
Ġevi tat
ĠClip uri
ĠS ime
Ġpublic are
Ġban c
Ġangaj ament
Ġpromo vate
Ġcomb inate
ĠmeÅŁte ÅŁu
ĠB ot
Ġinterpre ta
Ġexper Å£i
Ġpre tind
cea fÄĥrul
Ġesen ÈĽialÄĥ
Ġpropor Å£ie
ĠspÄĥ la
Ġcondamn are
ĠRe gia
Ġfap tei
Ġpla stice
ĠÃ®nain tat
ĠMa ia
Ġ5 000
Ġini ÈĽie
Ġpreocu pat
ĠP ul
ĠOr chestra
ĠConstitu Å£ia
y i
ĠPre Å£ul
Ġdirec tori
ĠÅ£i gÄĥri
ĠÃ®ntreprin dere
Ġsimbol ic
Pri mÄĥ
ĠGale ria
Ġde tin
ĠF lirt
Ġprezen Å£Äĥ
Ġsecre tari
ju tor
Ġasocia Å£iei
ar do
ĠS ute
ĠR oa
ĠCrea mpie
Ġcami oane
Ġc luje
Ġmen Å£in
Ġcertific are
Ġcandida Å£ilor
Ġatribu Å£ii
Ġofi ÈĽe
ĠlÄĥu da
e an
Ġlegi time
Ġalimenta ÈĽie
Ġbl Ã¢nd
ĠÃ®n dul
stitu ie
Ġinvesti Å£iilor
Ġarhi va
Ġrol urile
Ġfilosof ie
at ru
dÄĥ j
Ġsur selor
Ġdiscu ÈĽiile
Ġinspi rÄĥ
ĠnaÈĻte rea
ne alÄĥ
Ġur ce
Ġo Å£el
Ġpoli ÈĽia
Ġlemn ul
Ġder mat
S im
ĠM E
Ġan alog
ĠH TC
Ġbi f
sion alÄĥ
Ġconte mp
ĠComp aniei
ĠÃ®ndepÄĥr teazÄĥ
Ġex il
Ġtre burile
Ġba i
ĠMar Å£i
Ġspitale le
ĠCom an
Ġjude ÈĽele
Ġbun icul
Ġrez on
Ġcuno ÈĻti
ĠmiÅŁ cÄĥri
Ġapreci atÄĥ
Ģ å
ĠC RE
Ġcul care
Ġinde x
Ġclas amentului
Ġvizu aliza
ĠamÃ¢nd ouÄĥ
S erv
ĠR olul
Ġpu ÈĻcÄĥ
Ġlu am
ĠPat ron
Ġpreven tive
ĠrÄĥm Ã®ne
D U
ÈĽa ÈĽi
Ã¢n ga
Ġet nie
Ġscru tin
P or
j en
l la
iz orul
Ġciti rea
ĠÃ®nche ierii
ĠdesfÄĥÈĻura tÄĥ
v rÄĥ
Ġfi icÄĥ
Ġprece dente
ĠFeci oara
m im
ĠÃ ł
ĠJ ohan
Ġna stere
ĠVene Å£ia
ĠfÄĥ p
use m
Ġsesi zarea
ĠB lan
Ġdepar tamentul
Ġcon ge
b r
ĠpÄĥ trat
Ġurma ri
ĠPer forman
Ġdatori ilor
Ġopera torilor
ĠalÄĥ turÄĥ
Ġcuprin zÃ¢nd
ĠChri stian
Ġ19 20
Ġabsol vent
ĠÃ®m bu
si oneze
Ġta inÄĥ
Ġvinde cat
Ġexpozi ÈĽiei
Ġven til
Ġtelevizi unea
ĠEvenim ent
ĠHumani tas
ĠB ica
ĠBÄĥ lan
ĠÃ®nchis oarea
Ġcorp uri
Ġviolen ÈĽÄĥ
Ġpreocu pare
Ġlingvis tice
Ġal ti
gi rea
Ġinten ÈĽioneazÄĥ
Ġbuzun are
ĠBÄĥl ÈĽi
Ġsince rÄĥ
al len
inte ni
TE N
Ġcompor tÄĥ
f iere
Ġse tul
ĠRomÃ¢n ie
ĠRe sp
Ġpol uare
Ġabord ate
Ġde tri
ÅŁ cu
Ġsta diu
cre di
Ġcro i
ĠÅŁ ar
Ġaten tie
Ġconf uzie
Ġacu ma
Ġsupre mÄĥ
da s
Ġdiversi tatea
c f
ĠE vent
Ġmi rac
Ġspune ÈĽi
Ġungh ii
ĠCerna vodÄĥ
Ġfor te
Ġrol ului
Ġsensi bilitate
c il
ÈĽ ene
Ġse jur
ĠM erge
Ġ10 5
sion ale
Ġver sa
Ġne va
Ġac Å£ionat
mi re
ĠÈĻ oferul
Ġbile tul
ĠJurispru denÈĽÄĥ
Ġau stra
ĠR onal
ĠEn ter
ĠDor u
ĠAne xa
å± ±
s eazÄĥ
ĠschimbÄĥ m
Ġbine cunos
Ġprote stan
Ġcomportament ului
ĠcÄĥ utÃ¢nd
ma tici
Ġcan on
ĠgrÄĥ tar
Ġnucle ar
ĠGale rie
Ġpreala bilÄĥ
Ġmo bilitate
ĠConsi der
ĠLi p
Ġseri ozitate
ge rie
Ġc lan
ch el
Ġdenumi re
ĠAng liei
Ġantioxi dan
ĠTe of
Ġdefini tive
Ġt run
Ġrezul ta
ĠNi stru
ĠÃ®nvin ge
Ġbenefici ar
Ġrul eazÄĥ
ĠAr he
ĠC R
ĠCom bate
Ġaccesi bilÄĥ
ĠgrÄĥdini ÈĽÄĥ
ĠP ru
Ġve cini
Ġmu c
Ġtransp ira
Ġaccep tatÄĥ
Ġefe ctivÄĥ
Ġspune Å£i
Ġexpi rarea
Ġexcurs ii
Ġpu ÅŁcÄĥ
ĠRea ding
Ġshe male
ĠM oc
ÑĤ Ð°
ĠÃİnt rucÃ¢t
Ġpe te
ĠAl iluia
ĠMÄĥ sura
ĠApost oli
ĠAR T
ĠOfer ta
ar bÄĥ
ĠT is
C N
ĠF is
Ġpl oaia
bra lÄĥ
Ġvirtu ale
ç İ
Ġ19 60
ĠPa ÅŁte
Ġape leazÄĥ
Ġbiro ului
Ġfrontie rei
ĠPenitenci arul
Ġpa riu
Ġw as
I LE
s atÄĥ
Ġon or
Ġmuze ului
ĠOrganiza ÈĽia
Ġdrep tatea
Ġin cur
ĠG r
ĠÈĺ colar
Ġachi tarea
ĠjucÄĥ toare
Ġero ilor
ĠSch ool
Ġje f
Ġdedic a
Ġchesti a
Ġargum entele
ci tat
ĠD al
Ġsubiect ului
Ġfacili tÄĥÈĽi
ĠÃ®nÅŁi ÅŁi
" ;
ĠpÄĥ durile
ĠOra ÈĻ
Ġpublici tare
Ġblog uri
Ġetiche tat
ĠÃ®nregistrÄĥ rii
Ġb au
Ġfi del
ĠpregÄĥti rii
Ġintro ducere
Ġocup atÄĥ
ĠMaj or
un os
den Å£ei
Ġru tie
Ġveri ficate
Ġcompa ct
Ġactive lor
Ġcotidi anul
ui tul
is tii
Ġte l
Ġmi xt
ä¸ Ń
Z ile
Ġimpozi telor
Ġnes chim
F E
Ġin imi
Ġapar ta
Ġinti mÄĥ
Ġintrodu sÄĥ
ĠconducÄĥ tori
Ġbritan ici
Ġviteze i
ĠL ua
Ġtru pÄĥ
Ġcapaci tÄĥÅ£ii
Ġ198 5
Ġproduc ÈĽiei
ĠnerÄĥb dare
199 8
ĠRegul ament
ĠdescÄĥr ca
Ġcon tur
ĠpÄĥca telor
ĠSor oca
Ġfacili tÄĥÅ£i
ĠÃ®ntre be
Ġz icÄĥ
Ġade varul
t ona
ĠF ore
ĠTri mite
Ġaci zi
Ġconserv are
ĠAsisten Å£Äĥ
ĠÃ®nsoÅ£i tÄĥ
Ġcredincio ÈĻi
Ġdiagnosti cul
ĠE par
do uÄĥ
Ġechip amentele
ĠProfe sor
ĠL ic
Ġsp al
ĠW o
Ġprote stele
pro fit
ĠComun ica
d ana
Ġcon stÃ¢nd
men tarÄĥ
Ġesen Å£ialÄĥ
Ġtera sa
Ġpartener ului
Ġde ÈĽinut
ĠsÄĥ mÃ¢n
Ġobliga ÈĽiile
ĠStele i
s ing
Ġp in
Ġdis cute
ĠCa zul
ĠPro mo
Ġcri ze
Ġrepe t
Ġachizi Å£ionarea
ĠcÃ¢ÅŁti g
ĠRu tier
ĠRegi onalÄĥ
Ġrezerv at
Ġtron s
S u
ĠÃ®nt ind
car ui
Ġconfor tabilÄĥ
Ġindic ate
Ġparcur ge
Ġe ÈĻ
ĠCon tribu
ĠHo ta
Ġrenun ÈĽe
ĠÃ®nfÄĥ ptui
S pe
ĠA sc
Ġveri ficÄĥri
Ġgru pele
Ġsemin Å£e
ste rea
Ġfa st
ĠPa ri
ĠAnd ra
ĠSuce vei
Ġm Ã£
Ġun ici
Ġad une
Ġga zon
ĠbÄĥie ÈĽii
v ilor
Ġpreluc rÄĥrii
ĠaÈĻtep tare
f ri
inÄĥ ului
ĠLe s
Ġ11 5
Ġagen Å£ia
Ġn octur
ĠRe sponsa
Ġdu sÄĥ
Ġturi ÅŁtii
Ðµ ÑĢ
ĠSy stem
Ġscenari ul
Ġal bi
Ġsu pa
ĠÄĥ ÅŁtia
Ðº Ð°
ĠbÄĥtÄĥ i
ĠSE O
ze ÅŁte
pa s
tra te
ĠSer vi
Ġcuan tum
h is
Ġpo tabilÄĥ
am iaza
ĠL or
Ġli tru
Ġse du
Ġar mat
ĠÃ®mp in
ĠAl bert
ĠÅŁ oferul
ĠVor bim
Ġexpres ii
Ġdefec te
Ġsecon d
Ġun icul
ĠgrÄĥ bit
Ġpolitici enilor
ĠdezamÄĥ git
Ġare starea
ĠdesfÄĥÅŁ urÄĥrii
ĠPlan ului
Ġimp rovi
Ġatin g
9 00
Ġpa ÈĻii
Ġrecen zie
ç »
ov an
ĠAm sterdam
ĠClau dia
ĠrÄĥdÄĥ cinile
ĠParoh ia
Ġca cao
Ġmini ster
Ġdiscu tate
ĠÃ®nca sat
Ġexpozi Å£ii
Ġcoc k
Ġprima rii
Ġcomb inat
ĠÃİntÃ¢l nirea
s ind
Ġdiversi tate
ĠdescÄĥr care
ĠouÄĥ le
Ù Ħ
ca se
ĠG Äĥr
ĠreÃ®n noi
Ġtablo uri
Ġcoe ren
Ġterori ste
I ar
ĠrÄĥ ului
Ġorganiza ÈĽiile
Ġpara zi
ĠÃ®ncuraj at
ĠPrincip alele
Ġviza vi
Ġegi da
Ġde vi
ron ica
ĠBÄĥ ile
Ġsolu Å£ionarea
Ġcorup Å£iei
ĠAcces at
ĠPopul arÄĥ
Ġf ana
ĠAdministra ÈĽiei
ĠCoopera re
p ilor
Ġre pre
Ġtera pia
ĠÃ®ndepÄĥr tate
Ġcurio zitatea
ch ine
Ġva stÄĥ
Ġactu alizat
Ġperman enÅ£Äĥ
Ġbran dului
Ġvalor os
Ġasigur Ã¢nd
ĠnumÄĥ rat
Ġ198 8
Ġcabine tul
ĠamÃ¢n at
ĠTex as
ĠRevi ste
si st
ĠMi rela
Ġuni tÄĥÈĽilor
ĠpregÄĥ tim
Ð¾Ð ¹
Ġimen se
Ġal uat
Ġru sesc
Ġui mit
gn at
P U
ale i
Ġ197 7
ĠÃ®ndrum area
te st
Ġo c
Ġla ol
Ġsub Å£ire
Ġderul are
Ġexplo zie
Ġinspi ratÄĥ
ĠadÃ¢n cÄĥ
ÈĽ enii
ni ÈĽa
lemen tare
Ġpremi at
Ġlovi tÄĥ
Ġexplica Å£ii
å Ĳ
ĠA la
Ġape luri
Ġreprezentan ÈĽilor
Ġfavori t
Ġtempor are
Ġrot undÄĥ
Ġelectrici tate
m iei
ĠCo ali
j uri
to i
ĠmÄĥ rit
cep ut
Ġru ÅŁ
Ġpor tal
Ġru c
Ġcoa sta
ĠTer ra
Ġrelev ant
Ġvan zare
Ġimposi bilitatea
s ky
Ġsin ceri
C ÄĤ
in fo
Ġfi inÅ£ei
ĠNic ol
ĠrÄĥb darea
Ġsepa ratÄĥ
f ar
ĠA k
Ġal gorit
Ġdi le
Ġmu tarea
Ġformat ul
Ġpose dÄĥ
p lus
in oase
Ġrecomand are
Ġintr Ã¢nd
ĠmÄĥnÄĥsti ri
ĠStruc tura
cu ÈĽi
Ġefe ctive
ĠgrupÄĥ rii
ĠÃ®n spÄĥim
Ġloca ÈĽii
T U
ter ului
ĠÃİn ÈĽele
pa d
ĠArhiepiscop ul
' ',
Ġcan ton
ti unea
Ġpre gate
Ġex pul
Ġav ute
ĠJ im
** **
ne anu
Ġceilal ti
åĽ ¾
ĠS N
Ġli brÄĥ
Ġta rii
Ġincon ÅŁti
ĠCon fe
Ġjuri ului
Ġatribui rea
Ġminci uni
Ġpiz za
Ġs oma
ĠâĢ °
Ġsp u
Ġfal im
Ġauz im
S N
ĠG ir
ĠAn ului
Ġmon tane
Ġexisten tÄĥ
ĠrÃ¢ u
ĠCara ÅŁ
Ġexac te
ĠA ver
ĠadÄĥuga ÈĽi
Ġtraduce ri
ĠB ai
ĠÃ®ncÄĥ pere
ĠÃ®mpre una
Ġbloc area
Ġscri sul
Ġalo curi
Ġt ricol
Ġli stei
Ġk it
De ci
ce la
ol ilor
Ġcapa c
O ra
ç Ķ
ĠP ele
Ġta vÄĥ
Ġpoli ÈĽiei
no va
Ġferici rii
Ġsan ge
Ġcunoscu Å£i
Ġpreva zute
Ġintera ctive
v ina
ĠÈĻi r
ĠrÄĥni ÈĽi
Ġroa ge
ĠAss ocia
Ġ }
ĠR on
Ġtema tice
ĠmÄĥnÃ¢n c
Ġrezolu ÈĽie
ĠA di
Ġci vicÄĥ
Ġeduca Å£ionale
Ġflexi bil
p k
Ġma fi
ĠrÄĥ ce
ĠHotÄĥrÃ¢ re
Ġie sit
Ġvar zÄĥ
ĠEvanghel iei
ĠfiÈĻ ier
S ub
Ġc ora
In ter
Ġagen ÈĽi
Ġmate rii
Ġadolesc enÈĽi
Ġcoc oÈĻ
Ġgimna sticÄĥ
s oci
ĠStÄĥ n
Ġimbuna tati
ĠTre ime
Ġperman enÈĽÄĥ
gu rele
Ġinvesti ÈĽiilor
ban k
Ġdesen ate
Ġplani ficare
Ġcampi oana
ĠÃ®mbÄĥtrÃ¢n ire
Ġabs enÅ£a
ĠGro za
Ġposibili tÄĥÅ£i
Ġimobili arÄĥ
ĠA ÈĻte
ĠH ora
Ġincom peten
b ic
Ġconstitui te
Ġconsili u
Ġ( âĢľ
ĠNi stor
Ġdesemn area
Ġceram icÄĥ
a ÈĻa
Ġsolu tii
r oni
Ġc im
ĠD ate
ĠÈĺ tiri
Ġrenun ÈĽÄĥ
ĠProce dura
Ġdiscon fort
Ġce rute
Ġna tiv
ĠBise rici
Ġaler gare
Ġdumneze iascÄĥ
Ġcuantu mul
ĠcÃ¢ inele
Ġinsi stat
Ġumi ditate
Ġelve Å£i
Ġe d
che ze
Ġcere sc
Ġaten tia
Ġlocu inÅ£a
Ġconsul tant
Ġcami on
bor area
ĠCal cul
Ġpermi siunea
ĠFron tierÄĥ
Ġbacte rii
a bia
ĠSÄĥ i
ĠMu cenic
Ġcioc olata
de ce
zÄĥ pe
and o
Ġinf ar
Ġform al
Ġbat joc
ĠVie ws
ĠC lar
Ġaproape le
Ġimobili ar
ĠPorn star
Ġvalu tar
Ġneg ociere
ĠAna sta
ĠBucureÈĻti ului
Ġlec ÈĽii
Ġbibliote ci
ĠSergh ei
at Ã¢t
ĠU K
ĠAp ocali
ĠTo tal
Ġseri ale
Ġinstantane u
B U
tam ina
aliz ata
Ġ19 30
ĠÅ£in utÄĥ
ĠdobÃ¢n zii
Ġmix te
Ġva sele
Ġguvern area
I st
ĠA para
ĠT am
ĠW ell
Ġfil tru
Ġrepara ÈĽii
ĠGrÄĥ dini
Ġne ÅŁti
Ġav or
Ġextra ct
Ġconferin Å£a
Sun te
Ġfarme cul
ÈĻ ea
Ġstra tul
ĠÃ®ntune ricul
Ġdizabili tÄĥÅ£i
Ġparla ment
Ġdesk top
ti ale
pa da
Ġbucu rii
Ġexam inare
ĠÃİntre prin
Ġpor talul
ĠpÄĥtra ÈĽi
J A
a rii
Ġau strie
ĠplÄĥ Å£i
ĠrÄĥsp Ã¢ndit
seu do
T ot
ĠI er
Ġba ri
ĠSte lian
Ġs luje
sp od
Ġorganiza Å£iilor
Ġpreo Å£ii
ĠRe c
Ġopera Å£ii
Ġconsul tare
Ġterm ine
ĠConstitu Å£ionale
ĠPol oniei
J o
Ġpor tarul
Ġacu rate
S L
ĠP ens
Ġinvesti Å£iile
Ġroman ilor
amenta r
Ġvizi ona
Ġdure roase
Ġesen Å£Äĥ
Ġesen Å£a
Ġdar urile
Ġvie Å£
Ġtelef onice
Ġrezi dent
Ġdepune rii
chi de
Ġfel ii
Ġpro venind
Ġapa sa
Ġinstan t
Ġadap tarea
Ġmi ri
ĠTo ur
Ġsan gu
ĠVene ÈĽia
Ġan este
Ġcole cÅ£ia
ĠDo wnload
Ġcom ente
Ġrela xa
Ġuimi tor
S R
zi sÄĥ
ĠÃ®mp ins
Ġ19 17
Ġconsum ator
ĠÃ®ncÄĥlzi rea
ĠMedi teran
ĠE ta
Ġne gust
ĠG ali
Ġpor neÈĻte
Ġbun ici
Ġinforma tiv
Ġvizi teze
Ġliv ra
Ġpresup us
Ġprovin cia
Ġcapi tole
Å¢ A
Ġyo ga
å¹ ´
Ġpre turi
Ġvertic alÄĥ
tu os
ĠV atra
cum eni
ĠdÄĥ deau
Ġcapi tale
Ġchine ze
ç½ ĳ
Ġe mpa
Ġar dele
Ġav al
Ġinvesti torii
ĠTra ge
ĠVal ori
ĠTe re
ĠÅŁo feri
Ġadvers ar
ce rii
tu at
is ul
su fle
ĠDim potrivÄĥ
ea ma
ren ii
min area
ĠZ alÄĥu
ole t
ĠplÄĥ ÈĽi
ĠÃ®nve ÈĽi
t cedil
Ġse mÄĥ
Ġfo s
Ġorganiza ÈĽiilor
Ġnele gi
Ġdistri buit
ĠCere rea
ra li
ma de
Ġevolu ÈĽie
we red
ĠUrmÄĥ ri
p am
ti ste
Ġse diului
Ġcomp arÄĥ
ĠcÄĥpÄĥ tat
ĠAte lie
ĠpotenÅ£i alul
ĠRonal do
n or
z eascÄĥ
Ġv Ã®n
Ġmi sion
Ġser ve
d ard
ä ½
Ġsec ÈĽia
Ġcalcul atorului
Ġdistru gere
om er
ĠMa zÄĥre
ĠNic ulescu
Ġatelie rul
Ġtra tatÄĥ
Ġsta Å£ia
Ġade p
Ġmeni rea
Ġcarbu ran
oase i
Ġui taÅ£i
ĠnÄĥscu tÄĥ
Ġdistan ÈĽa
ĠOrganiza Å£ia
Ġucen icii
Ġdetri mentul
Ġb ei
Ġte stele
Ġfolosi toare
Ġturi ÈĻtii
Ġreac ÈĽii
Ġaver tisment
ĠvÃ¢nzÄĥ rilor
cep ti
Å£e ze
Ġspun Ã¢ndu
ĠBei jing
Ġdia metrul
Ġrezi du
ĠDu bai
Ġperseve ren
Ġd onat
Ġde fa
Ġidenti fice
Ġinterne tului
ĠcÄĥpitan ul
ĠI G
Ġro ti
Ġinvita ÈĽii
f ii
Ã¢ rea
ĠH on
Ġcontribu ind
or todo
Ġb ili
Ġpor ÈĽi
ĠschimbÄĥ rilor
que s
Ġautoh tone
A sta
P oate
ru se
Ġce artÄĥ
Ġpre da
ĠCom m
Ġfac turÄĥ
ĠÃ®nvÄĥ Å£
Ġprovin cie
ĠElect ro
ru rea
se ul
ĠF it
Ġlo w
Ġmultor a
Ġreglement Äĥrilor
ĠpÄĥstrÄĥ m
Ġe cumen
rec te
ĠVo icu
ĠNea gu
termin atÄĥ
Ġce ri
ĠR is
Ġapro fund
ĠvÃ¢r stele
ĠÐ ±
Ġmax ima
Ġconsecin Å£ele
er ve
Ġdrep te
ĠSindic atelor
ĠDumneav oastrÄĥ
Ġne feri
ĠIn clu
ĠromÃ¢n ul
Ġdu al
Ġorganiz atorilor
Ġter ÈĽe
Ġpracti cat
ĠTre bui
Pro zÄĥ
Ġbile telor
Ġam iazÄĥ
Ġcre n
Ġafla m
Ġgaran ta
me di
Ġcondi Å£ie
Ġden tare
Ġpomeni t
ci f
Ġmo i
Ġpie ÈĽe
Ġulti mei
Me dia
Ġte starea
mn ul
Ġzbor urile
t oa
Ġre mor
ĠL IVE
ona jul
Ġspul be
Ġdin Å£i
Ġprogra ma
ĠtrÄĥ ieÈĻti
Ġpan ou
Ġaceluia ÅŁi
Ġec le
ĠPropune rea
Ġdovede ÈĻte
Ġdigesti v
ĠDV D
ĠS luj
ctive i
Ġperforman t
Ġreglemen tate
ĠTehn icÄĥ
Ġopre ÈĻte
Ġorien tarea
u zÄĥ
Ġ ................
sc at
Ġdemers uri
Ġtrimi ÅŁi
ĠdeÈĻe uri
Ġimpoza bile
Ġm iza
ĠÃ®n ÅŁel
ber cul
Ġpracti cile
Ġrefle cta
ĠAten ÈĽie
ĠAntren orul
ĠsÄĥ lile
tÄĥ rie
ĠPre sÄĥ
Ġcorespun d
Ġcafen ele
ĠP sal
ĠE MI
ĠÅŁ osea
ĠAp rilie
ĠVechi ul
Ġocro ti
Ġcereb ral
T ur
Ġcan alele
Ġdetermin ate
Ġcertific atului
ĠPatriarh iei
Ġgun oaie
Ġroa de
k istan
Ġau tism
ĠI tali
me scu
Ġara tat
Ġprepa rarea
ran Äĥ
ĠÃ®nt rup
ĠAn ime
Ġmun ceascÄĥ
ke spe
Ġconsum atorului
Ġanivers are
Ġenume rate
ĠAvra am
ĠPe tri
tie rele
ĠIS O
ti r
ĠS z
Ġ198 6
ĠConstitu Å£ie
Ġsesi zare
ĠIerar h
za ta
Å£ion aÅ£i
Ġrapor tate
ĠcunoaÅŁte rii
ĠVor onin
Ġjurnali stul
Ġraion ului
Ġdiscrimin are
ce lor
ĠRe cord
ke ri
ĠmodificÄĥ rilor
ĠEdi ÈĽia
Ġafl Ã¢ndu
gra mÄĥ
ĠcumpÄĥ rarea
Ġorganiza Å£iile
Ġigien Äĥ
re an
Ġvi tal
Ġinf il
Ġimplemen tate
Ġincredi bilÄĥ
ĠLitu ania
Ġre tin
man tul
Ġsluj be
ĠcÃ¢ntÄĥ rea
ĠSitua Å£ia
Ġboa be
ĠÃ®nvÄĥ ÈĽ
Ġedi tor
ĠAnd rea
ia ta
Ġti roi
oi anu
Ġmun Å£i
Ġsemn eazÄĥ
Ġsfin Å£ilor
ĠAuto strada
ĠCongres ului
Ġcarosa bil
s om
Ġru ralÄĥ
Ġaten ÈĽi
Ġprem iilor
Ġlini ÈĻtea
ĠcurÄĥÈĽ enie
in os
ina ri
ĠPa y
199 6
Ġconsoli dat
Ġcas ino
Ġpersi sten
e sti
p iei
Ġin ele
ĠÃİn totdeauna
Ġra tei
ĠPor tul
Ġsecre tele
Ġtransmite re
Ġ194 7
Ġambasa dor
Ġide ala
Ġpierde rile
Ġemo ÈĽionalÄĥ
ĠPetro lul
Ġav Ã®nd
Ġsitua tie
Pro iectul
ĠÃ®nfiin ÈĽatÄĥ
Ġarteri alÄĥ
h il
Ġme diile
Ġcons umate
Ġistori ci
ĠCer t
ĠFoc ÈĻani
Ġce tÄĥÅ£ii
ĠV ara
Ġdu se
Ġmeni tÄĥ
Ġviceprim arul
Ġe ticÄĥ
d Ã¢nd
ĠSf inte
ĠÃ®ncÄĥr cate
ĠFinanci ar
Ġd racului
gu rat
feri m
Ġp ula
m icÄĥ
Ġscu mpÄĥ
Ġlat ina
Ġcondamn area
g lo
ÈĻ are
ĠI ulie
Ġsta ÈĽia
Ġpoli ti
Ġ10 2
Ġopre ÅŁte
ĠFamil iei
Ġf umat
ĠL unii
Ġpedep se
ĠdeÅ£in ute
Ġincredi bile
ĠgospodÄĥ rie
Ġperio dice
Ġc ord
ĠI ne
ĠPe dago
ĠÈĺ erban
dele le
ÑĤ ÑĮ
ĠAg ro
Ġcoc he
Ġin che
mat ul
Ġindivi dului
Ġmecan isme
ĠTÃ¢nÄĥ r
ĠÃ®ntÃ¢l neascÄĥ
ĠBe st
Ġdelici oase
1 50
Ġfi xa
Ġno tat
bi rin
Ġz am
ĠmÄĥr unt
ĠTru pul
stra ve
Ġroman tic
ck er
Ġturne e
Ġdispu sÄĥ
Ġpop oarele
Ġsteri l
Ġdo wnload
men ilor
AT ÄĤ
Ġjert fÄĥ
á ½
Ġide ii
ĠCh ei
Ġprofes oarÄĥ
Ġlimi tarea
ĠÃ®ntrebÄĥ m
Ġcompeten ÈĽe
Ġdans uri
ĠrecunoaÅŁte rea
ri ot
en tat
entÄĥ ri
Ġfond atÄĥ
Ġefici enÈĽa
Ġcunoscu ÈĽi
M ir
Ġpro bei
Ġbo b
Ġto ren
ov atÄĥ
ĠReg alÄĥ
T im
i rii
Ġma scÄĥ
c ene
ĠE manuel
ĠCon str
Ġvin ului
Ġarun cate
Ġsapta mani
ĠJi ului
ĠIn stru
Ġvie ÈĽile
ĠJude Å£ene
AT A
Ġinto tdeauna
kespe are
Ġa tot
ĠS ac
Ġfa shi
Ġra sa
Ġrezi stÄĥ
Ġstri cat
Ġconsoli dare
Ġrecon str
Ġder by
ĠArgent ina
ni ta
ĠRe venind
Ġpor Å£ile
Ġign orat
ĠBine Ã®nÈĽeles
V reau
are t
ĠC AR
ĠE mo
ĠMa ra
Ġspeci alizare
199 2
Ġtendin ÈĽe
Mini strul
Ġt r
Ġcer cul
Ġconsul tarea
Ġcredi tului
Ġrele vÄĥ
Ġpotrivi ta
ĠImagini le
euro pe
Ġd ri
ĠÃ®n o
ĠA er
Ġorganiza ÈĽia
Ġinvestiga Å£ii
k g
ÈĽion ez
oh oi
Ġcup torul
ĠEvanghel ie
Ġalimen tarea
Ġsever Äĥ
B ine
m ia
s Ã¢nd
mi ra
Ġstil uri
Ġfesti vi
ĠP el
ĠS tur
Ġgasi ti
Ġve teran
Ġfor melor
Ġcole cta
Ġuniversi tÄĥÈĽi
Ġsch ele
Ġne ur
ĠEro tice
ĠHal loween
Ġconsecu tive
Ġacces oriu
Ġstre sului
ĠconÅ£inut ului
ĠP ress
Ġco b
Ġsf Ã¢
Ġcat olic
Ġprimi ÈĽi
Ġmesa jului
Ġadmite rea
Ġmae stru
Ġfas ole
D PR
Ġma gi
ĠRe mus
Ġst rop
Ġpres tate
Ġsens uri
Ġnevoi ÈĽi
ĠIN F
ĠÃ®ndemn at
ĠLuxemb urg
Ġdeb loc
Ġhard core
Ġme l
Ġindi cele
Ġconsac rat
O ri
n ate
Ġinforma tic
Ġexter ni
pÄĥ m
Ġtip ar
Ġroman o
Ġbra Å£ele
ĠÅ£e su
ĠrÄĥc ori
ta ia
ĠÃ®n co
Ġre fera
Ġru b
Ġjusti ficÄĥ
Ġizol ate
di st
Ġtab lÄĥ
go re
Ġobi ÅŁ
ĠIa cov
ĠFeci oarÄĥ
s ani
Ġau diat
Ġfolos indu
Ġresta urare
Ġuci derea
ĠPlat on
ĠrÄĥma sÄĥ
D L
Ġma gie
gÄĥ torul
Ġintelectu ali
ĠB N
Ġac ÈĽiunii
ĠAme ste
ogra fic
Ġameste cat
d l
Ġd ol
Ġafec ÈĽiune
ĠUl tra
ĠAN I
Ġintensi tatea
Ġantioxi d
Ù ĩ
Ġurma ÈĽi
ĠÃ®n jun
ĠS tare
op Äĥr
Ġreviz uire
ĠdÄĥunÄĥ toare
ĠA mp
[...]
