{"<s>":0,"<pad>":1,"</s>":2,"<unk>":3,"<mask>":4,"!":5,"\"":6,"#":7,"$":8,"%":9,"&":10,"'":11,"(":12,")":13,"*":14,"+":15,",":16,"-":17,".":18,"/":19,"0":20,"1":21,"2":22,"3":23,"4":24,"5":25,"6":26,"7":27,"8":28,"9":29,":":30,";":31,"<":32,"=":33,">":34,"?":35,"@":36,"A":37,"B":38,"C":39,"D":40,"E":41,"F":42,"G":43,"H":44,"I":45,"J":46,"K":47,"L":48,"M":49,"N":50,"O":51,"P":52,"Q":53,"R":54,"S":55,"T":56,"U":57,"V":58,"W":59,"X":60,"Y":61,"Z":62,"[":63,"\\":64,"]":65,"^":66,"_":67,"`":68,"a":69,"b":70,"c":71,"d":72,"e":73,"f":74,"g":75,"h":76,"i":77,"j":78,"k":79,"l":80,"m":81,"n":82,"o":83,"p":84,"q":85,"r":86,"s":87,"t":88,"u":89,"v":90,"w":91,"x":92,"y":93,"z":94,"{":95,"|":96,"}":97,"~":98,"¡":99,"¢":100,"£":101,"¤":102,"¥":103,"¦":104,"§":105,"¨":106,"©":107,"ª":108,"«":109,"¬":110,"®":111,"¯":112,"°":113,"±":114,"²":115,"³":116,"´":117,"µ":118,"¶":119,"·":120,"¸":121,"¹":122,"º":123,"»":124,"¼":125,"½":126,"¾":127,"¿":128,"À":129,"Á":130,"Â":131,"Ã":132,"Ä":133,"Å":134,"Æ":135,"Ç":136,"È":137,"É":138,"Ê":139,"Ë":140,"Ì":141,"Í":142,"Î":143,"Ï":144,"Ð":145,"Ñ":146,"Ò":147,"Ó":148,"Ô":149,"Õ":150,"Ö":151,"×":152,"Ø":153,"Ù":154,"Ú":155,"Û":156,"Ü":157,"Ý":158,"Þ":159,"ß":160,"à":161,"á":162,"â":163,"ã":164,"ä":165,"å":166,"æ":167,"ç":168,"è":169,"é":170,"ê":171,"ë":172,"ì":173,"í":174,"î":175,"ï":176,"ð":177,"ñ":178,"ò":179,"ó":180,"ô":181,"õ":182,"ö":183,"÷":184,"ø":185,"ù":186,"ú":187,"û":188,"ü":189,"ý":190,"þ":191,"ÿ":192,"Ā":193,"ā":194,"Ă":195,"ă":196,"Ą":197,"ą":198,"Ć":199,"ć":200,"Ĉ":201,"ĉ":202,"Ċ":203,"ċ":204,"Č":205,"č":206,"Ď":207,"ď":208,"Đ":209,"đ":210,"Ē":211,"ē":212,"Ĕ":213,"ĕ":214,"Ė":215,"ė":216,"Ę":217,"ę":218,"Ě":219,"ě":220,"Ĝ":221,"ĝ":222,"Ğ":223,"ğ":224,"Ġ":225,"ġ":226,"Ģ":227,"ģ":228,"Ĥ":229,"ĥ":230,"Ħ":231,"ħ":232,"Ĩ":233,"ĩ":234,"Ī":235,"ī":236,"Ĭ":237,"ĭ":238,"Į":239,"į":240,"İ":241,"ı":242,"Ĳ":243,"ĳ":244,"Ĵ":245,"ĵ":246,"Ķ":247,"ķ":248,"ĸ":249,"Ĺ":250,"ĺ":251,"Ļ":252,"ļ":253,"Ľ":254,"ľ":255,"Ŀ":256,"ŀ":257,"Ł":258,"ł":259,"Ń":260,"Äĥ":261,"Ġd":262,"re":263,"Ġc":264,"Ġa":265,"Ġp":266,"te":267,"Ġs":268,"in":269,"Ġde":270,"ri":271,"ul":272,"le":273,"ĠÃ":274,"ĠÃ®":275,"un":276,"or":277,"en":278,"ta":279,"Ġm":280,"ĠÃ®n":281,"ti":282,"ra":283,"Ġl":284,"Ġf":285,"are":286,"Å£":287,"on":288,"ÈĽ":289,"Ġe":290,"ce":291,"ÅŁ":292,"Ġn":293,"ÈĻ":294,"ar":295,"ie":296,"Ã¢":297,"an":298,"at":299,"ic":300,"st":301,"ui":302,"Ġv":303,"ru":304,"Ġo":305,"al":306,"ro":307,"ii":308,"ent":309,"Ġla":310,"Ġcu":311,"ÅŁi":312,"er":313,"ÈĻi":314,"Ġt":315,"Ã¢n":316,"ia":317,"âĢ":318,"ĠC":319,"ea":320,"ste":321,"Ġin":322,"ĠsÄĥ":323,"ĠÅŁi":324,"tÄĥ":325,"Ġun":326,"Ġdin":327,"il":328,"om":329,"ĠÈĻi":330,"Ġpe":331,"Ġre":332,"ĠA":333,"cu":334,"im":335,"ol":336,"Ġma":337,"ului":338,"de":339,"ĠP":340,"Ġce":341,"Ġcare":342,"entru":343,"Ġse":344,"Ġb":345,"ĠS":346,"Ġca":347,"ci":348,"Ġpentru":349,"Ġnu":350,"rea":351,"ĠD":352,"ĠcÄĥ":353,"rÄĥ":354,"se":355,"Ġcon":356,"cÄĥ":357,"tu":358,"ÈĽi":359,"Å£i":360,"ĠM":361,"pe":362,"lor":363,"oa":364,"Ġmai":365,"Ġpro":366,"si":367,"Ġg":368,"to":369,"ĠâĢ":370,"ine":371,"Ġal":372,"zi":373,"Ġace":374,"me":375,"Ġeste":376,"tate":377,"uri":378,"au":379,"is":380,"ur":381,"oc":382,"ma":383,"la":384,"Ġpre":385,"Ġan":386,"Ġau":387,"Ġ1":388,"rii":389,"di":390,"Ġ2":391,"Ġfo":392,"ĠR":393,"Ġi":394,"Ġfa":395,"ĠB":396,"ve":397,"ch":398,"fe":399,"du":400,"mp":401,"ĠI":402,"ici":403,"Ġfi":404,"tul":405,"Ġ(":406,"tre":407,"um":408,"ĠT":409,"ĠE":410,"ca":411,"Ġsi":412,"Ġsu":413,"rin":414,"zÄĥ":415,"sta":416,"Ġne":417,"vi":418,"Ġpo":419,"area":420,"rie":421,"Ġex":422,"atÄĥ":423,"am":424,"Ġte":425,"va":426,"Ġdo":427,"Ã¢nd":428,"Ġpu":429,"ĠN":430,"..":431,"sc":432,"iz":433,"âĢĿ":434,"Ġap":435,"tor":436,"Ġle":437,"ate":438,"Ġcom":439,"Ġpri":440,"Ġfost":441,"ĠL":442,"sti":443,"ĠF":444,"Ġsp":445,"ge":446,"Ġac":447,"Ġme":448,"sp":449,"ale":450,"mi":451,"up":452,"sÄĥ":453,"Å£ii":454,"Ġsun":455,"arte":456,"ze":457,"ran":458,"ĠÃİ":459,"Ġva":460,"li":461,"Ġtre":462,"Ġsau":463,"lu":464,"Ġmul":465,"00":466,"une":467,"Ġj":468,"Ġar":469,"ĠG":470,"Ġno":471,"eni":472,"ÈĽii":473,"iei":474,"bil":475,"Ġam":476,"Ġco":477,"ne":478,"ĠâĢŀ":479,"Ġprin":480,"ĠV":481,"sa":482,"Ġsunt":483,"ter":484,"ĠO":485,"ĠÃİn":486,"mÄĥ":487,"ori":488,"oate":489,"ilor":490,"tat":491,"ini":492,"ni":493,"ĠÃ®nt":494,"Ġim":495,"01":496,"Ġmo":497,"ut":498,"ei":499,"lÄĥ":500,"da":501,"icÄĥ":502,"Ġto":503,"ĠU":504,"ct":505,"stÄĥ":506,"bi":507,"Ġper":508,"čĊ":509,"ele":510,"os":511,"Ġlu":512,"alÄĥ":513,"ali":514,"gi":515,"Ġale":516,"Ã¢t":517,"hi":518,"rul":519,"Ġor":520,"rat":521,"Ġti":522,"ĠDe":523,"vÄĥ":524,"Ġdi":525,"Å£Äĥ":526,"ind":527,"ÅŁti":528,"gÄĥ":529,"tele":530,"Ġsa":531,"lic":532,"ÈĻti":533,"Ġur":534,"Ġda":535,"pa":536,"tatea":537,"mÃ¢n":538,"ga":539,"rile":540,"Ġacest":541,"olo":542,"uni":543,"mul":544,"Ġav":545,"Ġve":546,"Ġro":547,"Ġcre":548,"ÈĽÄĥ":549,"us":550,"men":551,"tea":552,"Ġvor":553,"bu":554,"Ġ201":555,"for":556,"el":557,"za":558,"chi":559,"tori":560,"Ġlui":561,"oi":562,"tra":563,"mb":564,"tri":565,"ĠâĢĵ":566,"dÄĥ":567,"ene":568,"fic":569,"Ġdar":570,"Ġloc":571,"ĠRom":572,"cti":573,"tin":574,"arÄĥ":575,"por":576,"Ġfie":577,"gu":578,"oan":579,"tan":580,"ĠfÄĥ":581,"Ġsc":582,"din":583,"Ġzi":584,"Å£a":585,"Ã®":586,"Ġci":587,"ver":588,"tare":589,"oli":590,"upÄĥ":591,"Ġ-":592,"ba":593,"Ġu":594,"ĠpÄĥ":595,"ÈĽie":596,"Å£ia":597,"Ġad":598,"ĠmÄĥ":599,"ÈĻte":600,"ÅŁte":601,"cut":602,"ĠH":603,"oare":604,"Å£ie":605,"Ġli":606,"ĠrÄĥ":607,"eazÄĥ":608,"Ġ3":609,"cep":610,"cum":611,"Ġaf":612,"...":613,"Ġpar":614,"ÈĽia":615,"na":616,"ÈĽa":617,"Ġori":618,"ina":619,"ili":620,"Ġiar":621,"ĠCon":622,"Ġdec":623,"pi":624,"gra":625,"Ġh":626,"Ġpers":627,"Ġpa":628,"ĠRomÃ¢n":629,"Ġluc":630,"tic":631,"Ġtimp":632,"pre":633,"Å£ion":634,"inÄĥ":635,"Ġpoate":636,"Ġat":637,"Ġacea":638,"ĠIn":639,"po":640,"Ġdis":641,"Ġmi":642,"Ġani":643,"dic":644,"Ġcele":645,"sul":646,"Ġvi":647,"he":648,"ĠSe":649,"ĠMa":650,"rilor":651,"nÄĥ":652,"Ġaj":653,"Ġcum":654,"ÈĽion":655,"spre":656,"uro":657,"Ã¢r":658,"ĠdupÄĥ":659,"ten":660,"Ġob":661,"ĠÃ®ntre":662,"ĠRe":663,"op":664,"Ġra":665,"be":666,"Ġfe":667,"Ã¢nÄĥ":668,"Ġta":669,"Ġcel":670,"uÄĥ":671,"ala":672,"unÄĥ":673,"Ġspe":674,"urile":675,"aliz":676,"Ġinter":677,"gan":678,"ĠcÃ¢nd":679,"man":680,"Ġare":681,"ĠJ":682,"cul":683,"Ġju":684,"Ġparte":685,"Ġcomp":686,"Ġmult":687,"fi":688,"Ġfor":689,"Ġdespre":690,"scÄĥ":691,"stru":692,"tarea":693,"pÄĥ":694,"unc":695,"tiv":696,"Ġface":697,"ĠÃ®ntr":698,"teri":699,"ua":700,"buie":701,"ven":702,"ĠÃ®mp":703,"ura":704,"lo":705,"inte":706,"Ġaceste":707,"Ġsub":708,"ĠdacÄĥ":709,"toare":710,"Ġdintre":711,"care":712,"Ġtra":713,"and":714,"ĠvÄĥ":715,"Ġz":716,"bili":717,"bÄĥ":718,"),":719,"do":720,"tal":721,"Ġnici":722,"fer":723,"stra":724,"turi":725,"Ġcop":726,"Ġai":727,"spe":728,"ĠcÃ¢":729,"Ġele":730,"den":731,"Ã®n":732,"âĢĿ,":733,"Ġpl":734,"ria":735,"Ġsta":736,"Ġpub":737,"tului":738,"Ġera":739,"Ġdes":740,"Ġst":741,"ren":742,"Ġfoarte":743,"cea":744,"Ġsim":745,"co":746,"Ġ\"":747,"torul":748,"Ġtoate":749,"Ġprodu":750,"Ġmare":751,"Ġunui":752,"fel":753,"Ġ4":754,"Ġprez":755,"ĠCa":756,"oane":757,"âĢ¦":758,"Ġ5":759,"Ġtran":760,"Ġdoar":761,"Ġapro":762,"Ġnoi":763,"ment":764,"Ġtrebuie":765,"feri":766,"ces":767,"od":768,"ĠAn":769,"Ġ19":770,"peri":771,"Ġba":772,"ani":773,"cur":774,"che":775,"mele":776,").":777,"unea":778,"zul":779,"ĠNu":780,"ing":781,"Ġchi":782,"ĠÃ®ntÃ¢":783,"ord":784,"Ġmulte":785,"Ġbine":786,"con":787,"rep":788,"ĠromÃ¢n":789,"Ġbu":790,"Å£e":791,"Ġprop":792,"scu":793,"ier":794,"Ġei":795,"erv":796,"ÈĽe":797,"ÅŁe":798,"cat":799,"rec":800,"Ġtot":801,"Ġpot":802,"ĠDa":803,"tura":804,"ĠRomÃ¢nia":805,"ĠpÃ¢nÄĥ":806,"Ġmod":807,"vol":808,"unci":809,"ĠLa":810,"ente":811,"Ġcei":812,"Ġorgan":813,"Ġas":814,"Ġna":815,"ĠPe":816,"Ġcea":817,"Ġel":818,"Ġni":819,"til":820,"ĠâĢľ":821,"ĠPro":822,"Ġlor":823,"fec":824,"Ġrec":825,"tr":826,"Ġlucru":827,"Ġmin":828,"ĠaceastÄĥ":829,"oast":830,"tro":831,"duce":832,"Äĥr":833,"Ġavea":834,"Ġperi":835,"cip":836,"ona":837,"oni":838,"Ġfin":839,"ov":840,"Ġdu":841,"Ġunei":842,"Ġru":843,"Ġinte":844,"stfel":845,"pu":846,"ÂŃ":847,"ĠBu":848,"fici":849,"pul":850,"stan":851,"ĠPentru":852,"Ġdez":853,"Ġvre":854,"Ġpoli":855,"ĠfÄĥrÄĥ":856,"Ġfap":857,"Ġul":858,"ana":859,"enta":860,"Ġora":861,"rum":862,"Ġspeci":863,"curi":864,"Å£in":865,"Å£iei":866,"Ġoam":867,"lea":868,"ĠdouÄĥ":869,"Ġpriv":870,"Ġleg":871,"ĠurmÄĥ":872,"Ġunde":873,"ĠcÄĥtre":874,"lul":875,"Ġvia":876,"ĠÅ":877,"mat":878,"Ġmar":879,"ÈĻe":880,"una":881,"dea":882,"Ġchiar":883,"Ġdom":884,"Ġdrep":885,"ute":886,"pl":887,"Ġparti":888,"Ġpute":889,"olog":890,"ÈĽin":891,"pozi":892,"Ġbi":893,"iec":894,"Ġ6":895,"ĠDum":896,"ĠÃ®ncep":897,"Ġfiind":898,"bile":899,"tive":900,"ric":901,"uit":902,"Ġcul":903,"mai":904,"tie":905,"Ġcad":906,"ÅŁa":907,"ĠÈ":908,"ĠUn":909,"ĠMi":910,"mbrie":911,"Ġlum":912,"Ġri":913,"Ġajun":914,"Ġso":915,"tivi":916,"Ġab":917,"ĠcÃ¢t":918,"ĠÃ®nce":919,"ica":920,"Ġvede":921,"imi":922,"ora":923,"ĠCom":924,"vo":925,"entul":926,"Ġlo":927,"ble":928,"forma":929,"âĢĿ.":930,"ator":931,"stul":932,"Ġsec":933,"go":934,"one":935,"ÈĻa":936,"prez":937,"iile":938,"ĠCu":939,"neze":940,"Ġpor":941,"Ġcer":942,"clu":943,"mn":944,"enera":945,"Ġzile":946,"ĠK":947,"gul":948,"stitu":949,"Ġfunc":950,"Ġpeste":951,"ĠAr":952,"Ġcun":953,"ja":954,"ĠgÄĥ":955,"tÄĥÅ£i":956,"Ġjude":957,"atul":958,"Ġmili":959,"Ġpla":960,"ĠÅŀ":961,"min":962,"Ġatunci":963,"tÄĥÈĽi":964,"veni":965,"Ġorganiz":966,"lica":967,"chim":968,"Ġacum":969,"turÄĥ":970,"Ġmun":971,"Ġdat":972,"ĠUni":973,"Ġop":974,"Ġcopii":975,"Ġfel":976,"Ġperioa":977,"Ġfac":978,"Ġputea":979,"ĠEuro":980,"mului":981,"ÈĽiei":982,"ĠNa":983,"Ġsol":984,"torii":985,"ĠPo":986,"Ġanul":987,"gen":988,"Ġimpor":989,"Ġ200":990,"ĠÃ®ncÄĥ":991,"Ġnoast":992,"Ġaju":993,"Ġeuro":994,"fa":995,"Ġreprez":996,"Ġalte":997,"erÄĥ":998,"ĠÃ®i":999,"Ġade":1000,"Ġdep":1001,"Ġexi":1002,"pera":1003,"ĠdecÃ¢t":1004,"Ġastfel":1005,"alul":1006,"Ġsus":1007,"Ġavut":1008,"ĠAce":1009,"urilor":1010,"uz":1011,"Ġcadrul":1012,"ron":1013,"Ġvo":1014,"ĠÈĺ":1015,"ĠDumneze":1016,"Ġ10":1017,"Ġasi":1018,"ĠW":1019,"ĠÃ®nc":1020,"ĠMe":1021,"Ġfiecare":1022,"ĠfÄĥcut":1023,"Ġceea":1024,"Ġ7":1025,"tice":1026,"tiliz":1027,"Ġprivind":1028,"ai":1029,"ĠTe":1030,"res":1031,"alitate":1032,"ola":1033,"cure":1034,"Ġga":1035,"tar":1036,"Ġfolo":1037,"Ġase":1038,"Ġactivi":1039,"Ġgra":1040,"Ġcons":1041,"Ġimportan":1042,"Ġmom":1043,"ĠZ":1044,"umi":1045,"rac":1046,"Ġechi":1047,"Ġunor":1048,"Ġnr":1049,"ĠcÃ¢te":1050,"tii":1051,"Ġtrans":1052,"ĠBi":1053,"arul":1054,"ĠLi":1055,"pte":1056,"Ġexp":1057,"dul":1058,"anÄĥ":1059,"Å£ele":1060,"ptÄĥ":1061,"ticÄĥ":1062,"Ġuni":1063,"fÄĥ":1064,"ĠLe":1065,"ĠÃ®nsÄĥ":1066,"Ġdeci":1067,"mei":1068,"Ġcur":1069,"Ġcontra":1070,"ĠDumnezeu":1071,"ĠÃ®l":1072,"Ġen":1073,"Ġasta":1074,"ĠNe":1075,"Ġter":1076,"ĠÃ®ntÃ¢l":1077,"ris":1078,"Ġcontin":1079,"iale":1080,"Ġschim":1081,"Ã£":1082,"Ġgre":1083,"ĠPa":1084,"ĠapÄĥ":1085,"mo":1086,"ĠPre":1087,"Ġimp":1088,"Ġ,":1089,"ĠbÄĥ":1090,"eascÄĥ":1091,"Ġval":1092,"loc":1093,"Ġcelor":1094,"enii":1095,"ĠatÃ¢t":1096,"tÄĥÅ£ii":1097,"ĠSex":1098,"mite":1099,"no":1100,"vit":1101,"Ġsup":1102,"Ġr":1103,"Ġrespe":1104,"Ġ8":1105,"spun":1106,"Ġutiliz":1107,"upra":1108,"Ġserv":1109,"rei":1110,"Ġpie":1111,"ĠAl":1112,"ĠAm":1113,"ratÄĥ":1114,"ĠBucure":1115,"Ġspune":1116,"nic":1117,"rim":1118,"Ġsen":1119,"Ġtine":1120,"Å£iile":1121,"Ġulti":1122,"ĠDacÄĥ":1123,"Ġpat":1124,"bui":1125,"Ġnive":1126,"201":1127,"Ġprecum":1128,"ÈĽele":1129,"Ġsf":1130,"Ġstu":1131,"Ġsitu":1132,"sit":1133,"Ġgenera":1134,"ole":1135,"uver":1136,"Ġproble":1137,"Ġtrei":1138,"Ġexe":1139,"Ġsiste":1140,"vin":1141,"Ġfil":1142,"Å£ilor":1143,"ĠÃ®na":1144,"rij":1145,"ote":1146,"Ġbun":1147,"nul":1148,"lui":1149,"Ġveni":1150,"Ġie":1151,"Ġcomple":1152,"Ġpublic":1153,"Ġrealiz":1154,"Ġcau":1155,"ĠCe":1156,"oase":1157,"su":1158,"Ġperson":1159,"Ġtu":1160,"000":1161,"Ġunul":1162,"Ġprofe":1163,"ot":1164,"Ġinforma":1165,"Ġeu":1166,"iect":1167,"mini":1168,"telor":1169,"Ġspre":1170,"Ġcan":1171,"sten":1172,"Ġorice":1173,"ĠplÄĥ":1174,"ĠSi":1175,"ÈĽiile":1176,"eam":1177,"anu":1178,"je":1179,"ĠAu":1180,"ĠÅŁ":1181,"menea":1182,"ĠFe":1183,"Ġaceasta":1184,"Ġmedic":1185,"Ġlei":1186,"mil":1187,"rate":1188,"venim":1189,"line":1190,"Ġave":1191,"Ġdecla":1192,"Ġ2018":1193,"Ġceva":1194,"Ġlun":1195,"ĠÈĻ":1196,"mit":1197,"form":1198,"ania":1199,"ĠÅŁti":1200,"Ġasemenea":1201,"Ġalt":1202,"ĠcÄĥr":1203,"Ġpersoane":1204,"Ġsoc":1205,"ĠâĢĿ":1206,"ĠSf":1207,"gat":1208,"orul":1209,"oldo":1210,"dia":1211,"ane":1212,"Ġ9":1213,"ers":1214,"Ġdezvol":1215,"ĠÈĻti":1216,"sele":1217,"Ġnou":1218,"Ġnevo":1219,"Ġdoi":1220,"Ġstat":1221,"Ġaceea":1222,"ans":1223,"ĠPar":1224,"ctiv":1225,"Ġprima":1226,"rului":1227,"ĠEste":1228,"conom":1229,"gin":1230,"Ġreg":1231,"bilÄĥ":1232,"Ġcar":1233,"cta":1234,"Ġcaz":1235,"ĠÃ®ntÃ¢lni":1236,"ber":1237,"lat":1238,"col":1239,"ÈĽine":1240,"Ġnumai":1241,"ĠDar":1242,"Ġacesta":1243,"ĠDin":1244,"Ġprogra":1245,"Ġw":1246,"Ġnim":1247,"prin":1248,"Å£ine":1249,"Ġaici":1250,"Ġinf":1251,"ace":1252,"reazÄĥ":1253,"vesti":1254,"orii":1255,"Ġ15":1256,"Ġ[":1257,"Ġdesc":1258,"Ġprote":1259,"Ġauto":1260,"dent":1261,"bo":1262,"Ġcal":1263,"tÄĥÈĽii":1264,"teazÄĥ":1265,"Ġ18":1266,"Ġea":1267,"zut":1268,"Ã¢ndu":1269,"ÈĽilor":1270,"ĠEx":1271,"ĠBa":1272,"Ġasupra":1273,"Ġrela":1274,"Ġdata":1275,"urn":1276,"Ġiu":1277,"ond":1278,"turile":1279,"ĠstrÄĥ":1280,"Ġvizi":1281,"sion":1282,"ficÄĥ":1283,"Ġcla":1284,"icii":1285,"bat":1286,"stea":1287,"ĠJu":1288,"Ġspus":1289,"Ġtele":1290,"Ġacestui":1291,"Ġ20":1292,"Ġfamil":1293,"ĠnumÄĥ":1294,"Ġoameni":1295,"bor":1296,"Ġofer":1297,"hn":1298,"Ġasigu":1299,"Ġdate":1300,"gh":1301,"Ġcomun":1302,"Ġch":1303,"ape":1304,"Ġcazul":1305,"Ġtimpul":1306,"it":1307,"Ġcondi":1308,"fle":1309,"Ġist":1310,"mis":1311,"ĠÂ":1312,"Ġurma":1313,"riei":1314,"Ġproiec":1315,"Ġtri":1316,"ĠPri":1317,"Ġcor":1318,"Ġfrum":1319,"Ġconsi":1320,"val":1321,"mar":1322,"rare":1323,"Ġmari":1324,"diul":1325,"ÅŁedin":1326,"feren":1327,"ministra":1328,"Ġpra":1329,"ĠSÄĥ":1330,"Ġales":1331,"Ġon":1332,"ĠSu":1333,"lice":1334,"rele":1335,"Ġprea":1336,"ima":1337,"Ġ12":1338,"Ġprezen":1339,"Ġinclu":1340,"ĠVi":1341,"ĠÃ®nvÄĥ":1342,"Ġurm":1343,"Ġposi":1344,"ĠAd":1345,"Ġcole":1346,"lie":1347,"Ġsitua":1348,"trivit":1349,"tion":1350,"Ġsimp":1351,"ĠConstan":1352,"Ġuna":1353,"tatÄĥ":1354,"Ġanun":1355,"Ġperioada":1356,"Ġnevoie":1357,"erg":1358,"ĠDom":1359,"Ġcopil":1360,"Ġpen":1361,"Ġevenim":1362,"tur":1363,"ĠexistÄĥ":1364,"Ġcri":1365,"diu":1366,"Ġsur":1367,"unii":1368,"ant":1369,"Ġtrebui":1370,"ime":1371,"ĠDi":1372,"Ġluni":1373,"Ġfinan":1374,"ĠadevÄĥ":1375,"ĠOr":1376,"ĠCi":1377,"Ġcine":1378,"ante":1379,"versi":1380,"Ġpersoan":1381,"ĠMoldo":1382,"ĠtÄĥ":1383,"rut":1384,"Ġmine":1385,"ĠcÃ¢teva":1386,"rarea":1387,"Ġlim":1388,"ĠaÅŁa":1389,"rup":1390,"Ġk":1391,"ĠMo":1392,"Ġnor":1393,"datÄĥ":1394,"Ġdra":1395,"onul":1396,"Ġfaptul":1397,"rit":1398,"lin":1399,"graf":1400,"Ġsite":1401,"ĠEl":1402,"oasÄĥ":1403,"ĠtrÄĥ":1404,"Ġmen":1405,"atura":1406,"nului":1407,"ac":1408,"Ġum":1409,"ĠÃ®nceput":1410,"Å£ei":1411,"Ġpartea":1412,"Ġ0":1413,"Ġide":1414,"com":1415,"Ġefec":1416,"rica":1417,"Ġreu":1418,"as":1419,"Ġsin":1420,"Ġmemb":1421,"Ġban":1422,"ĠCo":1423,"nea":1424,"Ġspi":1425,"len":1426,"Ġnume":1427,"Ġeconom":1428,"âĢľ":1429,"operi":1430,"ara":1431,"ĠaÈĻa":1432,"ĠlÄĥ":1433,"ĠRomÃ¢niei":1434,"zia":1435,"Ġprimul":1436,"Ġtrecut":1437,"Ġacord":1438,"luj":1439,"ĠÃ®mb":1440,"fica":1441,"Ġrezul":1442,"Ġautori":1443,"atori":1444,"umÄĥ":1445,"Ġacela":1446,"Ġmodi":1447,"dere":1448,"ok":1449,"Ġproce":1450,"ĠmÃ¢n":1451,"Ġapoi":1452,"ĠCons":1453,"ruc":1454,"Ġaproape":1455,"Ġvin":1456,"zat":1457,"Ġacestea":1458,"ghe":1459,"Ġdem":1460,"ĠbunÄĥ":1461,"Ġrez":1462,"ĠÅŀi":1463,"Ġcere":1464,"siv":1465,"tivÄĥ":1466,"ĠMai":1467,"ĠsÄĥu":1468,"Ġima":1469,"chis":1470,"Ġdisp":1471,"ĠrÄĥspun":1472,"olul":1473,"oria":1474,"Ġstra":1475,"ĠCh":1476,"use":1477,"oarÄĥ":1478,"Ġdum":1479,"ista":1480,"Ġvii":1481,"Ġsale":1482,"und":1483,"ss":1484,"lan":1485,"Ġmu":1486,"og":1487,"ĠÃ®ns":1488,"ĠAp":1489,"ĠDupÄĥ":1490,"Ġom":1491,"ir":1492,"Å£ional":1493,"Ġmea":1494,"alitatea":1495,"Ġartic":1496,"ĠRa":1497,"Ġpier":1498,"Ġ11":1499,"tit":1500,"Ġ...":1501,"ĠÃ®ntÃ¢mp":1502,"riu":1503,"scul":1504,"str":1505,"ĠvÃ¢r":1506,"stÄĥzi":1507,"ĠChi":1508,"mente":1509,"Ġadu":1510,"anta":1511,"ose":1512,"Ġcuv":1513,"Ġsex":1514,"Ġdirec":1515,"imen":1516,"Ġprivi":1517,"ap":1518,"Ġindi":1519,"Ġcent":1520,"tia":1521,"ĠÃ®nainte":1522,"\",":1523,"Ġalege":1524,"Ġproiect":1525,"Ġtip":1526,"Ġvoi":1527,"Ġvine":1528,"tui":1529,"gre":1530,"Ġmode":1531,"ĠMar":1532,"rist":1533,"Ġcli":1534,"intÄĥ":1535,"ĠdesfÄĥ":1536,"spec":1537,"Ġpun":1538,"Ġmon":1539,"Ġprincip":1540,"torului":1541,"Ġmic":1542,"Ġdomeni":1543,"brie":1544,"ÈĽional":1545,"Ġnostru":1546,"unt":1547,"ĠÃ®mpre":1548,"port":1549,"stin":1550,"Ġneces":1551,"Ġsupra":1552,"Ġnoastre":1553,"Ġedi":1554,"Ġia":1555,"urÄĥ":1556,"ĠÃ®ÅŁi":1557,"Ġvedere":1558,"Ġexperi":1559,"Ġoferi":1560,"ĠX":1561,"tei":1562,"Ġmilioane":1563,"Ġdiferi":1564,"zie":1565,"Ġ14":1566,"II":1567,"rici":1568,"ÈĻedin":1569,"Ġple":1570,"ĠÃ®ncer":1571,"ĠrÃ¢nd":1572,"duca":1573,"Ġspa":1574,"cin":1575,"Ġ2017":1576,"erci":1577,"ĠPÄĥ":1578,"Ġparticip":1579,"isc":1580,"oam":1581,"Ġsemn":1582,"tament":1583,"ĠdatÄĥ":1584,"jul":1585,"struc":1586,"atului":1587,"Ġanga":1588,"torilor":1589,"cer":1590,"ĠnoastrÄĥ":1591,"Ġresp":1592,"ptÄĥmÃ¢n":1593,"cre":1594,"Ġfolosi":1595,"ĠÃ®nde":1596,"Ġacolo":1597,"ĠTo":1598,"regi":1599,"gii":1600,"Ġtransp":1601,"ĠPrin":1602,"ard":1603,"curs":1604,"ari":1605,"ule":1606,"Ġlumea":1607,"urul":1608,"Ġprie":1609,"Ġinstitu":1610,"zii":1611,"ĠPor":1612,"Ġvrea":1613,"Ġlocul":1614,"derea":1615,"Ġ.":1616,"Ġlume":1617,"ĠÃ®ÈĻi":1618,"Ġet":1619,"Ġcate":1620,"Ġnivel":1621,"ĠÈĺi":1622,"Ġ16":1623,"19":1624,"ume":1625,"ome":1626,"Ġcontro":1627,"Ġdeclarat":1628,"Ġho":1629,"erman":1630,"ĠpregÄĥ":1631,"Ġ30":1632,"ĠInter":1633,"Å£ionale":1634,"terior":1635,"ĠMini":1636,"Ġui":1637,"cute":1638,"Ġ|":1639,"Ġame":1640,"unile":1641,"Ġavem":1642,"ocia":1643,"Ġbene":1644,"Ġajuns":1645,"Ġver":1646,"Ġ/":1647,"can":1648,"Ġsoci":1649,"der":1650,"iere":1651,"ĠCÄĥ":1652,"Ġproduse":1653,"Å£iilor":1654,"Ġmeu":1655,"Ġexemp":1656,"Ġcrea":1657,"ĠDo":1658,"Ġdeja":1659,"ort":1660,"cutÄĥ":1661,"ĠMoldova":1662,"Ġ13":1663,"Ġadministra":1664,"ke":1665,"Ġcompan":1666,"Ġaten":1667,"ĠConsili":1668,"Ġcir":1669,"ha":1670,"Ġcomuni":1671,"Ġiubi":1672,"ĠsÄĥnÄĥ":1673,"Ġobli":1674,"Ġsea":1675,"Ġmaj":1676,"Ġint":1677,"Ġlip":1678,"Ġsufle":1679,"ĠVe":1680,"stri":1681,"tem":1682,"Ã¢ngÄĥ":1683,"Ãİ":1684,"Ġopera":1685,"Ġpare":1686,"ctive":1687,"fice":1688,"Ġprim":1689,"Ġdrept":1690,"lex":1691,"Ġgreu":1692,"entÄĥ":1693,"Ġmini":1694,"Ġplan":1695,"Ġcontinu":1696,"mpÄĥ":1697,"oara":1698,"ĠÃ®mi":1699,"ĠsÄĥptÄĥmÃ¢n":1700,"run":1701,"Ġcerce":1702,"ub":1703,"ĠÃ®nto":1704,"Ġinvesti":1705,"ral":1706,"roa":1707,"Ġche":1708,"cate":1709,"Ġdeveni":1710,"Ġbucu":1711,"ĠÃ®mpo":1712,"Ġsocie":1713,"Ġinteres":1714,"tis":1715,"Ġpopul":1716,"Ġpunc":1717,"imin":1718,"siune":1719,"ore":1720,"Ġpune":1721,"Ġmateri":1722,"ÈĽei":1723,"ĠtoatÄĥ":1724,"200":1725,"Ġstabili":1726,"car":1727,"ĠEurope":1728,"rect":1729,"Ġfoto":1730,"Ġ17":1731,"dem":1732,"oca":1733,"triva":1734,"ĠbÄĥr":1735,"Ġcunos":1736,"nice":1737,"dat":1738,"ferin":1739,"Ġsing":1740,"ĠMÄĥ":1741,"ova":1742,"Ġtehn":1743,"Ġdoua":1744,"Ġsala":1745,"Ġvie":1746,"licÄĥ":1747,"Ġcondu":1748,"Ġpur":1749,"Ġpi":1750,"ÄĤ":1751,"ĠromÃ¢ne":1752,"Ġevi":1753,"Ġafla":1754,"ĠdÄĥ":1755,"Ġscris":1756,"ĠAcea":1757,"Ġnimic":1758,"odatÄĥ":1759,"Ġvom":1760,"zare":1761,"Ġbo":1762,"Ġpracti":1763,"ĠBÄĥ":1764,"ĠÃ®nd":1765,"ĠfaÅ£Äĥ":1766,"ĠÃ®nregi":1767,"rÃ¢n":1768,"ĠÃ®mpreunÄĥ":1769,"pub":1770,"Ġmoment":1771,"dit":1772,"Ġlup":1773,"Ġpozi":1774,"Ġapar":1775,"Ġge":1776,"siunea":1777,"tific":1778,"bilitatea":1779,"ĠPoli":1780,"Ġnatura":1781,"ĠpÄĥrin":1782,"Ġcin":1783,"ĠJude":1784,"Ġerau":1785,"RE":1786,"ÈĽionale":1787,"ĠastÄĥzi":1788,"ricÄĥ":1789,"ĠGuver":1790,"Ġ25":1791,"Ġspun":1792,"Ġscop":1793,"ĠaflÄĥ":1794,"Ġape":1795,"AT":1796,"Ġpove":1797,"lus":1798,"Ġspecial":1799,"turii":1800,"Ġcarac":1801,"Ġproprie":1802,"tici":1803,"Ġmor":1804,"ĠrÄĥmÃ¢n":1805,"ton":1806,"Ġ2016":1807,"pta":1808,"ĠAs":1809,"ĠalÄĥ":1810,"Ġdece":1811,"ĠLu":1812,"Ġini":1813,"ile":1814,"ĠEu":1815,"ĠlucrÄĥ":1816,"turilor":1817,"ĠaltÄĥ":1818,"Ġdispozi":1819,"ĠfacÄĥ":1820,"Ġsal":1821,"Ġpublice":1822,"Ġabs":1823,"Ġelect":1824,"iilor":1825,"Ġaface":1826,"Ġschimb":1827,"ĠMare":1828,"utÄĥ":1829,"zb":1830,"tÄĥr":1831,"ure":1832,"gea":1833,"iembrie":1834,"sei":1835,"Ġservicii":1836,"iza":1837,"Ġreprezen":1838,"Ġscur":1839,"ĠmÄĥs":1840,"gini":1841,"Ġridic":1842,"Ġsem":1843,"Ġoamenii":1844,"Ġrecom":1845,"Ġbune":1846,"ĠRo":1847,"tut":1848,"âĢĻ":1849,"ĠAc":1850,"ĠGa":1851,"Ġsolu":1852,"oarea":1853,"Ġcred":1854,"Ġbani":1855,"bal":1856,"Ġroman":1857,"Ġluat":1858,"ĠÃ®ng":1859,"Ġore":1860,"Ġconside":1861,"ena":1862,"dar":1863,"ÈĽiilor":1864,"Ġvenit":1865,"Ġcarte":1866,"Ġcamp":1867,"....":1868,"utul":1869,"pene":1870,"Ġvol":1871,"Ġconte":1872,"Ġobi":1873,"van":1874,"ÅŁit":1875,"gur":1876,"resc":1877,"mÃ¢nt":1878,"Ġlin":1879,"Ġocu":1880,"die":1881,"Ġguver":1882,"melor":1883,"Ġbaza":1884,"ĠpuÈĽin":1885,"ĠmuncÄĥ":1886,"ĠÃ®mpotriva":1887,"Ġsolici":1888,"Ġanumi":1889,"Ġsigu":1890,"of":1891,"Ġfapt":1892,"Ġcl":1893,"Ġfol":1894,"ĠNic":1895,"sat":1896,"Ġactu":1897,"ĠSfÃ¢n":1898,"Ġdiscu":1899,"ctom":1900,"ĠÃ®nÅ£ele":1901,"ĠlÃ¢ngÄĥ":1902,"ĠÐ":1903,"ĠpuÅ£in":1904,"Ġnumele":1905,"Ġinterna":1906,"Ġpreci":1907,"Ġbe":1908,"Ġaca":1909,"Ġacestei":1910,"Ġpia":1911,"Ġiden":1912,"erge":1913,"tÄĥÅ£ile":1914,"tari":1915,"bit":1916,"ĠCre":1917,"Ãİn":1918,"Å£ul":1919,"Ġcompe":1920,"Ġinvi":1921,"Ġmuz":1922,"Ġcap":1923,"Ġjoc":1924,"ĠnouÄĥ":1925,"ĠBucureÅŁti":1926,"ĠBise":1927,"tale":1928,"Ġnoiembrie":1929,"Ġgeneral":1930,"Ġonline":1931,"Ġtermen":1932,"ctombrie":1933,"ĠMun":1934,"Ġdeschi":1935,"Ġmici":1936,"tÄĥm":1937,"unie":1938,"Ġzona":1939,"vine":1940,"Ġpotrivit":1941,"Ġarti":1942,"Ġefectu":1943,"Ġconf":1944,"Ġprofes":1945,"Ġtelef":1946,"Ġten":1947,"uia":1948,"riile":1949,"Ġachi":1950,"Ġsuc":1951,"Ġcauza":1952,"Ġimportant":1953,"ament":1954,"Ġze":1955,"Ġdor":1956,"volu":1957,"Ġart":1958,"ptembrie":1959,"oarece":1960,"Ġnea":1961,"ĠscÄĥ":1962,"ĠIa":1963,"scut":1964,"Ġcol":1965,"Ġmij":1966,"SD":1967,"Ġag":1968,"Ã¢mb":1969,"ĠoferÄĥ":1970,"ĠAnd":1971,"Ġrecun":1972,"Ġputer":1973,"rian":1974,"ĠNo":1975,"Ġgrup":1976,"Ġfeme":1977,"RI":1978,"Ġconta":1979,"Ã®nd":1980,"dele":1981,"ĠMiniste":1982,"Ġcredin":1983,"Ġjo":1984,"Ġanului":1985,"Ġvorba":1986,"ĠCum":1987,"ĠfaÈĽÄĥ":1988,"Ġetc":1989,"Ġliber":1990,"pen":1991,"vers":1992,"ĠBucureÈĻti":1993,"Ġoctombrie":1994,"Ġil":1995,"Ġbise":1996,"Ġconduce":1997,"Ġexperien":1998,"Ġfond":1999,"ex":2000,"Ġvrem":2001,"ĠVa":2002,"NA":2003,"ÈĽul":2004,"tÄĥÈĽile":2005,"Ġpatru":2006,"ÈĻit":2007,"Ġprem":2008,"Ġlans":2009,"eamnÄĥ":2010,"Å£ionalÄĥ":2011,"Ġdomeniul":2012,"ĠstÄĥ":2013,"rale":2014,"turor":2015,"Ġfir":2016,"Ġforma":2017,"Ġtrece":2018,"enilor":2019,"Ġacu":2020,"Ġbuge":2021,"Ġprivire":2022,"strul":2023,"ĠgÃ¢n":2024,"20":2025,"ĠaratÄĥ":2026,"Ġputem":2027,"Ġprezent":2028,"vede":2029,"Ġsingu":2030,"10":2031,"Ġregi":2032,"ĠÃ®ncÃ¢t":2033,"Ġpost":2034,"Ġsti":2035,"ĠAcest":2036,"ĠDra":2037,"ck":2038,"Ġtuturor":2039,"Ġseptembrie":2040,"tali":2041,"Ġinten":2042,"ĠIar":2043,"Ġprimit":2044,"gust":2045,"icipi":2046,"Å£at":2047,"ĠCluj":2048,"pro":2049,"Ġeduca":2050,"Ġintra":2051,"Ġlocu":2052,"para":2053,"cent":2054,"Ġrepe":2055,"Ġ:":2056,"Ġtotul":2057,"Ġ24":2058,"sesc":2059,"ĠÃ®nseamnÄĥ":2060,"Ġregul":2061,"ĠRÄĥ":2062,"eze":2063,"Ġconstr":2064,"ĠTran":2065,"ĠsfÃ¢r":2066,"Ġacces":2067,"Ġcomunic":2068,"Ġdescoperi":2069,"ĠAstfel":2070,"Ġaduce":2071,"bru":2072,"Ġmomentul":2073,"Ġcapi":2074,"Ġexemplu":2075,"talÄĥ":2076,"Ġcapa":2077,"ism":2078,"Ġziua":2079,"Ġcalitate":2080,"Ġaplic":2081,"Ġtur":2082,"upa":2083,"ficarea":2084,"Ġanti":2085,"orie":2086,"Ġ2015":2087,"lal":2088,"deo":2089,"Ġdrum":2090,"ristos":2091,"ĠBo":2092,"Ġata":2093,"fect":2094,"Ġsprij":2095,"ros":2096,"Ġ100":2097,"ulie":2098,"Ġunele":2099,"Ġdiferite":2100,"Ġprive":2101,"Ġof":2102,"Ġsca":2103,"Ġlimi":2104,"Ġiunie":2105,"ĠSa":2106,"ĠÃ®nÈĽele":2107,"ĠgrÄĥ":2108,"ĠarÄĥ":2109,"ĠÃ®ncepe":2110,"Ġenerg":2111,"gn":2112,"ĠvÄĥzut":2113,"Ġlimba":2114,"Ġnivelul":2115,"ĠpreÅŁedin":2116,"tati":2117,"sen":2118,"ĠRepub":2119,"ĠuÈĻ":2120,"Ġdocu":2121,"ĠCent":2122,"dio":2123,"Ġcuno":2124,"Ġfra":2125,"Ġplus":2126,"Ġnoa":2127,"Ġdecembrie":2128,"ĠreprezintÄĥ":2129,"Ġdeoarece":2130,"ĠlegÄĥ":2131,"Ġpetre":2132,".âĢĿ":2133,"Ġpus":2134,"Ġmeci":2135,"30":2136,"ĠFi":2137,"Ġcali":2138,"erul":2139,"Ġteren":2140,"Ġpoe":2141,"Ġbenefic":2142,"Ġcat":2143,"carea":2144,"Ġafec":2145,"tatele":2146,"ĠTra":2147,"ĠGe":2148,"tim":2149,"Ġscrie":2150,"Ġ2014":2151,"ĠcetÄĥ":2152,"ban":2153,"Ġaplica":2154,"cesi":2155,"Ġajunge":2156,"rice":2157,"ĠnÄĥ":2158,"ĠDan":2159,"reu":2160,"Ġdia":2161,"Ġdef":2162,"taÈĽi":2163,"ĠAt":2164,"sca":2165,"ologie":2166,"ite":2167,"Ġdintr":2168,"ÈĽionalÄĥ":2169,"Ġsiguran":2170,"tÄĥrii":2171,"Ġofici":2172,"gaz":2173,"Ġtradi":2174,"Ġspecta":2175,"ĠCar":2176,"ĠÅ£Äĥ":2177,"ho":2178,"ĠgÃ¢nd":2179,"Ġprelu":2180,"ĠCur":2181,"Ġ21":2182,"Ġ199":2183,"Ġprintre":2184,"Ġdeose":2185,"Ġjos":2186,"Ġcuprin":2187,"resa":2188,"Ġrespectiv":2189,"ĠSunt":2190,"Ġpunct":2191,"pie":2192,"diat":2193,"gerea":2194,"De":2195,"Ġfemei":2196,"pres":2197,"Ġprodus":2198,"\".":2199,"âĶ":2200,"dii":2201,"Ġpic":2202,"tica":2203,"Ġatra":2204,"gine":2205,"Ġeveniment":2206,"mas":2207,"ĠCÃ¢nd":2208,"ĠalÄĥturi":2209,"ĠcumpÄĥ":2210,"ĠAlex":2211,"Ġcultura":2212,"ĠBra":2213,"isla":2214,"ud":2215,"Ġprobleme":2216,"Ġhi":2217,"Ġantre":2218,"Ġpersonal":2219,"Ġminute":2220,"Ġcontri":2221,"Ġsuntem":2222,"cÃ¢nd":2223,"tera":2224,"ĠFran":2225,"xe":2226,"ĠTa":2227,"bilitate":2228,"ĠvÃ¢n":2229,"stic":2230,"ual":2231,"Ġeta":2232,"ĠMon":2233,"ĠÈĽ":2234,"Ġprof":2235,"oastrÄĥ":2236,"Ġmani":2237,"Ġiulie":2238,"pt":2239,"ĠoraÈĻ":2240,"Ġprieten":2241,"Ġmartie":2242,"Ġmoder":2243,"ĠÃ®ntrea":2244,"iesc":2245,"ĠTV":2246,"bul":2247,"Ġacestora":2248,"Ġconsum":2249,"Ġvei":2250,"atorul":2251,"tÄĥri":2252,"gina":2253,"Ġextre":2254,"Ġfinanci":2255,"stat":2256,"voc":2257,"Ġproba":2258,"ĠCel":2259,"Ġcam":2260,"ĠEle":2261,"ĠPSD":2262,"Ġdos":2263,"spi":2264,"Ġreprezentan":2265,"Ġdestul":2266,"Å£inut":2267,"Ġconform":2268,"anua":2269,"ĠY":2270,"unde":2271,"ÈĽat":2272,"dicÄĥ":2273,"anuarie":2274,"Ġmax":2275,"ĠpÄĥr":2276,"Ð¾":2277,"Ġdreptul":2278,"ĠCor":2279,"ĠromÃ¢ni":2280,"Ġconfor":2281,"ĠviaÅ£a":2282,"ĠMih":2283,"Ġvedea":2284,"mentul":2285,"ĠperioadÄĥ":2286,"zboi":2287,"Ġren":2288,"âĢ¦]":2289,"eau":2290,"Ġ22":2291,"ĠnumÄĥrul":2292,"ĠCri":2293,"ĠÅ£":2294,"bate":2295,"Ġcontrac":2296,"Ġlucruri":2297,"11":2298,"Ġexecu":2299,"ion":2300,"gice":2301,"Ġservici":2302,"tine":2303,"Ġprimi":2304,"Ġproces":2305,"Ġ50":2306,"gere":2307,"Ġpropune":2308,"Ġaccep":2309,"Ġapa":2310,"Ġvic":2311,"Ġzon":2312,"Ġsimplu":2313,"ghi":2314,"ĠÃ®ÈĽi":2315,"ĠSp":2316,"Ġoca":2317,"ĠIoan":2318,"AN":2319,"Ġturi":2320,"cri":2321,"Ġrapi":2322,"cursul":2323,"catÄĥ":2324,"Ġha":2325,"Ġorganiza":2326,"ĠEuropa":2327,"ĠoraÅŁ":2328,"Ġmotiv":2329,"ĠMu":2330,"Ġfolos":2331,"gia":2332,"las":2333,"ĠUniversi":2334,"ĠmÄĥr":2335,"Ġluna":2336,"Ġgen":2337,"Ġcurs":2338,"cei":2339,"Ġafir":2340,"strat":2341,"Ġangaj":2342,"rilie":2343,"Ġcore":2344,"ser":2345,"ĠHristos":2346,"Ġaugust":2347,"net":2348,"Ġianuarie":2349,"Ġtex":2350,"Ġcunoa":2351,"viz":2352,"neav":2353,"tatul":2354,"ĠgÄĥsi":2355,"ĠhotÄĥr":2356,"ÈĽinut":2357,"cii":2358,"ĠUr":2359,"ww":2360,"ÅŁtii":2361,"Ġrezi":2362,"ĠÃ®nchi":2363,"Ġameric":2364,"ĠcÃ¢n":2365,"ĠRus":2366,"Ġcalcul":2367,"ĠcÄĥlÄĥ":2368,"Ġdeparte":2369,"ricii":2370,"Ġviz":2371,"Ġferici":2372,"ĠcreÈĻte":2373,"ĠFa":2374,"Ġspor":2375,"Ġobie":2376,"ice":2377,"tom":2378,"xima":2379,"Ġ[âĢ¦]":2380,"ful":2381,"entele":2382,"Ġextra":2383,"ĠÃ®ntÃ¢lniri":2384,"onsa":2385,"ĠavÃ¢nd":2386,"Ġvreme":2387,"ĠComis":2388,"dului":2389,"Ġmesa":2390,"vizi":2391,"Ġistori":2392,"Ġfurn":2393,"ĠcreÅŁte":2394,"licat":2395,"log":2396,"ctor":2397,"Ġwe":2398,"Ġdimin":2399,"Ġinclusiv":2400,"barea":2401,"ĠÃ®nsc":2402,"Ġep":2403,"ciale":2404,"Ġexisten":2405,"amente":2406,"ĠâĢ¦":2407,"zon":2408,"atele":2409,"Ġprofesion":2410,"Ġdevenit":2411,"vil":2412,"oci":2413,"anul":2414,"nu":2415,"Ġtit":2416,"don":2417,"inÅ£Äĥ":2418,"Ġinde":2419,"Ġdirect":2420,"zarea":2421,"Ġneg":2422,"Ġcola":2423,"Ġreduce":2424,"ĠIon":2425,"ĠtÃ¢r":2426,"Ġechipa":2427,"Ġteri":2428,"Ġdiver":2429,"ĠIs":2430,"ĠviaÈĽa":2431,"Ġden":2432,"oh":2433,"Ġveri":2434,"Ġachizi":2435,"Ġeli":2436,"Ġpartici":2437,"lemen":2438,"Ġfaci":2439,"Ġconfi":2440,"ian":2441,"Ġindu":2442,"artea":2443,"tarÄĥ":2444,"ĠtoÅ£i":2445,"Ġaprilie":2446,"Ġjurul":2447,"toarele":2448,"ximativ":2449,"taÅ£i":2450,"ĠniciodatÄĥ":2451,"Ġdumneav":2452,"Ġcopiii":2453,"Ġabsol":2454,"Ġgrat":2455,"ferÄĥ":2456,"tru":2457,"TE":2458,"deauna":2459,"ĠÈĽÄĥ":2460,"Ġjuri":2461,"Ġmodul":2462,"Ġexa":2463,"ĠjucÄĥ":2464,"icul":2465,"ĠacasÄĥ":2466,"ĠCul":2467,"siuni":2468,"vs":2469,"Ġdisponi":2470,"ĠfaÅ£a":2471,"ĠpregÄĥti":2472,"chii":2473,"Ġinsta":2474,"ĠTimi":2475,"pri":2476,"Ġcinci":2477,"Ġ23":2478,"unilor":2479,"Ġefici":2480,"lori":2481,"Ġmeto":2482,"ĠÃ®nal":2483,"Ġprevede":2484,"Ġform":2485,"Ġamen":2486,"vie":2487,"Ġdeschis":2488,"Ġvaloare":2489,"strÄĥ":2490,"oarele":2491,"12":2492,"âĶĢ":2493,"cen":2494,"mov":2495,"Ġanim":2496,"50":2497,"zele":2498,"Ġafaceri":2499,"Ġfu":2500,"lici":2501,"inÅ£a":2502,"OR":2503,"alele":2504,"ĠdesfÄĥÅŁ":2505,"ĠadevÄĥrat":2506,".,":2507,"Ġpici":2508,"ĠviaÅ£Äĥ":2509,"Å£iuni":2510,"ĠParla":2511,"Ġdura":2512,"Ġspiri":2513,"selor":2514,"ĠsÄĥr":2515,"sm":2516,"Ġacestor":2517,"Ġsecre":2518,"duri":2519,"ĠConsiliului":2520,"nit":2521,"Ġdure":2522,"Ġmajori":2523,"Ġpartene":2524,"Äĥrii":2525,"Ġalin":2526,"Ð°":2527,"ĠadÄĥ":2528,"par":2529,"Ġciti":2530,"ĠuÅŁ":2531,"ÈĻtii":2532,"ĠBe":2533,"dine":2534,"tiva":2535,"18":2536,"--":2537,"ĠviaÈĽÄĥ":2538,"IC":2539,"Ġacci":2540,"titu":2541,"Ġev":2542,"Ġ2013":2543,"ĠrÄĥmÃ¢ne":2544,"tec":2545,"Ġdesi":2546,"Ġtru":2547,"ĠÂ»":2548,"Ġvechi":2549,"ĠPub":2550,"Ġpsi":2551,"Ðµ":2552,"Ġcineva":2553,"arie":2554,"Ġrespec":2555,"ĠFil":2556,"cra":2557,"aturi":2558,"ĠÃ®ncre":2559,"ĠcÄĥu":2560,"Ġazi":2561,"sem":2562,"lia":2563,"ĠSU":2564,"Ġajutorul":2565,"Ġiz":2566,"ĠtÄĥu":2567,"ĠrugÄĥ":2568,"Ġacestuia":2569,"uite":2570,"teze":2571,"Ġlegisla":2572,"Ġvalori":2573,"ĠFo":2574,"Ġurmare":2575,"cere":2576,"Ġcame":2577,"otel":2578,"ĠcÃ¢ÈĻti":2579,"pat":2580,"ĠmulÅ£i":2581,"Ġintro":2582,"Ġarticol":2583,"Ġstri":2584,"Ã¢nge":2585,"viu":2586,"dei":2587,"ĠjumÄĥ":2588,"Ġexerci":2589,"Ġvorbe":2590,"pei":2591,"eaza":2592,"lau":2593,"ĠpoÈĽi":2594,"ÈĽuri":2595,"Ġduce":2596,"Ġmerge":2597,"ĠcuvÃ¢n":2598,"Ġimportante":2599,"Ġsistemul":2600,"dare":2601,"ĠsÄĥrbÄĥ":2602,"Ġpermite":2603,"Ġser":2604,"bra":2605,"âĶĢâĶĢ":2606,"Ġatin":2607,"ws":2608,"Ġresponsa":2609,"ĠprevÄĥ":2610,"Ġref":2611,"ĠpublicÄĥ":2612,"ster":2613,"cÈĽie":2614,"DE":2615,"Ġlocuri":2616,"Ġfotograf":2617,"ĠPorno":2618,"mon":2619,"ĠpreÈĻedin":2620,"Ġsucces":2621,"UL":2622,"ĠCod":2623,"toarea":2624,"ĠformÄĥ":2625,"IN":2626,"xi":2627,"Ġsan":2628,"Ġlocale":2629,"ila":2630,"atorii":2631,"ĠTre":2632,"Ġmaxim":2633,"Ġadop":2634,"alizÄĥ":2635,"ram":2636,"stre":2637,"ÈĽiuni":2638,"Ġaproximativ":2639,"per":2640,"unda":2641,"ĠCer":2642,"ĠAlexand":2643,"ismul":2644,"cole":2645,"Ġmereu":2646,"ue":2647,"bruarie":2648,"ricul":2649,"Ġdeclara":2650,"Ġmana":2651,"Ġdaca":2652,"Ġdeter":2653,"Ġstruc":2654,"Ġsingur":2655,"Ġmanife":2656,"Ã®nt":2657,"iectul":2658,"Ġvorb":2659,"Ġ2012":2660,"cia":2661,"Ġthe":2662,"ĠAsocia":2663,"Ġrezol":2664,"ĠaÈĻte":2665,"Ġintre":2666,"ĠdesfÄĥÈĻ":2667,"Ġsistem":2668,"ĠmaÈĻ":2669,"Ġstil":2670,"Ġaltfel":2671,"Ġtotal":2672,"ĠmulÈĽi":2673,"Ġamin":2674,"Ġaflat":2675,"ĠrÄĥspuns":2676,"ÅŁtin":2677,"Ġobliga":2678,"ĠPrimÄĥ":2679,"Ã¢l":2680,"ĠMihai":2681,"Ġcircul":2682,"ĠPers":2683,"Ġpres":2684,"Ġactivitatea":2685,"torie":2686,"Ġdori":2687,"Ġfurniz":2688,"Ġreferi":2689,"Ġsele":2690,"fera":2691,"Ġconstruc":2692,"ĠLoc":2693,"ĠprimÄĥ":2694,"Ġprogram":2695,"ĠUE":2696,"raj":2697,"Ġlegi":2698,"ziu":2699,"inele":2700,"ĠVÄĥ":2701,"dam":2702,"Ġanaliz":2703,"ĠasigurÄĥ":2704,"Ġcandi":2705,"lini":2706,"Ġlua":2707,"Ġlucrurile":2708,"fiin":2709,"ĠdepÄĥ":2710,"arului":2711,"ĠbazÄĥ":2712,"Ġconsul":2713,"AL":2714,"Ġconcurs":2715,"andÄĥ":2716,"Ġasc":2717,"oma":2718,"ĠGhe":2719,"ju":2720,"Ġunii":2721,"Ġ28":2722,"Ġclien":2723,"sur":2724,"Ġultima":2725,"ĠadicÄĥ":2726,"Ġec":2727,"Ġamp":2728,"Ġemo":2729,"ĠrÄĥmas":2730,"ĠAcesta":2731,"Ġposibil":2732,"Ġelev":2733,"Ġnimeni":2734,"Ġ27":2735,"Ġputut":2736,"book":2737,"Ġfinal":2738,"ĠVic":2739,"valu":2740,"Ġstare":2741,"ĠrÄĥu":2742,"todo":2743,"ĠDu":2744,"Ġextrem":2745,"Ġpreo":2746,"ĠtÃ¢nÄĥ":2747,"Ġtelefon":2748,"Ġdefini":2749,"Ġajuta":2750,"Ġmagaz":2751,"Ġseri":2752,"Ġpromov":2753,"ĠÄĥ":2754,"ĠaibÄĥ":2755,"Ġdrago":2756,"Ġlocal":2757,"Ġdocumen":2758,"Å£elor":2759,"ctivÄĥ":2760,"oritÄĥ":2761,"Ġfebruarie":2762,"Ġdedic":2763,"inul":2764,"uale":2765,"zit":2766,"dra":2767,"Ġpan":2768,"oace":2769,"Ġrapor":2770,"ĠHo":2771,"bli":2772,"ĠPotrivit":2773,"ĠÃ®nchis":2774,"ĠConstanÅ£a":2775,"ĠdumneavoastrÄĥ":2776,"Ġinterme":2777,"In":2778,"Ġuti":2779,"Ġime":2780,"Ġ26":2781,"Ġfot":2782,"Ġcompeti":2783,"Ġexcep":2784,"Ġformul":2785,"olae":2786,"ĠmultÄĥ":2787,"Ġfamilie":2788,"15":2789,"Ġaer":2790,"Ġrea":2791,"ĠnumÄĥr":2792,"ON":2793,"ĠmÃ¢":2794,"ÄĥtÄĥ":2795,"tam":2796,"AR":2797,"Ġfacem":2798,"Ġplace":2799,"isa":2800,"ĠGerman":2801,"Ġtoc":2802,"ung":2803,"ĠMinisterul":2804,"Ġpierdu":2805,"bre":2806,"ĠclÄĥ":2807,"ĠMul":2808,"tp":2809,"Ġfran":2810,"Ġinteri":2811,"forman":2812,"Ġprobabil":2813,"Ġvederea":2814,"Ġbloc":2815,"Ġvreo":2816,"Ġmele":2817,"ĠBan":2818,"voi":2819,"giu":2820,"Ġrealizat":2821,"Ġguvern":2822,"Å£iune":2823,"nicÄĥ":2824,"artÄĥ":2825,"Ġzis":2826,"ĠpersoanÄĥ":2827,"ĠtoÈĽi":2828,"uitÄĥ":2829,"Ġindic":2830,"cÅ£ie":2831,"th":2832,"ĠFace":2833,"Ġconcep":2834,"ÈĽiune":2835,"Ġsens":2836,"ĠOn":2837,"Ġpopula":2838,"ĠDirec":2839,"Ġalim":2840,"ierul":2841,"Ġapare":2842,"Ġdetal":2843,"Ġdiminea":2844,"ĠDomnului":2845,"ĠfaÈĽa":2846,"ĠcasÄĥ":2847,"ĠFor":2848,"Ġprintr":2849,"Ġmijloc":2850,"Ġdau":2851,"Ġprimele":2852,"ĠâĢ¢":2853,"Ġpolitic":2854,"Ġgu":2855,"Ġlung":2856,"Ġsar":2857,"Ġreli":2858,"ĠZi":2859,"luen":2860,"Ġcopiilor":2861,"ocie":2862,"Ġfii":2863,"Ġnecesare":2864,"Ġfrumos":2865,"Ġdezvoltarea":2866,"pere":2867,"Ġmii":2868,"Ġbol":2869,"Ġchel":2870,"Ġmunicipi":2871,"mpor":2872,"ĠpoliticÄĥ":2873,"surÄĥ":2874,"Ġascul":2875,"ĠÃ®ntÃ¢mplÄĥ":2876,"Ġinstan":2877,"Ġteritori":2878,"Ġobicei":2879,"Ġsine":2880,"ĠAceastÄĥ":2881,"Ġintere":2882,"ĠÃ®nregistra":2883,"Ġâ":2884,"ĠmaÅŁ":2885,"Ġ40":2886,"mate":2887,"Ġtotu":2888,"ferent":2889,"indu":2890,"iel":2891,"ĠAv":2892,"Ġsociale":2893,"Ġcuvinte":2894,"Ġconvin":2895,"zute":2896,"Ġstan":2897,"Ġindivi":2898,"Ġdupa":2899,"vÃ¢r":2900,"Ġmulti":2901,"ciu":2902,"Re":2903,"Ġordin":2904,"ĠÃ®ntÃ¢lnire":2905,"Ġcontrol":2906,"Ġcunoscut":2907,"Ġagen":2908,"ki":2909,"Ġscurt":2910,"Ġdemon":2911,"ger":2912,"ĠmodificÄĥ":2913,"Ġserie":2914,"Ġsupl":2915,"dici":2916,"Ġcand":2917,"ER":2918,"Ġemi":2919,"inicÄĥ":2920,"gal":2921,"Äĥm":2922,"ĠSc":2923,"Ġpara":2924,"Ġanumite":2925,"Ã®t":2926,"zeazÄĥ":2927,"tÄĥÅ£ilor":2928,"fin":2929,"ĠTur":2930,"tdeauna":2931,"Ġdus":2932,"Ġdvs":2933,"Ġtranspor":2934,"ĠMari":2935,"Ð¸":2936,"Ġprezenta":2937,"ĠAcum":2938,"ĠcontinuÄĥ":2939,"ĠÅ£arÄĥ":2940,"Ġexclu":2941,"ĠjumÄĥtate":2942,"ĠOl":2943,"Nu":2944,"stice":2945,"bol":2946,"ĠcÃ¢ÅŁti":2947,"Ġnorm":2948,"ĠDeci":2949,"ĠInterna":2950,"Ġlic":2951,"ĠgÄĥsit":2952,"ĠÃ®ngrij":2953,"Ġstatului":2954,"ĠÃ®nf":2955,"alizare":2956,"inile":2957,"sticÄĥ":2958,"ĠNicolae":2959,"vei":2960,"Ġprime":2961,"Ġgene":2962,"Ġalb":2963,"dial":2964,"Ġfolosit":2965,"Ġconse":2966,"arcÄĥ":2967,"ĠGheor":2968,"Ġacoperi":2969,"Ġproiectului":2970,"ĠDomnul":2971,"Ġacce":2972,"Ġevolu":2973,"Ġtem":2974,"ĠÃ®ncÄĥl":2975,"ĠÃ®mbunÄĥ":2976,"Ġcontinuare":2977,"Ġsecuri":2978,"ĠÅŁa":2979,"Ġlitera":2980,"Ġeurope":2981,"Ġfoc":2982,"Ġcolabor":2983,"Ġadresa":2984,"Ġfilm":2985,"ĠAceasta":2986,"ritan":2987,"Ġomul":2988,"Ġpopor":2989,"ĠÅŁe":2990,"ĠThe":2991,"Ã©":2992,"ĠurmeazÄĥ":2993,"Ġcost":2994,"ĠII":2995,"atoare":2996,"Ġfer":2997,"ĠadÄĥu":2998,"ĠÃ®nvÄĥÅ£Äĥ":2999,"ĠTrans":3000,"ĠAca":3001,"ĠaÅŁte":3002,"ĠÃ®nch":3003,"bele":3004,"ĠmÄĥsurÄĥ":3005,"Ġcapaci":3006,"zice":3007,"Ġidenti":3008,"ologice":3009,"inÈĽÄĥ":3010,"Ġaltor":3011,"Ġpaci":3012,"Ġexact":3013,"ĠfuncÈĽion":3014,"trÃ¢n":3015,"guri":3016,"Ġdev":3017,"Äĥl":3018,"ficare":3019,"ĠfuncÅ£ion":3020,"ĠCop":3021,"Ġconsta":3022,"ĠÃ®ntreaga":3023,"Ġcaracter":3024,"arce":3025,"Ġdoresc":3026,"ginea":3027,"Ġtrea":3028,"Ġdiverse":3029,"ĠÃ®nche":3030,"mii":3031,"Ġspeciali":3032,"Ġlumii":3033,"ĠSUA":3034,"Ġgru":3035,"Ġjocuri":3036,"Ġune":3037,"ĠvÃ¢rstÄĥ":3038,"Ġintrat":3039,"ĠuÈĻor":3040,"ĠÃ®ncepÃ¢nd":3041,"ĠmÄĥcar":3042,"ĠCau":3043,"antÄĥ":3044,"Ġscri":3045,"Ġseama":3046,"ĠCele":3047,"Ġlocali":3048,"2018":3049,"umul":3050,"telui":3051,"imentare":3052,"ĠJo":3053,"Ġfiz":3054,"roase":3055,"ner":3056,"Ġurmat":3057,"Ġsuperi":3058,"Ġeuropene":3059,"ĠRomania":3060,"arta":3061,"Ġjusti":3062,"iercuri":3063,"Ġmuri":3064,"Ġlege":3065,"dice":3066,"et":3067,"ĠacelaÅŁi":3068,"gle":3069,"olari":3070,"bia":3071,"Ġ29":3072,"oamne":3073,"Ġterm":3074,"Ġautom":3075,"Ġperforman":3076,"Ġpom":3077,"Ġero":3078,"Ġbeneficia":3079,"Ġinfluen":3080,"Ġesen":3081,"Ġdea":3082,"Ġadus":3083,"rumul":3084,"onal":3085,"Ġgaran":3086,"ismului":3087,"ilÄĥ":3088,"ĠjudecÄĥ":3089,"ĠacelaÈĻi":3090,"ficat":3091,"Ġsocial":3092,"Ġangaja":3093,"Ġcontract":3094,"tamentul":3095,"Ġposibilitatea":3096,"ĠEi":3097,"Ġpsih":3098,"ĠVale":3099,"Ġscu":3100,"gie":3101,"ĠmicÄĥ":3102,"Ġdoilea":3103,"ĠGo":3104,"orului":3105,"fan":3106,"sea":3107,"Ġconsil":3108,"amb":3109,"ĠComp":3110,"ĠSte":3111,"16":3112,"ÑĤ":3113,"Ġproiecte":3114,"ĠhotÄĥrÃ¢":3115,"Ġanii":3116,"ĠLegea":3117,"Ġminim":3118,"Ġintegra":3119,"ĠinformaÈĽii":3120,"Ġsla":3121,"Ġdepu":3122,"stival":3123,"Ġclas":3124,"Ġviitor":3125,"ĠrÃ¢":3126,"Ġcasa":3127,"Ġexpl":3128,"ĠAnun":3129,"Ġorganizat":3130,"Ġlar":3131,"mÃ¢ntul":3132,"ĠÈĽarÄĥ":3133,"ĠschimbÄĥ":3134,"ĠSim":3135,"vate":3136,"Ġalta":3137,"mail":3138,"ĠÃ®nceputul":3139,"Ġdiferen":3140,"Ġdoc":3141,"Ġfund":3142,"stria":3143,"Ġacel":3144,"face":3145,"ĠPat":3146,"ĠrÄĥzboi":3147,"Ġvis":3148,"Ġantren":3149,"ĠCare":3150,"ĠclÄĥdi":3151,"arde":3152,"lub":3153,"Ġ2011":3154,"Ġproiectul":3155,"ĠÂ«":3156,"Ġintermediul":3157,"Ġevenimente":3158,"Ġfata":3159,"amentul":3160,"Å£ean":3161,"amÄĥ":3162,"Ġdore":3163,"Ġscopul":3164,"ĠcÄĥci":3165,"ocra":3166,"Ġsuper":3167,"Ġnicio":3168,"Ġregim":3169,"Ġpotri":3170,"diului":3171,"ĠÃ®nca":3172,"Ġlan":3173,"Ġfemeie":3174,"ceava":3175,"aÈĽi":3176,"Ġcorp":3177,"ou":3178,"Ġ198":3179,"Ġultimul":3180,"ĠÃ®ndepl":3181,"Ġexam":3182,"Ġfelul":3183,"Ġmotive":3184,"Ġefor":3185,"ordon":3186,"Ġaspec":3187,"Ġredu":3188,"Ġactivitate":3189,"ĠConsiliul":3190,"Ġpere":3191,"Ġlini":3192,"Ġimediat":3193,"EN":3194,"ĠOra":3195,"cÄĥr":3196,"sim":3197,"ĠAra":3198,"Ġexista":3199,"ĠGuvernului":3200,"Ġavi":3201,"ĠFin":3202,"14":3203,"ĠÈĻtiu":3204,"ĠNoi":3205,"¿½":3206,"Å£iunea":3207,"Ġperman":3208,"ĠChiar":3209,"Ġsufici":3210,"Ġinfrac":3211,"Ã¢mbÄĥtÄĥ":3212,"ĠServ":3213,"ï¿½":3214,"Ġaltele":3215,"Ġprofi":3216,"Ġmateriale":3217,"zate":3218,"anda":3219,"Ġtocmai":3220,"ĠTi":3221,"ero":3222,"Ġvideo":3223,"lamen":3224,"Ġasa":3225,"ĠGenera":3226,"cÈĽia":3227,"Ġmediu":3228,"ĠSuceava":3229,"Ġelibe":3230,"ĠlegÄĥturÄĥ":3231,"Ġaminte":3232,"ĠDrag":3233,"Ġdeosebi":3234,"tiei":3235,"Ġconstitu":3236,"lip":3237,"Ġdrea":3238,"ĠvÄĥd":3239,"lele":3240,"Ġus":3241,"Ġputere":3242,"Ġinform":3243,"iscop":3244,"Ġgerman":3245,"Ġtare":3246,"Ġsluj":3247,"Ġcivil":3248,"ĠbÄĥrbat":3249,"Ġsalari":3250,"RO":3251,"Ġlemn":3252,"Ġ?":3253,"vel":3254,"ĠorÄĥ":3255,"Ġstuden":3256,"Ġcont":3257,"ĠputeÈĽi":3258,"ĠproducÄĥ":3259,"Ġproblema":3260,"ÈĽelor":3261,"Ġtale":3262,"Ġclar":3263,"Ġconfir":3264,"Ġvineri":3265,"Ġochii":3266,"ĠÃ®nain":3267,"Ġcelui":3268,"Ġdistru":3269,"Ġbra":3270,"ĠtÃ¢rziu":3271,"Ġlibe":3272,"Ġimpre":3273,"Ġoamenilor":3274,"Ġrezultate":3275,"ting":3276,"Ġfal":3277,"cÅ£ia":3278,"Ġresta":3279,"oaÈĻte":3280,"Ġpoveste":3281,"ĠRepublica":3282,"ins":3283,"Ġdesp":3284,"bare":3285,"ĠsingurÄĥ":3286,"seÈĻte":3287,"Ġdestin":3288,"Ġsuprafa":3289,"alizarea":3290,"ĠMat":3291,"Ġserviciu":3292,"oacÄĥ":3293,"Ġpierdut":3294,"inÈĽa":3295,"Ġcomer":3296,"Ġpolitici":3297,"dan":3298,"Ġasocia":3299,"ler":3300,"Ġmodel":3301,"tier":3302,"Ġprincipal":3303,"ĠGheorghe":3304,"stitui":3305,"ĠÈĻa":3306,"Ġmeri":3307,"Ġinstru":3308,"ĠÃ®Å£i":3309,"ÅŁii":3310,"Ġpersoanele":3311,"Ġstrate":3312,"Ġnecesi":3313,"ĠAme":3314,"AS":3315,"curile":3316,"ĠSpi":3317,"ĠEn":3318,"tarul":3319,"ĠCei":3320,"ĠNici":3321,"Ġrecomand":3322,"rand":3323,"ĠCS":3324,"Ġdove":3325,"ĠGeor":3326,"sile":3327,"Ġ,,":3328,"Ġinterpre":3329,"Ġteh":3330,"lalte":3331,"Ġasisten":3332,"Ġcontex":3333,"lad":3334,"ÈĽiunea":3335,"ĠpresÄĥ":3336,"Ġdatelor":3337,"Ġcomerci":3338,"ĠDE":3339,"ĠEuropene":3340,"ĠsÄĥnÄĥtate":3341,"Ġ!":3342,"ĠMic":3343,"nifica":3344,"Ġpuncte":3345,"Ġfier":3346,"Ġbiro":3347,"13":3348,"ĠConstanÈĽa":3349,"17":3350,"pia":3351,"ĠOnline":3352,"ierea":3353,"Ġfamilia":3354,"Ġzilele":3355,"Ġcomplet":3356,"Ġsto":3357,"Ġkm":3358,"ĠToate":3359,"Ġanume":3360,"atorilor":3361,"Ġsusp":3362,"Ġbar":3363,"Ġcomis":3364,"Ġpriete":3365,"izarea":3366,"Ġtermin":3367,"Ð½":3368,"Ġpromo":3369,"ÈĻtin":3370,"Ġarhi":3371,"Â»":3372,"ĠdatoritÄĥ":3373,"Ġand":3374,"bliote":3375,"tesc":3376,"ĠProgra":3377,"Ġevalu":3378,"Ġlegate":3379,"Ġhotel":3380,"ka":3381,"les":3382,"Ġtineri":3383,"ly":3384,"ĠInstitu":3385,"Ġlocui":3386,"nici":3387,"Ġexce":3388,"devÄĥ":3389,"Ġtehnolog":3390,"Ġis":3391,"Ġcaracteri":3392,"Ġvremea":3393,"Ġcondam":3394,"Ġmama":3395,"ĠÃ®mpÄĥr":3396,"ĠPoate":3397,"Ġatri":3398,"inde":3399,"ĠGi":3400,"tual":3401,"Ġpersona":3402,"Ġcatego":3403,"ĠSin":3404,"ĠAÈĻa":3405,"Ġniciun":3406,"Ġrenun":3407,"Ġenergie":3408,"Ġbanii":3409,"Ġcoa":3410,"Ġprezentat":3411,"tÄĥÈĽilor":3412,"Ġ2010":3413,"rani":3414,"OT":3415,"ĠmulÈĽ":3416,"Ġnumi":3417,"zÄĥrii":3418,"Ġformat":3419,"Ġnevoi":3420,"dis":3421,"ĠajutÄĥ":3422,");":3423,"Ġweb":3424,"nÄĥsti":3425,"Ġdecis":3426,"inÄĥu":3427,"teascÄĥ":3428,"ĠromÃ¢nÄĥ":3429,"Ã®r":3430,"Ġapari":3431,"Ġsurprin":3432,"nis":3433,"Ġzice":3434,"reascÄĥ":3435,"Ġdimen":3436,"ĠTot":3437,"tÃ¢nd":3438,"Ġimo":3439,"darea":3440,"Ġplat":3441,"ĠÅŁtiu":3442,"fo":3443,"jele":3444,"ĠMarea":3445,"Ġparteneri":3446,"ĠurmÄĥtoarele":3447,"ula":3448,"Ġorigin":3449,"Ġate":3450,"ĠAtunci":3451,"ty":3452,"alului":3453,"Ġsediul":3454,"geri":3455,"semn":3456,"cile":3457,"Ġcomenta":3458,"Ġgrij":3459,"Ġ&":3460,"ĠaÈĻ":3461,"tiile":3462,"inii":3463,"Ġdezvoltare":3464,"IT":3465,"Ġfab":3466,"ĠCamp":3467,"Ġmembru":3468,"pele":3469,"Ġzilei":3470,"lare":3471,"Ġputernic":3472,"Ġciu":3473,"ĠVo":3474,"Ġuniversi":3475,"Ġputerea":3476,"Ġdistri":3477,"Ġdatele":3478,"ĠUnite":3479,"Ġurgen":3480,"Ġasigura":3481,"ĠodatÄĥ":3482,"ec":3483,"ĠParlament":3484,"buit":3485,"Ġparticipat":3486,"Ġresur":3487,"24":3488,"Ġliv":3489,"ogra":3490,"Ġmetri":3491,"ĠSibi":3492,"tÄĥrile":3493,"ĠAsta":3494,"Ġreac":3495,"enti":3496,"Ġseara":3497,"ĠniÈĻte":3498,"Ġtrafic":3499,"Ġtrim":3500,"Ġacesteia":3501,"sau":3502,"Ġfun":3503,"ĠNi":3504,"Ġintr":3505,"ĠCra":3506,"ĠrÃ¢ndul":3507,"Ñģ":3508,"toria":3509,"ĠÃ®ntrebÄĥ":3510,"Ġpas":3511,"ĠFÄĥ":3512,"25":3513,"Ġjurn":3514,"Ġjoi":3515,"iat":3516,"ĠBiserica":3517,"Ġacele":3518,"dera":3519,"Ġrol":3520,"ĠCapi":3521,"ĠÅ¢":3522,"ĠFacebook":3523,"ĠCine":3524,"Ġnecesar":3525,"Ġscrii":3526,"ĠmulÅ£":3527,"Ġvari":3528,"Ġcomb":3529,"Ġeviden":3530,"Ġgol":3531,"todatÄĥ":3532,"Ġistoria":3533,"Ġoficial":3534,"ino":3535,"Ġpolitice":3536,"ĠGermania":3537,"jun":3538,"Ġmobil":3539,"Ġvaloarea":3540,"ĠCole":3541,"Ġcampan":3542,"ĠPra":3543,"âĢľ,":3544,"Ġcontribu":3545,"Ġman":3546,"Ġzil":3547,"Ġimpo":3548,"Ġrapid":3549,"Ġcomune":3550,"Ġafara":3551,"ĠAf":3552,"izare":3553,"bun":3554,"Ġmajoritatea":3555,"Ġocazia":3556,"ĠAÅŁa":3557,"ĠHa":3558,"Ġdistan":3559,"Ġpersoanelor":3560,"Ġechip":3561,"ĠafarÄĥ":3562,"oamna":3563,"Ġ+":3564,"ĠmasÄĥ":3565,"ĠStu":3566,"uire":3567,"Ġvrei":3568,"coala":3569,"ĠbÄĥrba":3570,"derii":3571,"Ġcuren":3572,"ĠniÅŁte":3573,"Ġcircula":3574,"Ġ31":3575,"ĠEuropeanÄĥ":3576,"ĠTri":3577,"inei":3578,"ÑĢ":3579,"formÄĥ":3580,"Ġtrimis":3581,"tuie":3582,"ĠsÄĥi":3583,"talul":3584,"Ġcompor":3585,"ĠAdministra":3586,"ĠApoi":3587,"Ġmie":3588,"serv":3589,"Ġsemnifica":3590,"ĠFie":3591,"Ġretra":3592,"Ġdific":3593,"mentele":3594,"derÄĥ":3595,"ĠsÃ¢nge":3596,"Ġporno":3597,"ĠaÅŁ":3598,"Ġulei":3599,"Ġexpri":3600,"Ġdevine":3601,"omen":3602,"Ġcredi":3603,"Ġsistemului":3604,"Ġinima":3605,"Ġproduce":3606,"Ġmate":3607,"ĠLo":3608,"id":3609,"IA":3610,"ĠÃ®ntotdeauna":3611,"tarii":3612,"ĠprÄĥ":3613,"tiri":3614,"ĠTu":3615,"Ġbal":3616,"Ġimagini":3617,"Ġvinde":3618,"ĠÃİntre":3619,"Ġcanti":3620,"rÄĥrii":3621,"vor":3622,"ptat":3623,"ĠÈĻe":3624,"coalÄĥ":3625,"40":3626,"Am":3627,"Ġpol":3628,"Ġobligat":3629,"ĠEdi":3630,"ĠDis":3631,"ptea":3632,"Ġobser":3633,"xÄĥ":3634,"Ġactiv":3635,"Ġvreau":3636,"tere":3637,"Ġinterven":3638,"inat":3639,"Ġcrescut":3640,"ĠÅ£in":3641,"Ġsufletul":3642,"...]":3643,"Pro":3644,"Ġ60":3645,"Ġcale":3646,"Ġmiercuri":3647,"ĠConstantin":3648,"Ġindepen":3649,"ĠÃ®mpÄĥ":3650,"ST":3651,"stian":3652,"Con":3653,"inta":3654,"Ġcorespun":3655,"ĠcurÄĥ":3656,"Ġcreat":3657,"stei":3658,"tabil":3659,"Ġfrance":3660,"Ġrepede":3661,"ĠduminicÄĥ":3662,"vÃ¢n":3663,"ĠRomÃ¢ne":3664,"ĠÃ®nfiin":3665,"Ġlipsa":3666,"uirea":3667,"Ġomului":3668,"Ġcentrul":3669,"ÈĽial":3670,"Å£ial":3671,"Ġdrumul":3672,"Ġintele":3673,"ĠromÃ¢nesc":3674,"ĠsusÅ£ine":3675,"ĠsÄĥptÄĥmÃ¢ni":3676,"ĠzonÄĥ":3677,"zei":3678,"Ġlegii":3679,"ĠpreÅ£":3680,"zÃ¢nd":3681,"Ġada":3682,"Ġfisc":3683,"Ġmerg":3684,"Ġsubstan":3685,"Ġprocesul":3686,"Ġimpl":3687,"ĠatÃ¢":3688,"venit":3689,"Ġmodificarea":3690,"ĠAlexandru":3691,"ĠprezintÄĥ":3692,"Ġochi":3693,"Ġaler":3694,"ĠPÄĥrin":3695,"Ġx":3696,"Ġfrec":3697,"xa":3698,"stina":3699,"Ġpresup":3700,"OM":3701,"LE":3702,"ĠapÄĥrut":3703,"Ġnoul":3704,"Ġoare":3705,"Ġadau":3706,"Ġmasa":3707,"streazÄĥ":3708,"ĠMaria":3709,"Ġultimii":3710,"ologic":3711,"stare":3712,"Ġcorec":3713,"ĠParti":3714,"cte":3715,"Ġindividu":3716,"gic":3717,"Ġaprobarea":3718,"Ġkil":3719,"Ġtera":3720,"alizat":3721,"ĠCite":3722,"ĠÃİnsÄĥ":3723,"Ġmas":3724,"onia":3725,"Ġcompeten":3726,"Ġsenti":3727,"Ġproa":3728,"Ġteat":3729,"ĠRusia":3730,"Ġrezer":3731,"ĠnÄĥscut":3732,"ĠspaÈĽi":3733,"ple":3734,"chili":3735,"ĠNaÅ£ional":3736,"ĠIe":3737,"ĠCame":3738,"ĠmÄĥsuri":3739,"tional":3740,"ciun":3741,"cla":3742,"valul":3743,"%,":3744,"Ġperfect":3745,"cÄĥri":3746,"Ġmiliarde":3747,"ĠPN":3748,"Ġglo":3749,"istÄĥ":3750,"Da":3751,"ĠÈĽin":3752,"ralÄĥ":3753,"Ġfrun":3754,"terioare":3755,"ĠÃİntr":3756,"Ġsigur":3757,"ÈĽean":3758,"ctivi":3759,"ÈĽionat":3760,"garia":3761,"ĠOri":3762,"Ġza":3763,"ĠuÅŁor":3764,"Ġcrede":3765,"ĠAnunÈĽuri":3766,"arh":3767,"ĠIul":3768,"Ġdolari":3769,"Ġela":3770,"Ġ2009":3771,"amenta":3772,"Ġdetalii":3773,"mitate":3774,"gno":3775,"inÅ£i":3776,"La":3777,"__":3778,"ĠCentrul":3779,"Ġcazuri":3780,"Ġdob":3781,"ĠCasa":3782,"ĠbucÄĥ":3783,"Ġtransport":3784,"Ġajutor":3785,"Ġimpozi":3786,"Ġplecat":3787,"Ð¾Ð":3788,"ft":3789,"ĠsusÈĽine":3790,"ilal":3791,"ĠfuncÈĽie":3792,"ĠlunÄĥ":3793,"Ġgratuit":3794,"//":3795,"ĠGala":3796,"Ġy":3797,"ĠRoman":3798,"ĠEra":3799,"ĠpreÅŁedintele":3800,"sh":3801,"Ġchesti":3802,"Ġextin":3803,"ĠrugÄĥci":3804,"ĠEa":3805,"Ġlansat":3806,"ĠMuze":3807,"zatÄĥ":3808,"ĠTÃ¢r":3809,"Ġpremi":3810,"cÄĥm":3811,"Ġtransmite":3812,"ĠaceÅŁti":3813,"iciile":3814,"Ġspeciale":3815,"Ġpagina":3816,"ĠproblemÄĥ":3817,"Ġexter":3818,"Ġine":3819,"Ġ'":3820,"Ġnoua":3821,"Ġmurit":3822,"Ġengle":3823,"ĠVasile":3824,"Ġsupor":3825,"Ġaprec":3826,"ĠconsiderÄĥ":3827,"oasa":3828,"Ġprogramul":3829,"Ġparlamen":3830,"Ġrecu":3831,"ĠCÃ¢":3832,"ire":3833,"Ġpublici":3834,"Ġieri":3835,"Ġinspi":3836,"Ġprimar":3837,"Å£ile":3838,"Ġteme":3839,"Ġperfec":3840,"ohan":3841,"Ġvezi":3842,"Ġidentific":3843,"Ġlider":3844,"Ġblog":3845,"Ġimplemen":3846,"Ġgo":3847,"ĠPrima":3848,"Ġpublicat":3849,"ĠÈĽi":3850,"ĠÅ£i":3851,"ĠBar":3852,"ĠUniversitatea":3853,"ĠstrÃ¢n":3854,"ĠneÃ®n":3855,"Ġmedia":3856,"Ġpunctul":3857,"coli":3858,"Ġcompon":3859,"spect":3860,"Ġconferin":3861,"riere":3862,"ĠâĢĶ":3863,"Ġrele":3864,"dini":3865,"Ġridicat":3866,"ork":3867,"Ġacor":3868,"Ġcolec":3869,"zvol":3870,"Ġconcent":3871,"ĠÈļ":3872,"talia":3873,"ĠtatÄĥ":3874,"Ġesti":3875,"ĠCea":3876,"agÄĥ":3877,"ĠÃ®ntor":3878,"ĠpoÅ£i":3879,"Ġreprezenta":3880,"ĠinformaÅ£ii":3881,"ĠUniunii":3882,"orilor":3883,"ĠÃ®nvÄĥÈĽÄĥ":3884,"Ġindiferent":3885,"Ġplin":3886,"ĠCun":3887,"Ġbile":3888,"Ġuneori":3889,"Ġmediul":3890,"licii":3891,"Ġspectacol":3892,"aÅ£i":3893,"ticul":3894,"ĠMan":3895,"Ġpersonale":3896,"atorului":3897,"ĠMir":3898,"ĠsearÄĥ":3899,"Ġlungul":3900,"ĠsÄĥptÄĥmÃ¢nÄĥ":3901,"Ġexper":3902,"Ġcateg":3903,"Ġnaturale":3904,"Ġfrumoase":3905,"vat":3906,"Ġlice":3907,"colo":3908,"Ġajung":3909,"Ġtema":3910,"Ġcompara":3911,"nele":3912,"Ġcerut":3913,"cului":3914,"Ġnoapte":3915,"site":3916,"ĠcÄĥl":3917,"Ġparcursul":3918,"Ġfron":3919,"Ġtrimite":3920,"Ġfar":3921,"Ġpens":3922,"Å£ionat":3923,"Ġelector":3924,"iecte":3925,"Ġfav":3926,"uncii":3927,"urat":3928,"iate":3929,"Ġprocu":3930,"Ġultimele":3931,"Ġcopilul":3932,"cel":3933,"ĠDragnea":3934,"Ġcab":3935,"ĠvieÅ£ii":3936,"ĠGuvernul":3937,"ĠTrebuie":3938,"60":3939,"undÄĥ":3940,"gare":3941,"ĠSal":3942,"ordin":3943,"ĠAlba":3944,"ĠAndrei":3945,"ĠpÄĥmÃ¢nt":3946,"ilv":3947,"ob":3948,"tos":3949,"Ġspunea":3950,"Ġmedie":3951,"Ġconcer":3952,"Ġfacut":3953,"Ġvizita":3954,"ĠAceste":3955,"ĠArtic":3956,"Ġmodern":3957,"Ġdomnul":3958,"aturÄĥ":3959,"Ġzic":3960,"Ġremar":3961,"Ã¡":3962,"Ġtempera":3963,"ĠSibiu":3964,"ãģ":3965,"ĠsÃ¢mbÄĥtÄĥ":3966,"!!":3967,"ji":3968,"bel":3969,"cipi":3970,"uran":3971,"rata":3972,"Ġistorie":3973,"Ġparticipan":3974,"Å£it":3975,"ĠÃ®nsu":3976,"ĠfuncÅ£ie":3977,"ĠUl":3978,"Ġamerican":3979,"cun":3980,"ttp":3981,"ĠeÈĻti":3982,"ens":3983,"Ġpersoana":3984,"ĠVlad":3985,"izat":3986,"Ġprece":3987,"Ġobiective":3988,"ÈĻii":3989,"rem":3990,"ĠRu":3991,"Un":3992,"orÄĥ":3993,"ĠSpe":3994,"Ġlista":3995,"Ġcopilului":3996,"Ġstrada":3997,"Ġimplic":3998,"!âĢĿ":3999,"Ġprovoc":4000,"Ġmers":4001,"olen":4002,"ĠAgen":4003,"Ġmand":4004,"IE":4005,"oanele":4006,"ĠEuropean":4007,"ĠreuÈĻit":4008,"ĠSer":4009,"Ġstudii":4010,"Ġcup":4011,"Ġrolul":4012,"ĠPrimÄĥria":4013,"Ġprotej":4014,"ÅŁtri":4015,"ry":4016,"Ġprodusele":4017,"ĠintrÄĥ":4018,"ĠechipÄĥ":4019,"Ġideea":4020,"Ġeg":4021,"ĠGeorge":4022,"Ġuci":4023,"ĠJusti":4024,"alizate":4025,"ograf":4026,"ĠspaÅ£i":4027,"Ġduh":4028,"Ġopin":4029,"Ġvicti":4030,"Ġameste":4031,"cine":4032,"ĠmÃ¢nÄĥ":4033,"Ġdepozi":4034,"ĠÃ®nso":4035,"ĠSau":4036,"goare":4037,".)":4038,"ĠlucrÄĥri":4039,"ĠTim":4040,"Äĥn":4041,"Ġrecla":4042,"puse":4043,"ĠrecomandÄĥ":4044,"Ġfen":4045,"ĠLui":4046,"ĠÃ®ncercat":4047,"ĠimportantÄĥ":4048,"Ġdub":4049,"ĠprevÄĥzute":4050,"strului":4051,"Ġscen":4052,"ĠluptÄĥ":4053,"desc":4054,"Ġpierde":4055,"entului":4056,"ĠdeÅŁi":4057,"Ġrecunos":4058,"Ġsunte":4059,"Ġcelelalte":4060,"ĠbÄĥn":4061,"Ġiube":4062,"Ġspate":4063,"Ġmedicale":4064,"ĠstÃ¢n":4065,"Ġdescoperit":4066,"Ġgesti":4067,"UR":4068,"Ġlec":4069,"Ġvedem":4070,"Ġpoten":4071,"ĠurmÄĥri":4072,"lei":4073,"Ġspital":4074,"Ġfotbal":4075,"Ġexpozi":4076,"Ġdeloc":4077,"ÈĻtri":4078,"ĠaceeaÅŁi":4079,"stele":4080,"Ġbuna":4081,"ĠanunÅ£at":4082,"ainte":4083,"nat":4084,"://":4085,"ĠTimiÈĻ":4086,"Ã®nÄĥ":4087,"Ġnumit":4088,"Ġinternet":4089,"ĠcÄĥsÄĥ":4090,"okie":4091,"ÈĽea":4092,"Ġdomeniu":4093,"tefan":4094,"Ġdenumi":4095,"ĠcauzÄĥ":4096,"Ġ00":4097,"Ġarticole":4098,"Ġafi":4099,"Ġculoare":4100,"Ġimpa":4101,"ĠgÃ¢ndi":4102,"ĠBisericii":4103,"ĠPon":4104,"Å£ea":4105,"ĠNaÈĽional":4106,"ĠsÃ®nt":4107,"ĠcetÄĥÅ£":4108,"Ġpal":4109,"Ġapropie":4110,"Ġrefu":4111,"ĠConstitu":4112,"Ġsimil":4113,"donan":4114,"ÈĽile":4115,"son":4116,"ieri":4117,"CE":4118,"ĠÃ®ndrÄĥ":4119,"ĠlÄĥsat":4120,"Ġghi":4121,"cina":4122,"Ġfamiliei":4123,"22":4124,"pÃ¢n":4125,"stit":4126,"ĠMinisterului":4127,"ĠLegii":4128,"Ġpana":4129,"Ġsesi":4130,"trop":4131,"lim":4132,"sescu":4133,"ĠpÄĥcate":4134,"Ġmunca":4135,"oaie":4136,"Ġstr":4137,"mos":4138,"Ġavanta":4139,"Ġabia":4140,"Ġjucat":4141,"ĠvÃ¢rsta":4142,"Ġven":4143,"Ġaltul":4144,"Ġnega":4145,"Ġoferit":4146,"Ġutilizarea":4147,"ÈĽit":4148,"stului":4149,"âĢŀ":4150,"ĠRepublicii":4151,"deoc":4152,"Ġadres":4153,"Åŀ":4154,"lii":4155,"ĠPÃ¢nÄĥ":4156,"zile":4157,"ĠSfÃ¢ntul":4158,"Ġfizice":4159,"ĠPute":4160,"Ġinti":4161,"art":4162,"rimoni":4163,"ĠPla":4164,"ĠMedic":4165,"Ġpropriu":4166,"ĠExistÄĥ":4167,"Ġstarea":4168,"date":4169,"Ġ194":4170,"ĠÃ®ntreg":4171,"Ġvacan":4172,"ĠcuvÃ¢nt":4173,"Ġsanc":4174,"ĠServici":4175,"cal":4176,"ĠBer":4177,"Ġeram":4178,"Ġfilme":4179,"ĠstrÄĥinÄĥ":4180,"ĠSta":4181,"Ġcompaniei":4182,"Ġfinanciare":4183,"IS":4184,"Ġflori":4185,"uma":4186,"ĠAdrian":4187,"ÈĻtia":4188,"Ġwww":4189,"ĠreuÅŁit":4190,"Ġ2008":4191,"ducerea":4192,"relor":4193,"ĠÃ®nchei":4194,"Ġceilal":4195,"ĠOrgan":4196,"lului":4197,"Ġvorbi":4198,"Ġtratament":4199,"spector":4200,"Ġspatele":4201,"ĠPNL":4202,"Ġnord":4203,"Ġprocedu":4204,"199":4205,"ohannis":4206,"rt":4207,"vent":4208,"ĠarÄĥtat":4209,"Ġfiu":4210,"Ġrezisten":4211,"Ġlunii":4212,"ĠTeat":4213,"Ġrevi":4214,"ĠÃ®mbrÄĥ":4215,"Ġsezon":4216,"bii":4217,"Ġtransmis":4218,"Ġcursul":4219,"Ġadul":4220,"olului":4221,"usine":4222,"ĠÃ®ntÃ¢lne":4223,"ĠRadu":4224,"Ġcalitatea":4225,"Ġdragoste":4226,"ĠmÃ¢na":4227,"Ġimi":4228,"ĠCrÄĥ":4229,"ĠPia":4230,"Ġconfrun":4231,"Ġstudiu":4232,"ĠmiÈĻ":4233,"cio":4234,"hone":4235,"ĠWe":4236,"ĠcondiÅ£iile":4237,"ĠpÄĥre":4238,"Ġnormal":4239,"Ġdepune":4240,"seÅŁte":4241,"ĠmiÅŁ":4242,"Ġfur":4243,"Ġascun":4244,"Ġclub":4245,"Ġaccident":4246,"IV":4247,"ĠÅŁtie":4248,"ĠCan":4249,"Ġdul":4250,"Ġspecifice":4251,"ĠparcÄĥ":4252,"Ġdreapta":4253,"Ġloca":4254,"ĠEduca":4255,"dacti":4256,"Ġstatul":4257,"Ġstabilit":4258,"Ġoa":4259,"Ġminun":4260,"Se":4261,"ĠTru":4262,"Ġpil":4263,"Ġtro":4264,"mor":4265,"ĠfÄĥcute":4266,"ĠdeÈĻi":4267,"Ġfri":4268,"2017":4269,"ĠPal":4270,"ĠobÈĽine":4271,"ĠjudeÅ£ul":4272,"ĠRea":4273,"Ġpovesti":4274,"loace":4275,"iazÄĥ":4276,"Ġlegea":4277,"Ġserviciile":4278,"Ġconformitate":4279,"Ġcoordon":4280,"Ġinteli":4281,"sara":4282,"Ġvrut":4283,"Ġbur":4284,"ĠÃ®ntreprin":4285,"Ġvir":4286,"rus":4287,"Ġtrase":4288,"teaptÄĥ":4289,"ĠMate":4290,"ÅŁul":4291,"reze":4292,"ĠmuzicÄĥ":4293,"ieÅŁte":4294,"21":4295,"tant":4296,"Ġdezbate":4297,"imea":4298,"ĠUniunea":4299,"ĠpreÈĽ":4300,"ĠCE":4301,"Ġparticipa":4302,"ĠÃ®ncredere":4303,"zÄĥri":4304,"Ġfruc":4305,"ĠSor":4306,"Ġcru":4307,"Ġcaf":4308,"ĠromÃ¢neascÄĥ":4309,"ĠdesfÄĥÅŁura":4310,"Ġfara":4311,"Ġmanu":4312,"Ġvala":4313,"Å£inÄĥ":4314,"jului":4315,"Ġorganizarea":4316,"ĠBÄĥr":4317,"Ġdemocra":4318,"ĠSun":4319,"Ġconclu":4320,"ata":4321,"Ġconce":4322,"Ġdestina":4323,"ek":4324,"Ġvigoare":4325,"Ġvite":4326,"Ġ500":4327,"usiness":4328,"Ġcartea":4329,"Ġrecent":4330,"RL":4331,"ĠTine":4332,"dente":4333,"ĠZiua":4334,"Ġreligi":4335,"Ġgri":4336,"Ġcondus":4337,"buz":4338,"Ġfolosite":4339,"ĠTimiÅŁ":4340,"ĠTele":4341,"Ġviolen":4342,"mine":4343,"Ġ*":4344,"ceva":4345,"Ġdipl":4346,"delor":4347,"ĠUS":4348,"sioni":4349,"ĠOrtodo":4350,"Ġflu":4351,"ĠÃ®mplini":4352,"ghel":4353,"ĠRegi":4354,"ĠMunicipi":4355,"ĠÃ®ncu":4356,"ĠSup":4357,"Ġstate":4358,"Ġanimale":4359,"Ġaveau":4360,"ierÄĥ":4361,"ĠMircea":4362,"piscop":4363,"scri":4364,"Ġperspe":4365,"gura":4366,"ĠComisiei":4367,"ĠsocialÄĥ":4368,"Ġecran":4369,"Ġmeni":4370,"Ġsimt":4371,"Ġechili":4372,"Ġ#":4373,"Ġmicro":4374,"pÄĥr":4375,"end":4376,"gum":4377,"Ġmanage":4378,"ðŁ":4379,"ualÄĥ":4380,"Ġrisc":4381,"lun":4382,"ĠÈĻan":4383,"ĠcetÄĥÈĽ":4384,"chet":4385,"Ġmijloace":4386,"Ġsemnat":4387,"Ġtinere":4388,"Ġins":4389,"ĠIatÄĥ":4390,"Èĺ":4391,"Ġrefle":4392,"ĠplinÄĥ":4393,"Ġsoli":4394,"mise":4395,"reia":4396,"Ġdegra":4397,"ĠIohannis":4398,"23":4399,"Ġimagine":4400,"ĠlasÄĥ":4401,"Ġrealizarea":4402,"Ġcercetare":4403,"Ġnep":4404,"ction":4405,"chete":4406,"ĠpÄĥrÄĥ":4407,"Ġdetermin":4408,"Ġnoaptea":4409,"ĠSen":4410,"Ġraport":4411,"Ġlupta":4412,"ĠFinan":4413,"reau":4414,"Ġcompania":4415,"Ġclasa":4416,"Ġier":4417,"Ġcitit":4418,"Ġlucra":4419,"toc":4420,"ĠTÄĥ":4421,"ĠComisia":4422,"ĠItalia":4423,"Ġsingura":4424,"onice":4425,"ĠSt":4426,"ĠCaut":4427,"ĠzÄĥ":4428,"Ġexcelen":4429,"Ġzece":4430,"Ġsuflet":4431,"Ġacelea":4432,"ĠadÃ¢n":4433,"ĠIaÅŁi":4434,"Ġrealizate":4435,"Ġconflic":4436,"ed":4437,"ĠgrijÄĥ":4438,"Ġvac":4439,"Ġdirector":4440,"ĠpoartÄĥ":4441,"Ġmoartea":4442,"ĠCrÄĥciun":4443,"ĠÃ®nvin":4444,"ÈĽare":4445,"Ġmembrii":4446,"Å£ului":4447,"Ġobiectiv":4448,"Ġfostul":4449,"ĠDor":4450,"Ġzone":4451,"puta":4452,"........":4453,"Ġputin":4454,"ĠDNA":4455,"ÅŁtilor":4456,"ĠAcadem":4457,"cinÄĥ":4458,"Ġcompanii":4459,"RA":4460,"Ġpreveni":4461,"onului":4462,"Ġvorbit":4463,"format":4464,"ĠsiguranÈĽÄĥ":4465,"Å¢":4466,"grÄĥ":4467,"ĠAi":4468,"ĠaceeaÈĻi":4469,"Ġcontinua":4470,"oale":4471,"Ġinim":4472,"ĠpoliÅ£i":4473,"bri":4474,"Ġbugetul":4475,"ĠAici":4476,"ĠcÄĥrora":4477,"Ġsimbol":4478,"ĠSan":4479,"ĠÃ®nloc":4480,"ologia":4481,"Ġ[...]":4482,"rar":4483,"Ġcase":4484,"ĠbÄĥtrÃ¢n":4485,"Å£area":4486,"Ġpropria":4487,"Ġ>":4488,"ĠLiviu":4489,"ĠVictor":4490,"Ġpotrivi":4491,"curen":4492,"Ġdorit":4493,"Ġministrul":4494,"Ġhttp":4495,"Ġstre":4496,"stro":4497,"Ġtul":4498,"ĠÃ®ncÄĥr":4499,"ĠNord":4500,"ĠplÄĥcut":4501,"Ġeuropean":4502,"Ġauzit":4503,"Èļ":4504,"Ġreal":4505,"ĠnaÅ£ional":4506,"ĠpriveÅŁte":4507,"Ġcertific":4508,"ĠAsi":4509,"ĠeÅŁti":4510,"hic":4511,"ĠCol":4512,"by":4513,"Ġemis":4514,"Ġ197":4515,"Ġbuni":4516,"ĠcunoaÅŁte":4517,"Ġsuma":4518,"isus":4519,"Ġmei":4520,"Ġtimpului":4521,"Ġrealitate":4522,"Ġserviciilor":4523,"ĠJudeÅ£ean":4524,"ĠÅŁedin":4525,"Ġfim":4526,"sibil":4527,"ÈĻul":4528,"ĠAg":4529,"ĠaplicÄĥ":4530,"Ġcado":4531,"ĠveÈĽi":4532,"Ġproblemele":4533,"opul":4534,"ĠÃ®nve":4535,"Ġpicioare":4536,"ĠcÄĥruia":4537,"ĠPol":4538,"oamnÄĥ":4539,"ĠfrumoasÄĥ":4540,"ĠDezvol":4541,"inÅ£e":4542,"ĠAre":4543,"ĠÃ®ntÃ¢mplat":4544,"Ġcontact":4545,"Ġgaz":4546,"Ġinca":4547,"ĠAve":4548,"Ġintrodu":4549,"Ġcentru":4550,"Ġmoni":4551,"Ġlovi":4552,"post":4553,"Ġbate":4554,"Ġsuferi":4555,"late":4556,"ĠpracticÄĥ":4557,"Ġpovestea":4558,"fere":4559,"ĠÃ®ncearcÄĥ":4560,"zÄĥtor":4561,"Ġpetrece":4562,"pune":4563,"ĠÃ®naintea":4564,"rio":4565,"Ã¢ndi":4566,"Ġconsidera":4567,"bie":4568,"Ġdecizia":4569,"ĠÅ£a":4570,"Ġsute":4571,"Ġlumina":4572,"Ġstau":4573,"Ġ35":4574,"ÅŁu":4575,"ĠÈĻtie":4576,"ĠÃ®ntÃ¢i":4577,"enz":4578,"Ġautoturi":4579,"Ġeconomice":4580,"Ġdeosebit":4581,"ĠBritan":4582,"Ġsco":4583,"Ġsuspen":4584,"ctiva":4585,"Ġpui":4586,"TA":4587,"ĠBal":4588,"ĠjudeÈĽul":4589,"Ġobserv":4590,"Ġtelevizi":4591,"ĠÃ®ncheiat":4592,"ÈĽinÄĥ":4593,"Ġsprijinul":4594,"terna":4595,"ĠpoatÄĥ":4596,"Ġstic":4597,"Ġalco":4598,"ĠÃ®ndeplini":4599,"ogle":4600,"alist":4601,"Ġspiritu":4602,"Ġsport":4603,"Ġproduselor":4604,"Ġcatre":4605,"ometri":4606,"ĠAN":4607,"ĠBel":4608,"Ġatitu":4609,"Ġdeza":4610,"Ġreferitoare":4611,"uc":4612,"ĠIst":4613,"Ġopti":4614,"ĠMil":4615,"aru":4616,"ĠplÄĥti":4617,"tatii":4618,"icle":4619,"Ġconsecin":4620,"gem":4621,"SC":4622,"Ġpermis":4623,"male":4624,"Ġincep":4625,"Ġcorect":4626,"ĠaveÈĽi":4627,"ĠCurtea":4628,"Ġdesign":4629,"Ġpreluc":4630,"Ġ80":4631,"ĠconÅŁti":4632,"ĠCrai":4633,"Ġdisponibile":4634,"Ġagre":4635,"Ġsom":4636,"Ġoport":4637,"ĠIu":4638,"Ġaspect":4639,"ĠÃ®nregistrat":4640,"Ġinclude":4641,"Ġfinalul":4642,"Ġmondial":4643,"Ġviitoare":4644,"ctul":4645,"Ġsensul":4646,"Ġsubiect":4647,"ficial":4648,"ĠAle":4649,"Ġjur":4650,"Ġaltceva":4651,"ĠlucreazÄĥ":4652,"ĠrÄĥsp":4653,"ĠGh":4654,"Ġstimul":4655,"Ġderul":4656,"Å£are":4657,"Ġelimin":4658,"ĠSh":4659,"Ġocup":4660,"Ġ2007":4661,"nescu":4662,"ĠcurÃ¢nd":4663,"Ġviata":4664,"Ġcompanie":4665,"Pe":4666,"ĠÃ®ndrep":4667,"Ġsuficient":4668,"siunii":4669,"ses":4670,"ÅŁedintele":4671,"int":4672,"Ġculori":4673,"oata":4674,"omin":4675,"ĠConform":4676,"dro":4677,"ĠQ":4678,"Ġschimba":4679,"Ġamena":4680,"Ġfacili":4681,"ĠGabrie":4682,"rina":4683,"ĠAutori":4684,"âĶĢâĶĢâĶĢâĶĢ":4685,"ĠdesfÄĥÈĻura":4686,"Ġorele":4687,"Å£iunile":4688,"Ġdidacti":4689,"Ġmaterial":4690,"Ġaur":4691,"Ġii":4692,"Ġscena":4693,"ĠÅŁcol":4694,"brÄĥ":4695,"Ġrece":4696,"Ġsperan":4697,"Ġboli":4698,"Ġnumeroase":4699,"sului":4700,"cepe":4701,"Ġambele":4702,"Ġcategoria":4703,"ĠVI":4704,"osc":4705,"olesc":4706,"27":4707,"28":4708,"ĠcÃ®nd":4709,"zu":4710,"Ca":4711,"tuieli":4712,"Ġdocum":4713,"Ġmoldo":4714,"Ġtop":4715,"Ġprecizat":4716,"%.":4717,"Ġinven":4718,"tile":4719,"Ġtrebuia":4720,"ĠsituaÅ£ia":4721,"Ġmultor":4722,"ĠÃ®ntoc":4723,"Ġcalea":4724,"ĠÃ®nÄĥl":4725,"Ġrestul":4726,"ĠpriveÈĻte":4727,"ĠðŁ":4728,"ĠArticolul":4729,"ĠProdu":4730,"Ġechipei":4731,"ĠVor":4732,"Ġmijlocul":4733,"ĠnecesarÄĥ":4734,"Ġpagini":4735,"mÄĥnÄĥ":4736,"Ġabord":4737,"Ġrezultatele":4738,"ĠArad":4739,"binte":4740,"Ġexplica":4741,"Ġinterior":4742,"Ġmil":4743,"Ġmeta":4744,"Ġmodele":4745,"Ġcite":4746,"mÃ¢ntului":4747,"Ġ70":4748,"ĠDesi":4749,"ĠDuh":4750,"Ġpublica":4751,"Ġnon":4752,"ĠpÄĥstra":4753,"Ġmecan":4754,"top":4755,"Ġpropus":4756,"ĠvinÄĥ":4757,"ĠNÄĥ":4758,"all":4759,"xx":4760,"Ġarticolul":4761,"Ġcirca":4762,"ĠmÄĥrturi":4763,"ĠpreÈĻedintele":4764,"zÄĥtoare":4765,"Ġpacien":4766,"Äĥri":4767,"ĠFiecare":4768,"Ġplata":4769,"Ġefect":4770,"Ġunic":4771,"ĠluminÄĥ":4772,"ĠcapÄĥ":4773,"starea":4774,"ÅŁitul":4775,"Ġcapul":4776,"ficate":4777,"ruri":4778,"ĠBla":4779,"Ġfolosesc":4780,"gale":4781,"Ġelemente":4782,"ĠIsus":4783,"istat":4784,"alog":4785,"ĠFlor":4786,"ĠUcra":4787,"tilor":4788,"Ġavans":4789,"ĠcÃ¢mp":4790,"ĠjoacÄĥ":4791,"Ġmoarte":4792,"opera":4793,"Ġturne":4794,"ĠvarÄĥ":4795,"Ġadmi":4796,"gredi":4797,"26":4798,"ofer":4799,"ĠnaÅ£ionale":4800,"Ġalimenta":4801,"deri":4802,"ĠMiha":4803,"Ġnoroc":4804,"riul":4805,"portul":4806,"Ġcomuna":4807,"seascÄĥ":4808,"Ġconducerea":4809,"ĠIisus":4810,"Ġprieteni":4811,"Ġfrumuse":4812,"Ġelevi":4813,"Ġaveam":4814,"Ġfinanciar":4815,"Ġminte":4816,"Ġschimbat":4817,"ĠAmb":4818,"ĠMoni":4819,"ĠIN":4820,"Ġgata":4821,"Ġprocuro":4822,"ĠSÄĥnÄĥ":4823,"ĠBul":4824,"Ġrestauran":4825,"Ġpartid":4826,"Ġadolesc":4827,"ĠDaca":4828,"deoclip":4829,"ĠmÄĥsura":4830,"ĠconducÄĥ":4831,"Ġvreun":4832,"ĠIaÈĻi":4833,"Ġulterior":4834,"Ġbucurie":4835,"ÈĻu":4836,"ĠSoci":4837,"ĠÅ£ara":4838,"Ġiau":4839,"Ġtari":4840,"ĠjudecatÄĥ":4841,"ĠcreÅŁtin":4842,"ezi":4843,"ĠFC":4844,"ondul":4845,"ĠFacul":4846,"ĠplÃ¢n":4847,"ĠputeÅ£i":4848,"Ġsoare":4849,"Ġbolna":4850,"Ġmomente":4851,"ĠtrÄĥi":4852,"Ġcorup":4853,"operÄĥ":4854,"ĠobÅ£ine":4855,"Ġscoate":4856,"Ġzilnic":4857,"ĠLum":4858,"ĠCunoaÈĻte":4859,"ĠvieÈĽii":4860,"odul":4861,"ĠEconom":4862,"Ġnatural":4863,"ĠÅŁan":4864,"Ġjuca":4865,"data":4866,"ritate":4867,"ĠMA":4868,"Ġabsolut":4869,"Ġteritoriul":4870,"osi":4871,"latÄĥ":4872,"ilia":4873,"ĠAnul":4874,"80":4875,"ĠStat":4876,"samb":4877,"inare":4878,"Ġgrade":4879,"Ġsocietate":4880,"Ġcomunicat":4881,"eri":4882,"Ġrezultat":4883,"ÈĻtilor":4884,"Ġaver":4885,"ware":4886,"ATE":4887,"IM":4888,"cele":4889,"ĠOam":4890,"ĠÄĥsta":4891,"Ġcompa":4892,"onat":4893,"ĠPer":4894,"ĠDoar":4895,"Ġaflate":4896,"icip":4897,"ĠtotalÄĥ":4898,"Ġling":4899,"ree":4900,"Ġump":4901,"Ġzeci":4902,"arele":4903,"orat":4904,"dep":4905,"Ġ90":4906,"ÅŁov":4907,"ĠfiindcÄĥ":4908,"ĠĠ":4909,"ĠsÄĥvÃ¢r":4910,"Ġumane":4911,"ĠslÄĥ":4912,"ĠJa":4913,"ĠSch":4914,"gele":4915,"Ġevident":4916,"Ma":4917,"ĠSRL":4918,"Ġbenefici":4919,"ĠCred":4920,"Ġprefe":4921,"ker":4922,"ding":4923,"poi":4924,"Ġcandida":4925,"ĠcÃ®":4926,"ĠGra":4927,"ĠÃ®ncerca":4928,"ĠalÅ£ii":4929,"ĠAcestea":4930,"inÈĽi":4931,"ĠtÃ¢nÄĥr":4932,"ben":4933,"ĠStra":4934,"Ġgust":4935,"ĠdezvÄĥ":4936,"ĠpoliÈĽi":4937,"Ġastea":4938,"Ġnecon":4939,"Ġpractic":4940,"Ġconstituie":4941,"stici":4942,"dinea":4943,"Ġsud":4944,"Ġfonduri":4945,"ĠcumpÄĥrÄĥ":4946,"Ġfestival":4947,"ologicÄĥ":4948,"tiu":4949,"ĠcÄĥreia":4950,"ĠexperienÈĽÄĥ":4951,"gru":4952,"Ġcompletarea":4953,"ĠNor":4954,"ĠstÄĥpÃ¢n":4955,"des":4956,"ĠPonta":4957,"Ġmunicipiului":4958,"ĠÅ£Äĥrii":4959,"Ġdeschide":4960,"umb":4961,"Ġexamen":4962,"ĠNaÅ£ionalÄĥ":4963,"diile":4964,"ĠBÄĥsescu":4965,"Ġpresa":4966,"Ġverde":4967,"luri":4968,"ĠÈĽa":4969,"ĠEvenim":4970,"Ġvicep":4971,"ĠFemei":4972,"Ġmembri":4973,"Ġadun":4974,"ĠTotu":4975,"ovie":4976,"ĠSol":4977,"cÄĥrui":4978,"Ġechipe":4979,"ĠregÄĥ":4980,"ĠNaÅ£ionale":4981,"Ġhe":4982,"urii":4983,"Ġpenal":4984,"OL":4985,"Ġconducere":4986,"ÈĽiunile":4987,"ira":4988,"Ġidei":4989,"Ġvolun":4990,"ĠromÃ¢nii":4991,"Ġprofesioni":4992,"âĢľ.":4993,"Ġaro":4994,"ĠoraÅŁului":4995,"ĠÃ®ntoarce":4996,"lalt":4997,"Ġdrepturile":4998,"ĠlÄĥsa":4999,"ĠPen":5000,"ĠSec":5001,"Ġcump":5002,"ĠNew":5003,"Ġinci":5004,"veghe":5005,"Ġextraordin":5006,"ĠGri":5007,"Ġinteriorul":5008,"Ġcm":5009,"29":5010,"Ġarun":5011,"nt":5012,"Ġatmos":5013,"ad":5014,"Ġtitlul":5015,"Ġcif":5016,"enÈĽÄĥ":5017,"ĠtotuÅŁi":5018,"Ġconstan":5019,"ĠInforma":5020,"Ġdigi":5021,"Ġdans":5022,"ĠÃ®ndepÄĥr":5023,"giul":5024,"urg":5025,"Ġdie":5026,"Ġbru":5027,"Ġlegale":5028,"ĠstrÄĥinÄĥtate":5029,"Ġdr":5030,"ĠfÄĥcutÄĥ":5031,"Ġrest":5032,"uria":5033,"Ġspecialitate":5034,"Ġfete":5035,"ĠÅ£Äĥri":5036,"so":5037,"ĠcunoaÈĻte":5038,"Ġcookie":5039,"Ġforme":5040,"ĠSC":5041,"Ġaminti":5042,"Ġpiele":5043,"tua":5044,"Ġdistin":5045,"ĠApro":5046,"Ġoportuni":5047,"Ġcelei":5048,"Ġinsul":5049,"aliza":5050,"ÈĻn":5051,"amentului":5052,"lon":5053,"ĠArt":5054,"ĠÃİmi":5055,"Ġcomerciale":5056,"Ġevent":5057,"luci":5058,"Ġargum":5059,"ĠTraian":5060,"Ġselec":5061,"ĠÈĽÄĥri":5062,"Ġprimarul":5063,"durile":5064,"leazÄĥ":5065,"Ġvolum":5066,"Ġeva":5067,"Ġtalen":5068,"ĠartÄĥ":5069,"hicul":5070,"gne":5071,"ĠSocie":5072,"ĠHotÄĥr":5073,"ich":5074,"iul":5075,"Ġamenaj":5076,"ginÄĥ":5077,"Ġcomunicare":5078,"altÄĥ":5079,"ĠDaniel":5080,"Pentru":5081,"ierii":5082,"ĠnaÅŁte":5083,"ĠHe":5084,"Ġpasa":5085,"larea":5086,"ĠSo":5087,"ĠÃ®ntrebÄĥri":5088,"ĠDrep":5089,"zutÄĥ":5090,"Po":5091,"Ġmuzic":5092,"ĠCampion":5093,"nei":5094,"ĠSA":5095,"Ġsocietatea":5096,"ĠanunÈĽat":5097,"ĠLuc":5098,"Ġplim":5099,"ĠChiÈĻ":5100,"Ġlichi":5101,"Ġcic":5102,"ĠaÈĽi":5103,"Ġsingurul":5104,"mare":5105,"Ġinterne":5106,"Ġprofesor":5107,"ĠCristian":5108,"Ġsecuritate":5109,"pescu":5110,"Ġfenomen":5111,"Ġ45":5112,"Ġsatis":5113,"ĠcercetÄĥ":5114,"ĠromÃ¢nilor":5115,"ĠEuropei":5116,"zelor":5117,"Ġfix":5118,"ĠcondiÈĽiile":5119,"ĠÃ®ncon":5120,"Ġdomic":5121,"siunile":5122,"Ġrog":5123,"ĠTh":5124,"Ġpresupune":5125,"enÅ£Äĥ":5126,"var":5127,"Ġelevii":5128,"uter":5129,"ĠContin":5130,"Ġfuse":5131,"indic":5132,"Ġordine":5133,"inÈĽe":5134,"Ġinteg":5135,"cci":5136,"ĠnaÈĽional":5137,"Ġgh":5138,"ĠÈĽine":5139,"siona":5140,"ĠVal":5141,"Ġth":5142,"Ġgrav":5143,"Ġsenza":5144,"cÄĥu":5145,"Ġsuge":5146,"rel":5147,"ĠcondiÅ£ii":5148,"Ġcheltuieli":5149,"Ġexpres":5150,"ĠnaturÄĥ":5151,"ĠnoÈĻtri":5152,"Ġdurata":5153,"Ð»":5154,".\"":5155,"ĠaceÅŁtia":5156,"ĠDoamne":5157,"ÅŁn":5158,"onale":5159,"ĠSub":5160,"iu":5161,"riarh":5162,"muri":5163,"ĠIII":5164,"Ġarma":5165,"Ġitali":5166,"ĠPrim":5167,"ĠrÄĥni":5168,"Ġnegru":5169,"Ġmunci":5170,"ĠParis":5171,"Ġvorbim":5172,"ya":5173,"pentru":5174,"ĠMedia":5175,"Ġdova":5176,"ĠÈĽara":5177,"Ġsuplim":5178,"Ġrelax":5179,"ĠocupÄĥ":5180,"Ġdosarul":5181,"rastruc":5182,"Ġdiscip":5183,"ĠGoogle":5184,"Ġtrebuit":5185,"ĠBog":5186,"git":5187,"icita":5188,"Ġfemeile":5189,"Ġalegerile":5190,"ĠMunicipiului":5191,"ĠstradÄĥ":5192,"Ġmat":5193,"Ġutili":5194,"Ġdocumente":5195,"ko":5196,"ĠâĨ":5197,"Cu":5198,"Ġanterior":5199,"ĠactivitÄĥÈĽi":5200,"Ġrul":5201,"ĠÈĻedin":5202,"cie":5203,"Ġpericol":5204,"Ġcari":5205,"Ġcafea":5206,"Ġ=":5207,"ĠAna":5208,"ĠMuzeul":5209,"Ġfaptului":5210,"Ġanche":5211,"Ġbic":5212,"Ġunivers":5213,"Ġministru":5214,"Nap":5215,"ĠeconomicÄĥ":5216,"Ġpriori":5217,"Ġviitorul":5218,"Ġfis":5219,"Ġdoctor":5220,"Ġsituat":5221,"vice":5222,"ĠBucuresti":5223,"ĠmanifestÄĥ":5224,"Ġimpresion":5225,"Com":5226,"que":5227,"ĠProiectul":5228,"ĠNea":5229,"andar":5230,"cilor":5231,"Ġtreia":5232,"ĠTer":5233,"cov":5234,"rop":5235,"ĠurmÄĥtoare":5236,"tala":5237,"Napoca":5238,"Ġcolaborare":5239,"ĠÅ£ine":5240,"Ġpron":5241,"Ġlocului":5242,"Ġdirectorul":5243,"zonul":5244,"Ġelabor":5245,"uzat":5246,"ĠIlie":5247,"ĠInspector":5248,"sme":5249,"Ġlink":5250,"ĠProgramul":5251,"icu":5252,"Ġprincipi":5253,"Ġmintea":5254,"ĠlungÄĥ":5255,"cesul":5256,"Ġjudici":5257,"tina":5258,"ĠDespre":5259,"Ġacordat":5260,"ĠplatÄĥ":5261,"Ġdepl":5262,"Ġlat":5263,"asupra":5264,"Ġmer":5265,"batul":5266,"Ġcultural":5267,"Ġopri":5268,"Ġvoie":5269,"ĠParlamentului":5270,"Ġiubire":5271,"ĠÃ®nchisoare":5272,"ĠRegul":5273,"45":5274,"ĠsÄĥrbÄĥtori":5275,"Ġcuprinde":5276,"Ġconsiderat":5277,"Ġstea":5278,"Ġcampion":5279,"Ġson":5280,"cale":5281,"ĠÅŁef":5282,"ctie":5283,"ĠJudeÈĽean":5284,"ĠurgenÅ£Äĥ":5285,"Ġdele":5286,"umesc":5287,"sive":5288,"ĠsfÃ¢rÅŁitul":5289,"Ġfiul":5290,"ĠsituaÈĽia":5291,"berÄĥ":5292,"Ġobserva":5293,"Ġaduc":5294,"ĠÈĻcol":5295,"ĠTimiÈĻoara":5296,"ĠCodul":5297,"05":5298,"UN":5299,"35":5300,"ĠorganizeazÄĥ":5301,"cle":5302,"elor":5303,"ĠÃ®nscrie":5304,"rucÃ¢t":5305,"ĠSala":5306,"ĠStatele":5307,"Ġstructura":5308,"Ġdecizie":5309,"à¸":5310,"ĠvadÄĥ":5311,"lian":5312,"Ġcunosc":5313,"Ġatat":5314,"gerii":5315,"Ġcoc":5316,"Ġdeasupra":5317,"ĠCultura":5318,"cian":5319,"rescu":5320,"ĠRomÃ¢nÄĥ":5321,"gent":5322,"ĠveÅ£i":5323,"ĠOradea":5324,"Ġdosar":5325,"ĠCraiova":5326,"ĠFedera":5327,"dal":5328,"es":5329,"lit":5330,"Ġdeterm":5331,"Ġbro":5332,"ĠParte":5333,"gurÄĥ":5334,"ĠsusÅ£in":5335,"ieÈĻte":5336,"Ġ300":5337,"ĠCerce":5338,"gÃ¢nd":5339,"Ġacumul":5340,"ĠoraÈĻului":5341,"how":5342,"ĠromÃ¢neÅŁti":5343,"Ġapara":5344,"oana":5345,"ght":5346,"Ġzbor":5347,"ĠPrimul":5348,"ÈĽarea":5349,"ĠGÄĥ":5350,"Å£ioneazÄĥ":5351,"ĠStan":5352,"Ġprile":5353,"ĠVideo":5354,"Ġprograme":5355,"Ġclic":5356,"Ġvot":5357,"aua":5358,"OS":5359,"Ġdistra":5360,"argÄĥ":5361,"sel":5362,"Ġopt":5363,"].":5364,"Ġprezentate":5365,"tivul":5366,"Ġmese":5367,"Ġmesaj":5368,"Ġile":5369,"09":5370,"ĠFlorin":5371,"Ġoferite":5372,"ĠÃ®mbunÄĥtÄĥÈĽi":5373,"Ġfacul":5374,"ĠlocalÄĥ":5375,"ĠconÈĻti":5376,"serÄĥ":5377,"Ġsalv":5378,"Ġprecedent":5379,"Ġvorbesc":5380,"Ġdomicili":5381,"ĠOp":5382,"Ġdincolo":5383,"ĠLocal":5384,"Ġapropi":5385,"bar":5386,"rur":5387,"Ġeconomic":5388,"Ġconcre":5389,"ĠMin":5390,"Ġcamere":5391,"Ġcarne":5392,"landa":5393,"Ġaplicare":5394,"ĠaÅŁe":5395,"Ġpreocu":5396,"tima":5397,"Ġdispu":5398,"ĠIsra":5399,"Ġexplo":5400,"elul":5401,"Ġscriu":5402,"Ġfrecven":5403,"ĠSam":5404,"Ġmunicipiul":5405,"Ġciuda":5406,"Ġic":5407,"Ġtren":5408,"ert":5409,"ĠsiguranÅ£Äĥ":5410,"Ġmuncii":5411,"Ġdebu":5412,"Ġcomen":5413,"ceascÄĥ":5414,"Ġ196":5415,"Ġprofil":5416,"ĠpÄĥcat":5417,"Ġstandar":5418,"Ġnun":5419,"Ġculturale":5420,"bro":5421,"Ġtendin":5422,"Ġsurse":5423,"ĠÃ®napoi":5424,"Ġafirma":5425,"Ġduc":5426,"ĠâĢĺ":5427,"vintele":5428,"Ġmone":5429,"Ġcererea":5430,"ĠVer":5431,"Ġtulbu":5432,"Ġplane":5433,"ÈĽului":5434,"ierului":5435,"ÈĻÄĥ":5436,"Ġincen":5437,"mitÄĥ":5438,"ĠlucrÄĥrile":5439,"rÃ¢":5440,"ilvania":5441,"Ġintelec":5442,"we":5443,"ĠfizicÄĥ":5444,"ĠsutÄĥ":5445,"Ġrutier":5446,"dica":5447,"Ġistoric":5448,"ĠReg":5449,"ĠactivitÄĥÅ£i":5450,"Ce":5451,"Ġnum":5452,"Ġjocul":5453,"ĠMer":5454,"Ġalimentare":5455,"ĠgÃ¢ndit":5456,"Ġcontextul":5457,"Ġlocalitatea":5458,"2016":5459,"Ġsprijin":5460,"sÄĥri":5461,"Å£iunii":5462,"Ġtipuri":5463,"Ġocupa":5464,"parat":5465,"matÄĥ":5466,"Ġconcuren":5467,"Ġconstitui":5468,"Å£iale":5469,"Ġreglemen":5470,"Ġconsoli":5471,"Ġconstruit":5472,"ĠMure":5473,"ĠieÅŁi":5474,"ĠÃ®naltÄĥ":5475,"III":5476,"nii":5477,"dina":5478,"Ġstatu":5479,"suri":5480,"Ġarhitec":5481,"oriei":5482,"Ġinstala":5483,"Ġpedep":5484,"ranj":5485,"forme":5486,"Ġrecunoa":5487,"ĠÃ®mprum":5488,"Ġinvita":5489,"ĠmodificÄĥrile":5490,"ĠIma":5491,"ĠdevinÄĥ":5492,"ĠVol":5493,"Ġfilmul":5494,"Ġsat":5495,"Ġaero":5496,"Ġmonitori":5497,"ĠculturÄĥ":5498,"cunos":5499,"ĠcondiÈĽii":5500,"rez":5501,"ĠcopilÄĥ":5502,"Ġacte":5503,"Ġprelun":5504,"Ġprins":5505,"ĠMana":5506,"ĠBraÅŁov":5507,"Mi":5508,"ĠON":5509,"Ġelegan":5510,"Ġreda":5511,"ĠurmÃ¢nd":5512,"ĠAstÄĥzi":5513,"Ġprogramului":5514,"Ġzah":5515,"ĠGeneral":5516,"Ġcentral":5517,"tof":5518,"ĠPi":5519,"ĠBun":5520,"Ġcurent":5521,"Ġrezultatul":5522,"ĠcreÅŁtere":5523,"Ġdecat":5524,"ĠtotuÈĻi":5525,"Ġblo":5526,"devÄĥr":5527,"Ġalimente":5528,"ĠÃ®ntune":5529,"ĠsimplÄĥ":5530,"ĠmÄĥn":5531,"ED":5532,"Ġadesea":5533,"onescu":5534,"Ġauten":5535,"ĠPersoane":5536,"ĠbÄĥie":5537,"ĠTotodatÄĥ":5538,"ĠÃ®ntrebat":5539,"Ġ2000":5540,"ĠPrea":5541,"ĠÃ®mpÄĥrtÄĥ":5542,"nia":5543,"wa":5544,"Ġodi":5545,"ĠpreÅŁedinte":5546,"ĠÃ®mpie":5547,"Ġvoia":5548,"tore":5549,"ĠDunÄĥ":5550,"Ġmem":5551,"IL":5552,"ĠrugÄĥm":5553,"ĠLiga":5554,"US":5555,"ĠconstÄĥ":5556,"Ġalba":5557,"Ġdai":5558,"ĠnoÅŁtri":5559,"del":5560,"Ġtrup":5561,"Ġortodo":5562,"ĠspecialÄĥ":5563,"Ġalterna":5564,"AM":5565,"70":5566,"ÈĻitul":5567,"ĠiarnÄĥ":5568,"Ġsurpri":5569,"----":5570,"Ġimagin":5571,"Ġcredincio":5572,"Ġcapacitatea":5573,"ĠVas":5574,"nire":5575,"ĠmÄĥri":5576,"ĠcÄĥrÈĽi":5577,"ĠPetru":5578,"Ne":5579,"ĠalÈĽii":5580,"Rom":5581,"Ġpiese":5582,"toriei":5583,"ff":5584,"ĠpiaÈĽa":5585,"Ġprietenii":5586,"ÅŁÄĥ":5587,"ieÅŁti":5588,"stivalul":5589,"Ġcui":5590,"ĠpersonalÄĥ":5591,"Ġcorpul":5592,"Ġscos":5593,"Ġrespin":5594,"Ġbut":5595,"Ġcontempor":5596,"Ġnop":5597,"Ġtrage":5598,"escu":5599,"ĠSud":5600,"ĠmÃ¢nd":5601,"Ġgal":5602,"AC":5603,"Ġbibliote":5604,"Ġelectrice":5605,"ĠputernicÄĥ":5606,"ill":5607,"sedin":5608,"garea":5609,"ĠcÄĥldu":5610,"Ġdecizii":5611,"Ġapu":5612,"ÈĽiale":5613,"ĠprofesionalÄĥ":5614,"imna":5615,"pren":5616,"Ġgrea":5617,"Ġimplica":5618,"reme":5619,"Ġsuplimentare":5620,"Ġmediului":5621,"ĠcreÈĻtere":5622,"ĠoarÄĥ":5623,"gate":5624,"ĠLond":5625,"spo":5626,"ĠcautÄĥ":5627,"Ġcolo":5628,"ĠaÅ£i":5629,"Ġief":5630,"ĠLau":5631,"ĠÅŁase":5632,"Ġintrarea":5633,"Ġefectuate":5634,"Ġpielea":5635,"Ġpublicului":5636,"DEO":5637,"ĠChiÈĻinÄĥu":5638,"icit":5639,"Ġimpres":5640,"Ġbaie":5641,"Ġact":5642,"sivÄĥ":5643,"Ġinfec":5644,"ĠPreÈĻedin":5645,"cÄĥrii":5646,"Ġcumva":5647,"ĠpunÄĥ":5648,"Ã¾":5649,"Ã¢nt":5650,"ky":5651,"ĠsÃ£":5652,"ize":5653,"ĠChiÅŁ":5654,"DacÄĥ":5655,"ĠFlo":5656,"Ġ36":5657,"Ġfiscal":5658,"ĠPD":5659,"Ġcrearea":5660,"Ġprevederile":5661,"Ġmuzica":5662,"Ġimaginea":5663,"ĠRi":5664,"spÄĥ":5665,"gar":5666,"Ġtranza":5667,"vista":5668,"Ġteatru":5669,"Ġduhov":5670,"Ġnen":5671,"maticÄĥ":5672,"ĠparticipÄĥ":5673,"Ġaplicarea":5674,"red":5675,"ĠieÈĻi":5676,"Ġtehnic":5677,"Ġfemin":5678,"ps":5679,"cata":5680,"vid":5681,"Ġbucura":5682,"03":5683,"ĠtrecutÄĥ":5684,"ãĥ":5685,"enÅ£a":5686,"Ġinsa":5687,"Ġjuridice":5688,"oniale":5689,"Ġpuse":5690,"uta":5691,"Ġsectorul":5692,"Ġenerge":5693,"ĠÈĽÄĥrii":5694,"Ġanual":5695,"ĠcÄĥrui":5696,"Ġcontrolul":5697,"ĠPl":5698,"ĠTimiÅŁoara":5699,"ĠediÈĽie":5700,"Ġbinecu":5701,"ÃĤ":5702,"osul":5703,"fir":5704,"Ġdispune":5705,"ĠbisericÄĥ":5706,"Ġpiat":5707,"Ġdedicat":5708,"ĠIT":5709,"ĠMoldovei":5710,"ĠDeÈĻi":5711,"stie":5712,"enÈĽa":5713,"hie":5714,"ĠEchi":5715,"Ġmedi":5716,"ĠgÄĥsesc":5717,"Ġpetrecut":5718,"Ġconstru":5719,"sÄĥricÄĥ":5720,"Ġinva":5721,"Ġapei":5722,"ronic":5723,"Ġpericul":5724,"amentale":5725,"ĠcÄĥror":5726,"Ġkilometri":5727,"CR":5728,"dui":5729,"Ġrit":5730,"oriu":5731,"Ġcompozi":5732,"cord":5733,"Ġvar":5734,"tierÄĥ":5735,"Ġtehnice":5736,"Ġprofesional":5737,"curilor":5738,"Ġdif":5739,"ĠCara":5740,"Ġfeti":5741,"rid":5742,"Ġaprobat":5743,"Ġundeva":5744,"Ġvara":5745,"ĠsusÈĽin":5746,"ĠpregÄĥtit":5747,"Ġglob":5748,"Ġradio":5749,"Ġsfin":5750,"ĠrÄĥspunde":5751,"Ġpoze":5752,"ĠoraÈĻul":5753,"Ġfotografii":5754,"ĠBritanie":5755,"Ġuitat":5756,"Ġefe":5757,"ĠaceÈĻtia":5758,"Å£iunilor":5759,"Ġvul":5760,"Ġcombina":5761,"Ġingredi":5762,"vara":5763,"cite":5764,"ĠPaul":5765,"alea":5766,"Ġalegerea":5767,"ĠDia":5768,"Ġindustri":5769,"90":5770,"Ġsatul":5771,"alizatÄĥ":5772,"ĠprezentÄĥ":5773,"ĠChina":5774,"Ġutilizare":5775,"bert":5776,"Ġparteneriat":5777,"ĠadaugÄĥ":5778,"ĠBogdan":5779,"Ġprezente":5780,"cÄĥrei":5781,"Ġidee":5782,"breve":5783,"ĠgeneralÄĥ":5784,"ĠcamerÄĥ":5785,"ĠmarÅ£i":5786,"Ġmagazin":5787,"rimoniale":5788,"ĠUnul":5789,"ĠTransilvania":5790,"Ġanilor":5791,"VI":5792,"ĠpiaÅ£a":5793,"Ġulterioare":5794,"hicule":5795,"ĠPavel":5796,"rÄĥm":5797,"wn":5798,"Ġtab":5799,"ĠhÃ¢r":5800,"ĠPopescu":5801,"keting":5802,"ĠnaÈĽionale":5803,"Ġadre":5804,"Ġmedical":5805,"Ġstati":5806,"Ġmarea":5807,"Ġnere":5808,"ĠvreodatÄĥ":5809,"Ġmuze":5810,"Ġcapital":5811,"Ġlicita":5812,"ĠGuvern":5813,"ĠÃ®ntÃ¢lnit":5814,"ĠMarius":5815,"Ġideal":5816,"Ġpromovarea":5817,"abreve":5818,"Ġpronun":5819,"ĠnaÈĻte":5820,"ĠIulia":5821,"Ġmarcat":5822,"olÄĥ":5823,"Ġrealiza":5824,"trivÄĥ":5825,"Ðº":5826,"Ġdic":5827,"Ġcamera":5828,"Ġprov":5829,"ÈĽioneazÄĥ":5830,"ĠmeritÄĥ":5831,"Ġstand":5832,"Ġlog":5833,"04":5834,"ĠPrintre":5835,"âĢĵ":5836,"Ġeti":5837,"ĠmÄĥnÄĥsti":5838,"gistra":5839,"Ġsecolului":5840,"Ġcod":5841,"umit":5842,"Ġvenituri":5843,"Ġrevolu":5844,"deoclipuri":5845,"reea":5846,"versa":5847,"Ġlimita":5848,"ĠenglezÄĥ":5849,"ĠMÃ¢n":5850,"Ġvirtu":5851,"ĠGro":5852,"ĠajungÄĥ":5853,"Ġapropia":5854,"Ġproduc":5855,"ĠBiro":5856,"ĠreÃ®n":5857,"âĢĳ":5858,"Çİ":5859,"Ġran":5860,"exi":5861,"ĠOrdonan":5862,"Ġorganizate":5863,"Ġfructe":5864,"Ġsuferin":5865,"Ġprevederilor":5866,"teaza":5867,"ĠdÄĥr":5868,"Ġnet":5869,"2015":5870,"ceri":5871,"ĠpiaÈĽÄĥ":5872,"Ġaccesul":5873,"Ġrespective":5874,"Ġmeciul":5875,"tini":5876,"Ġdiagno":5877,"Ġreveni":5878,"33":5879,"ĠFunda":5880,"dian":5881,"ĠPlo":5882,"sec":5883,"ĠUN":5884,"ÅŁilor":5885,"Ġzonele":5886,"Ġdege":5887,"ficatÄĥ":5888,"ĠInstitutul":5889,"orm":5890,"Ġincre":5891,"stia":5892,"Ġansamb":5893,"ptÄĥm":5894,"ĠTVA":5895,"ĠPeste":5896,"ĠinformeazÄĥ":5897,"Ġproprii":5898,"Ġweek":5899,"ĠGrat":5900,"Ġechilib":5901,"Ġcontractului":5902,"Ġdrepturilor":5903,"ĠpÄĥrea":5904,"vis":5905,"Ġcura":5906,"Ġmajor":5907,"Ġsecolul":5908,"apone":5909,"ĠcuvÃ¢ntul":5910,"uzia":5911,"ÈĻov":5912,"ĠSite":5913,"ph":5914,"Ġplu":5915,"ĠÃ®ntÃ¢lneÈĻte":5916,"ĠmÄĥnÃ¢n":5917,"Este":5918,"ĠHar":5919,"ĠÃ®ntru":5920,"Ace":5921,"Ġpoti":5922,".[":5923,"fon":5924,"ĠGre":5925,"inci":5926,"Ġbul":5927,"Ġuria":5928,"Ġbiserica":5929,"Ġepis":5930,"Ġiti":5931,"07":5932,"06":5933,"Ġprocur":5934,"ĠGrec":5935,"ld":5936,"cit":5937,"turat":5938,"ĠdegrabÄĥ":5939,"Ġcazare":5940,"Ġefecte":5941,"Ġ195":5942,"scÄĥr":5943,"Ġlucrat":5944,"antul":5945,"ĠCam":5946,"ĠsfÃ¢rÈĻitul":5947,"gure":5948,"Ġmembre":5949,"ĠMÄĥnÄĥsti":5950,"uiascÄĥ":5951,"ĠNaÈĽionalÄĥ":5952,"ĠMama":5953,"ĠCate":5954,"ĠInte":5955,"Ġmarca":5956,"Ġrepro":5957,"ĠEditura":5958,"ĠImp":5959,"ĠValea":5960,"ĠSfÃ¢ntului":5961,"Ġmodelul":5962,"oz":5963,"ĠBru":5964,"Ġaferen":5965,"anii":5966,"grafie":5967,"ĠÂ·":5968,"Ġinfrastruc":5969,"Ġtax":5970,"Ġ)":5971,"intei":5972,"Ġlapte":5973,"Ġtext":5974,"gor":5975,"Ġrecon":5976,"ĠIS":5977,"Ġintern":5978,"ĠPetre":5979,"ĠâĨĴ":5980,"Ġproprietate":5981,"Ġcuvintele":5982,"Ġactive":5983,"seze":5984,"ĠspunÄĥ":5985,"ĠPu":5986,"ĠsimÈĽi":5987,"Ġelim":5988,"Ġcioc":5989,"Ġbebe":5990,"tarilor":5991,"Ġcomand":5992,"ĠzÃ¢mb":5993,"Ġcritic":5994,"Ġ2006":5995,"ĠvÃ¢ndu":5996,"inÅ£ei":5997,"ĠSiste":5998,"Ġsper":5999,"Ġtinerii":6000,"Ġdreptate":6001,"bon":6002,"oti":6003,"bila":6004,"Ġsprijini":6005,"ĠUngaria":6006,"Ġprofesionale":6007,"Ġinterzi":6008,"ĠOficial":6009,"Ġapel":6010,"Ġteleviz":6011,"lÄĥlalt":6012,"ĠApÄĥ":6013,"ĠeuropeanÄĥ":6014,"Ġste":6015,"Ġimpact":6016,"Ġsupravie":6017,"Ġcro":6018,"ĠAuto":6019,"vinÄĥ":6020,"dor":6021,"gon":6022,"ĠTud":6023,"Ġexplicat":6024,"marea":6025,"Ġatribu":6026,"Ġcomplex":6027,"niÈĻ":6028,"Ġvaria":6029,"ĠPreÅŁedintele":6030,"Ġrecupera":6031,"atelor":6032,"Ġcunoscute":6033,"ĠÃ®ntrucÃ¢t":6034,"ĠtatÄĥl":6035,"Ã¢i":6036,"oanÄĥ":6037,"Ġsupraveghe":6038,"ĠDeÅŁi":6039,"Ġuz":6040,"ĠcunoÅŁtin":6041,"Ġcorpului":6042,"fal":6043,"ĠarÄĥta":6044,"ĠgÄĥz":6045,"ĠFÄĥrÄĥ":6046,"Ġambi":6047,"Ġimpune":6048,"ĠpÄĥtr":6049,"Ġpul":6050,"Ġutilizate":6051,"ĠMor":6052,"ĠAsia":6053,"Ġindustria":6054,"ĠÃ®nalt":6055,"ĠCen":6056,"Ġlegu":6057,"ĠstÃ¢nga":6058,"ĠMondial":6059,"Ġinsi":6060,"ĠCSM":6061,"ãĤ":6062,"laus":6063,"ĠAvem":6064,"ĠCeea":6065,"Ġaia":6066,"Ġsemin":6067,"amen":6068,"ĠGhi":6069,"Ġbritan":6070,"ĠscenÄĥ":6071,"ĠtrÄĥiesc":6072,"raÅ£i":6073,"Ġexclusiv":6074,"gran":6075,"Ġobiecte":6076,"ĠmÃ¢ntui":6077,"ĠSat":6078,"chetul":6079,"ĠMosc":6080,"Ġreducerea":6081,"ĠbÄĥu":6082,"amo":6083,"ĠcreÅŁterea":6084,"ĠcreÈĻterea":6085,"ferendu":6086,"ĠÃ®ntors":6087,"ĠMonitorul":6088,"ĠoraÅŁul":6089,"unul":6090,"Ġmilitare":6091,"Ġisi":6092,"Ġjurnali":6093,"pÄĥrat":6094,"vale":6095,"umat":6096,"oiu":6097,"Ġarunc":6098,"Ġeficient":6099,"Ġajute":6100,"Ġreuni":6101,"Ġbl":6102,"Ġfavori":6103,"Ġprovin":6104,"Ġscor":6105,"ĠcunoÈĻtin":6106,"ĠÈĻcoalÄĥ":6107,"ĠZile":6108,"Ġparticul":6109,"Ġaci":6110,"ĠdispÄĥ":6111,"ĠatÃ¢ta":6112,"Ġcata":6113,"Ġara":6114,"ĠIsrael":6115,"Ġpr":6116,"ove":6117,"ĠParlamentul":6118,"nesc":6119,"ĠconÈĽin":6120,"Ġnorma":6121,"dari":6122,"ĠpÃ¢":6123,"Ġpermanent":6124,"ĠTrump":6125,"oft":6126,"Ġplas":6127,"ĠCopii":6128,"An":6129,"sol":6130,"Ġconec":6131,"ĠSfin":6132,"mice":6133,"Ġaccent":6134,"ĠFete":6135,"ĠBur":6136,"Ġaccesi":6137,"OC":6138,"Ġpleca":6139,"Ġvitam":6140,"Ġevenimentului":6141,"Ġmoderne":6142,"ronice":6143,"Ġdepus":6144,"ĠUcraina":6145,"Å£atÄĥ":6146,"ĠProfe":6147,"Ġafirmat":6148,"cau":6149,"Ġlarg":6150,"36":6151,"ocul":6152,"sbi":6153,"minescu":6154,"Ġscand":6155,"ducere":6156,"ĠSuntem":6157,"Ġdeplas":6158,"37":6159,"ĠElena":6160,"zilor":6161,"ĠKa":6162,"ĠautoritÄĥÅ£ile":6163,"ĠOpera":6164,"ĠpÃ¢n":6165,"vanghel":6166,"adevÄĥr":6167,"Ġtitlu":6168,"dentul":6169,"ĠPremi":6170,"Ġtero":6171,"tata":6172,"Ġfemeia":6173,"99":6174,"Ġpropor":6175,"jÄĥ":6176,"ĠobiÈĻn":6177,"cro":6178,"Ġmunte":6179,"tabile":6180,"ny":6181,"ĠtrÄĥit":6182,"varÄĥ":6183,"amentele":6184,"ĠorganizatÄĥ":6185,"gres":6186,"tabilÄĥ":6187,"Ġcapit":6188,"Ġavent":6189,"Ġfirme":6190,"Ġmonum":6191,"Ġfirma":6192,"Ġincul":6193,"Ġaudi":6194,"ĠromÃ¢neÈĻti":6195,"UM":6196,"ziei":6197,"Ġdragostea":6198,"Ġmanagement":6199,"ARE":6200,"Ġcobor":6201,"Ġschimbare":6202,"PS":6203,"ĠBasara":6204,"omo":6205,"Ġrecep":6206,"ziile":6207,"matic":6208,"ĠBibliote":6209,"Ġvan":6210,"ĠOamenii":6211,"asa":6212,"Ġpis":6213,"odor":6214,"ĠSpor":6215,"Ġputernice":6216,"Ġbog":6217,"Ġobiect":6218,"Ġprocesului":6219,"dialÄĥ":6220,"ĠAface":6221,"ĠÃİnt":6222,"venind":6223,"ĠNaÈĽionale":6224,"ĠridicÄĥ":6225,"ozi":6226,"Ġdorim":6227,"ĠadÄĥugat":6228,"Ġusc":6229,"Ġveche":6230,"Ġtinerilor":6231,"ĠfinalÄĥ":6232,"ĠpÃ®nÄĥ":6233,"Ġ150":6234,"usul":6235,"ĠscurtÄĥ":6236,"ĠurmÄĥtor":6237,"Ġfolosind":6238,"):":6239,"ĠAL":6240,"Ġsor":6241,"zaÅ£i":6242,"ĠbucÄĥtÄĥ":6243,"inarea":6244,"ĠSfÃ¢nta":6245,"Ġinteresul":6246,"Ġfapte":6247,"ĠTatÄĥ":6248,"ĠcÄĥrÅ£i":6249,"Ġpolitica":6250,"ĠHotÄĥrÃ¢":6251,"ĠsÄĥptÄĥmÃ¢na":6252,"ĠÃ®nva":6253,"chia":6254,"Ġmesaje":6255,"Ġlit":6256,"ĠNet":6257,"Ġterminat":6258,"Ġdescrie":6259,"Ġcorpor":6260,"Ġchip":6261,"Ġaspecte":6262,"Ġautor":6263,"Ġsuport":6264,"ong":6265,"Ġcoti":6266,"Ġ2004":6267,"Ġstabile":6268,"pel":6269,"Ġtermenul":6270,"ĠGu":6271,"Ġindust":6272,"tamente":6273,"Ġcontul":6274,"ĠÃ®ncad":6275,"lina":6276,"ĠOb":6277,"stor":6278,"Ġtransfer":6279,"ĠJe":6280,"48":6281,"lement":6282,"ĠlucrÄĥrilor":6283,"Ġmedicamente":6284,"ĠaducÄĥ":6285,"ĠÅŁtiinÅ£i":6286,"sirea":6287,"ĠsÃ¢n":6288,"ratul":6289,"har":6290,"period":6291,"ĠDumit":6292,"Ġstabilirea":6293,"Ġaverti":6294,"Ġgenul":6295,"ĠÃ®nÅ£eles":6296,"ĠTul":6297,"Ġevaluare":6298,"plica":6299,"ĠTransp":6300,"ĠAC":6301,"Ar":6302,"Ġmagazine":6303,"Ġpercep":6304,"Ġincom":6305,"Ġsare":6306,"reÅŁte":6307,"ĠRE":6308,"ĠfÄĥcea":6309,"ĠSpitalul":6310,"ĠBrÄĥ":6311,"ĠlÄĥs":6312,"ĠiniÅ£ia":6313,"Ġtempor":6314,"ĠÈĻef":6315,"Ġlegat":6316,"Ġpielii":6317,"Ġasigurarea":6318,"media":6319,"02":6320,",...":6321,"Ġprivat":6322,"deam":6323,"ret":6324,"ĠCal":6325,"tena":6326,"ĠOrdin":6327,"Ġdomenii":6328,"ĠUrgen":6329,"reci":6330,"Ġlocurile":6331,"ĠadevÄĥratÄĥ":6332,"Ġdesemn":6333,"ĠNeam":6334,"Ġnutri":6335,"PD":6336,"ĠBacÄĥu":6337,"ĠaveÅ£i":6338,"31":6339,"Ġpatrimoni":6340,"Ġdialog":6341,"ctia":6342,"seÈĻti":6343,"Ġcombate":6344,"Ġtreilea":6345,"ks":6346,"ficÄĥri":6347,"Ġreali":6348,"Ġsuferit":6349,"ĠfaceÈĽi":6350,"Ġume":6351,"Ġceleb":6352,"Ġfolosirea":6353,"Ġgestion":6354,"vii":6355,"Ġceal":6356,"ĠChiÅŁinÄĥu":6357,"parti":6358,"Ġabili":6359,"Ġplac":6360,"Ġocazie":6361,"ĠconÈĽine":6362,"ĠFestival":6363,"aren":6364,"Ġfizic":6365,"TI":6366,"ĠGol":6367,"ĠDavid":6368,"ĠcÃ¢ÈĽi":6369,"Ġclasi":6370,"Ġdema":6371,"ĠiniÈĽia":6372,"Ġatrage":6373,"Ġagricul":6374,"ĠmÃ¢ncare":6375,"ĠpiaÅ£Äĥ":6376,"39":6377,"500":6378,"Ġanex":6379,"talei":6380,"ziden":6381,"ĠafirmÄĥ":6382,"ang":6383,"ĠSus":6384,"ĠcelÄĥlalt":6385,"ĠnaÅ£ionalÄĥ":6386,"Ġsezonul":6387,"Ġaloc":6388,"ĠDumitru":6389,"Ġelevilor":6390,"Ġtau":6391,"ĠanunÈĽÄĥ":6392,"Ġgar":6393,"ĠBoto":6394,"ĠbinecuvÃ¢n":6395,"Ġstin":6396,"Ã¢m":6397,"ĠKlaus":6398,"ĠNim":6399,"ĠÃ®ncuraj":6400,"gni":6401,"Ġdezvolta":6402,"ĠcÃ¢Å£i":6403,"ĠSpania":6404,"Ġpoporului":6405,"inilor":6406,"38":6407,"Ġdrepturi":6408,"Ġtrecerea":6409,"ĠAmerica":6410,"Ġutilizat":6411,"Ġadap":6412,"Ġfusese":6413,"dure":6414,"ĠsÄĥnÄĥt":6415,"ĠdeschisÄĥ":6416,"Ġcalen":6417,"Ġexistat":6418,"ĠcÃ¢ntÄĥ":6419,"Ġechipamente":6420,"ĠÃ®nconj":6421,"ĠEminescu":6422,"Ġintensi":6423,"Ġcateva":6424,"Ġby":6425,"Ġzg":6426,"teran":6427,"Ġinterviu":6428,"ĠfuncÅ£ia":6429,"Ġpace":6430,"ĠatenÈĽia":6431,"ĠVezi":6432,"ĠhotÄĥrÃ¢re":6433,"ĠiatÄĥ":6434,"Te":6435,"ATO":6436,"ratului":6437,"Ġfericire":6438,"Ġofic":6439,"cor":6440,"Ġiubirea":6441,"Ã¼":6442,"ĠpenalÄĥ":6443,"Ġpublicul":6444,"ĠChe":6445,"Ġuman":6446,"reaza":6447,"lande":6448,"Ġgrave":6449,"Ġspecific":6450,"Ġautove":6451,"Ġseria":6452,"Ġconven":6453,"ĠMinistrul":6454,"Ġcontinuat":6455,"Ġbicicle":6456,"ä¸":6457,"Ġregiz":6458,"Ġdeclan":6459,"ĠcÃ¢ÈĻtigat":6460,"mile":6461,"ĠsocietÄĥÅ£ii":6462,"arti":6463,"Ġtehnici":6464,"ĠXX":6465,"ĠCompania":6466,"uÅŁ":6467,"ĠobiÅŁn":6468,"babil":6469,"Ġplic":6470,"lar":6471,"?âĢĿ":6472,"cuta":6473,"Ġbusiness":6474,"ĠMili":6475,"Ġcomunei":6476,"ĠtotodatÄĥ":6477,"Ġscrise":6478,"ĠTehn":6479,"Ġrespect":6480,"Ġimagina":6481,"ciune":6482,"valen":6483,"tropoli":6484,"ĠscÄĥzut":6485,"Ġincer":6486,"Ġtan":6487,"ĠpÄĥcÄĥ":6488,"ĠtehnicÄĥ":6489,"tism":6490,"ĠAnal":6491,"34":6492,"Ġajutat":6493,"Ġign":6494,"Ġchine":6495,"Ġcarie":6496,"ĠCÃ¢t":6497,"ĠspÄĥ":6498,"Ġ2005":6499,"ĠPie":6500,"ĠmaÈĻinÄĥ":6501,"ĠExe":6502,"ts":6503,"Ġantrepren":6504,"Ñĥ":6505,"Ġtrecute":6506,"ĠEvenimentul":6507,"ĠobÅ£inut":6508,"zan":6509,"cini":6510,"Ġcategorii":6511,"durilor":6512,"ĠcomunÄĥ":6513,"scrip":6514,"ĠmÃ¢inile":6515,"Ġdovedit":6516,"ĠPublicat":6517,"ĠexplicÄĥ":6518,"ĠmedicalÄĥ":6519,"furi":6520,"Ġent":6521,"ĠÈĻase":6522,"Ġpau":6523,"Ġdistribui":6524,"ĠRÄĥzboi":6525,"Ġ:)":6526,"Ġdisponibil":6527,"Ġnevoia":6528,"Ġconstrui":6529,"Ġsmar":6530,"ĠPrem":6531,"75":6532,"ĠÃ®ntÃ¢r":6533,"ĠTudor":6534,"ĠApost":6535,"2014":6536,"Ġcampanie":6537,"08":6538,"ĠobÅ£in":6539,"Ġrepub":6540,"Ġadec":6541,"vile":6542,"Ġofere":6543,"ĠAsociaÈĽia":6544,"Ġsemi":6545,"Ġporn":6546,"Ġsuf":6547,"Ġpersonali":6548,"ĠvÃ¢nzare":6549,"Ġ34":6550,"Ġaprin":6551,"ĠBor":6552,"tamp":6553,"Ġdro":6554,"buri":6555,"ĠmÃ¢ine":6556,"ream":6557,"Ġcomanda":6558,"Ġistorice":6559,"Ġinteresa":6560,"ĠcÄĥlÄĥtorie":6561,"Ġaprop":6562,"Ġdesen":6563,"Ġcasei":6564,"Ġstabilite":6565,"ĠBine":6566,"ĠFeme":6567,"ez":6568,"Ġinfla":6569,"Ġlegal":6570,"Ġcerere":6571,"ĠacÅ£iuni":6572,"Ġvers":6573,"Ġchin":6574,"ĠInternet":6575,"Ġorigine":6576,"ĠPetro":6577,"Ġfamilii":6578,"Ġinteresant":6579,"Ġaspectul":6580,"Ġstele":6581,"land":6582,"Ġsuperior":6583,"ĠLice":6584,"ĠlimbÄĥ":6585,"Ġmm":6586,"ĠspaÈĽiu":6587,"ĠpaginÄĥ":6588,"irea":6589,"Ã®mp":6590,"Ġresurse":6591,"Ġvesti":6592,"FR":6593,"tiere":6594,"Ġaband":6595,"Ġgrupul":6596,"Ġteleviziune":6597,"Ġautomat":6598,"Ġprincipale":6599,"ĠHol":6600,"Ġparticiparea":6601,"Ġobservat":6602,"Ġavoc":6603,"smul":6604,"Ġmobile":6605,"gului":6606,"via":6607,"Ġcerin":6608,"ÈĻat":6609,"cÄĥtor":6610,"ĠðŁĻ":6611,"ĠlegÄĥtura":6612,"mer":6613,"Ġbuget":6614,"reÈĻte":6615,"ĠrÄĥb":6616,"ĠGru":6617,"Ġpreven":6618,"Ġatac":6619,"ĠÃ®ntrebare":6620,"ĠstrÄĥluci":6621,"Ġpostul":6622,"MA":6623,"?!":6624,"ĠUna":6625,"ĠmaximÄĥ":6626,"ĠStÄĥ":6627,"ĠLondra":6628,"ĠPlan":6629,"Ġlive":6630,"cui":6631,"ĠPrimÄĥriei":6632,"Ġplante":6633,"taj":6634,"Ġcolegii":6635,"ĠMesa":6636,"nirea":6637,"xel":6638,"Ġdepla":6639,"ĠProiect":6640,"Ġoprit":6641,"Ġgrani":6642,"ĠÅŁcoalÄĥ":6643,"ĠÃ®nscris":6644,"ĠmodificÄĥri":6645,"ĠalcÄĥ":6646,"scrie":6647,"ĠArge":6648,"Ġtaxe":6649,"Ġapreci":6650,"zz":6651,"Ġregiunea":6652,"trÄĥ":6653,"ll":6654,"Ġetapa":6655,"Ġ32":6656,"ĠalÅ£i":6657,"2013":6658,"ĠNumai":6659,"ĠÃ®nchise":6660,"Ġure":6661,"ĠCos":6662,"ĠconÅ£in":6663,"Ġministrului":6664,"ĠregulÄĥ":6665,"Ġlap":6666,"Ġ2019":6667,"Ġdevin":6668,"Ġplani":6669,"Ġvizu":6670,"ET":6671,"Ġarticolului":6672,"schi":6673,"Ġ<":6674,"Ġ1989":6675,"Ġfilos":6676,"Ġdificul":6677,"Ġreci":6678,"Ġabuz":6679,"Ġdefici":6680,"Ġangajat":6681,"ĠcÃ¢ÈĻtigÄĥ":6682,"ĠBraÈĻov":6683,"Ġproceduri":6684,"ĠZe":6685,"Ġsoft":6686,"Ġiubesc":6687,"ĠsumÄĥ":6688,"Ġned":6689,"Ġhaine":6690,"psa":6691,"dÄĥrii":6692,"izate":6693,"ĠÈĺti":6694,"potrivÄĥ":6695,"ĠadevÄĥrul":6696,"trem":6697,"Ġlibertate":6698,"ĠGar":6699,"Ġgenerale":6700,"EC":6701,"Ġlumin":6702,"ĠlistÄĥ":6703,"Ġalcool":6704,"Ġlux":6705,"Ġbuz":6706,"ĠComun":6707,"ĠimplicÄĥ":6708,"terioarÄĥ":6709,"ĠrealizeazÄĥ":6710,"Ġefectuat":6711,"doc":6712,"Ġstiu":6713,"Ġreferin":6714,"Ġgaze":6715,"ĠatenÅ£ia":6716,"ÈĽionate":6717,"ĠcÄĥzut":6718,"Ġodih":6719,"ĠFili":6720,"mene":6721,"semna":6722,"Ġdistribu":6723,"ys":6724,"Ġpenale":6725,"Ġpropriile":6726,"ĠpreÈĻedinte":6727,"zeci":6728,"Ġdinam":6729,"peni":6730,"Ġbote":6731,"Ġnomin":6732,"caÈĽi":6733,"Ġrecunoscut":6734,"ĠDeputa":6735,"Ġprepa":6736,"zÄĥm":6737,"Ġresponsabil":6738,"ĠsunteÈĽi":6739,"ĠVia":6740,"ĠÃİncÄĥ":6741,"ĠSur":6742,"ĠIor":6743,"streze":6744,"ieÈĻti":6745,"Ġraspun":6746,"Å£iona":6747,"ĠmeargÄĥ":6748,"Ġimobil":6749,"ĠconteazÄĥ":6750,"han":6751,"Ġanaliza":6752,"ĠvizitÄĥ":6753,"ĠDr":6754,"Ġsursa":6755,"ĠFoto":6756,"Ġcursuri":6757,"Ġcelul":6758,"Ġstilul":6759,"Ġriscul":6760,"ĠmamÄĥ":6761,"ĠpÃ¢r":6762,"ĠsursÄĥ":6763,"ĠPrez":6764,"Ġgreutate":6765,"Ġtradu":6766,"ĠPL":6767,"ĠiP":6768,"Ġdrag":6769,"Ġrus":6770,"Ġsisteme":6771,"Ġdidactice":6772,"ĠÃ®ntÃ¢mpla":6773,"Ġvege":6774,"sf":6775,"entan":6776,"Ġsimple":6777,"licatÄĥ":6778,"ĠexperienÅ£Äĥ":6779,"rom":6780,"Ġautorul":6781,"omi":6782,"ĠÃİncep":6783,"Ã³":6784,"sivi":6785,"Ġbisericii":6786,"ĠPracti":6787,"Ġdiploma":6788,"stal":6789,"ĠAplica":6790,"ĠðŁĻĤ":6791,"Ġfic":6792,"Ġfiscale":6793,"ĠNegru":6794,"ĠCrist":6795,"Ġsensi":6796,"ĠanalizÄĥ":6797,"Ġsecund":6798,"Ġschimbarea":6799,"oreazÄĥ":6800,"Ġuita":6801,"ĠServiciul":6802,"Ġcontesta":6803,"ĠPan":6804,"Ġdimensiuni":6805,"Ġlinie":6806,"Ġcontext":6807,"mea":6808,"Ġdoamna":6809,"UI":6810,"ĠetapÄĥ":6811,"ĠPic":6812,"Ġstandard":6813,"Ġcitate":6814,"alta":6815,"ĠjucÄĥtori":6816,"Ġtipul":6817,"ĠSecuri":6818,"Ġdreptului":6819,"ĠalÈĽi":6820,"Ġipo":6821,"Ġsemne":6822,"roasÄĥ":6823,"ĠÃ®mprej":6824,"enÈĽi":6825,"ĠtransformÄĥ":6826,"meni":6827,"Ø§":6828,"Ġcontractul":6829,"____":6830,"ÅŁani":6831,"ĠlargÄĥ":6832,"ĠVladimi":6833,"Ġbirou":6834,"ĠPara":6835,"Ġmetode":6836,"ĠcunoscutÄĥ":6837,"Ġdemers":6838,"Ġfotb":6839,"Ġrezerv":6840,"Ġcauz":6841,"Ġincon":6842,"ĠComite":6843,"Ġdiversi":6844,"ĠrealizatÄĥ":6845,"ĠfatÄĥ":6846,"spira":6847,"ĠcealaltÄĥ":6848,"Ġgi":6849,"ÅŁului":6850,"ĠsituaÅ£ie":6851,"Sf":6852,"ĠcÃ¢ÅŁtigat":6853,"let":6854,"Ġcuraj":6855,"Ġcrezut":6856,"ĠscrisÄĥ":6857,"terne":6858,"Ġauzi":6859,"ĠRezul":6860,"Ġpoporul":6861,"ĠEst":6862,"Ġconvins":6863,"Ġpopulare":6864,"ĠOrice":6865,"Ġfotografie":6866,"fu":6867,"caÅ£i":6868,"Ġilum":6869,"ĠTribun":6870,"ĠFier":6871,"ĠoficialÄĥ":6872,"Me":6873,"Ġnavi":6874,"ĠFacultatea":6875,"aÈĻ":6876,"Ġplea":6877,"ĠÈĻtii":6878,"Ġcome":6879,"ĠÃ®nvÄĥÅ£ÄĥmÃ¢nt":6880,"Ġbran":6881,"ĠIV":6882,"Ġanumit":6883,"xic":6884,"Ġbucure":6885,"ĠsÄĥnÄĥtatea":6886,"ÈĽatÄĥ":6887,"ĠgÃ¢ndesc":6888,"ĠUtiliz":6889,"ĠUnii":6890,"\":":6891,"ĠÅŁapte":6892,"OTO":6893,"Ġcondamnat":6894,"Ġvarianta":6895,"Ġargin":6896,"Ġapropierea":6897,"Ġrespira":6898,"ĠDobro":6899,"Ġtelefonul":6900,"ĠMatrimoniale":6901,"Ġreale":6902,"Ġreferendu":6903,"Ġlau":6904,"ĠacÅ£iune":6905,"ĠinternaÅ£ionale":6906,"Ġtable":6907,"RU":6908,"Ġexterior":6909,"ĠPop":6910,"ĠCamera":6911,"ĠÃ®nÈĽeles":6912,"Ġreabili":6913,"www":6914,"Ġmemo":6915,"Ġexpune":6916,"ctÄĥ":6917,"Ġinformare":6918,"Ġliderul":6919,"Ġtranzac":6920,"mentelor":6921,"ĠAS":6922,"ĠmenÅ£ine":6923,"Ġacordul":6924,"Ġordinea":6925,"oÈĻi":6926,"Ġlacri":6927,"cura":6928,"Ġmete":6929,"Ġindependen":6930,"ĠDece":6931,"ĠasemÄĥnÄĥ":6932,"teva":6933,"Ġgura":6934,"ĠcumpÄĥrat":6935,"Ġlansarea":6936,"Ġcomunica":6937,"Ġatinge":6938,"Ġprimesc":6939,"Ġï¿½":6940,"Ġrespectarea":6941,"Ġdezvoltat":6942,"ĠnumÄĥrÄĥ":6943,"ĠsimÅ£i":6944,"Ġlinia":6945,"ĠanumitÄĥ":6946,"Ġparale":6947,"core":6948,"ĠjudeÅ£":6949,"Ġrepara":6950,"lubul":6951,"Ġsimpli":6952,"ÈĽiona":6953,"ÈĽiunii":6954,"sÄĥm":6955,"ĠdecÃ®t":6956,"Ġaduse":6957,"MI":6958,"Ġoricum":6959,"Ġinvestiga":6960,"Ġsolicitat":6961,"ĠhotÄĥrÃ¢t":6962,"Ġcas":6963,"Ġsovie":6964,"ĠLup":6965,"Ġurme":6966,"Ġvalorile":6967,"tite":6968,"Ġmaterie":6969,"iascÄĥ":6970,"Ġdoamne":6971,"stron":6972,"ĠYork":6973,"Ġschi":6974,"ĠInvesti":6975,"Ġ38":6976,"indo":6977,"Ġfurt":6978,"Ġproiectele":6979,"ĠÃ®nregistrate":6980,"ĠAng":6981,"Ġdomn":6982,"Ġapropiat":6983,"Ġpublicate":6984,"ĠcÄĥrei":6985,"Ġalegeri":6986,"ologii":6987,"ĠobÈĽinut":6988,"Ġtemei":6989,"deazÄĥ":6990,"ÈĽiunilor":6991,"ĠrapidÄĥ":6992,"Ġindependent":6993,"Ġcolor":6994,"Ġbat":6995,"Ã®ndu":6996,"ĠCÄĥtÄĥ":6997,"ĠrealÄĥ":6998,"ati":6999,"ĠprezenÅ£a":7000,"Ġpartener":7001,"Ġgospo":7002,"Ġconstatat":7003,"alim":7004,"ĠGabriel":7005,"enie":7006,"ĠacÈĽiune":7007,"Ġtrec":7008,"ĠhrÄĥ":7009,"Ġbunuri":7010,"Ġope":7011,"Eu":7012,"ĠsoluÈĽii":7013,"Ġdevreme":7014,"Ġ07":7015,"ĠHi":7016,"ĠNou":7017,"Ġmarginea":7018,"Ġpromi":7019,"Pri":7020,"Ġpop":7021,"lis":7022,"Ġenti":7023,"ĠmenÈĽine":7024,"Ġtrupul":7025,"steri":7026,"Ġchirur":7027,"ons":7028,"ĠliberÄĥ":7029,"Ġdeschise":7030,"FA":7031,"Ġdemis":7032,"Pre":7033,"Ġofi":7034,"bw":7035,"Ġnerv":7036,"Ġopinia":7037,"cÄĥrile":7038,"ĠduratÄĥ":7039,"Ġcopa":7040,"Ġluate":7041,"Ġdocument":7042,"ĠCÄĥlÄĥ":7043,"Ġsani":7044,"EA":7045,"ĠTeatrul":7046,"ĠinternaÈĽionale":7047,"ĠÃ®mbunÄĥtÄĥÅ£i":7048,"ĠediÅ£ie":7049,"ĠrÄĥmÃ¢nÄĥ":7050,"ĠrespectivÄĥ":7051,"Å£ionate":7052,"ĠinimÄĥ":7053,"ricole":7054,"Ġbil":7055,"Ġlucrarea":7056,"Ġdepinde":7057,"ĠcapÄĥt":7058,"rÄĥri":7059,"ĠMarian":7060,"ĠdescÄĥr":7061,"ĠJohn":7062,"SÄĥ":7063,"ĠFestivalul":7064,"Ġunitate":7065,"ĠPalatul":7066,"ĠScri":7067,"ĠEpiscop":7068,"ĠSport":7069,"Ġsimte":7070,"Ġrezolv":7071,"Ġcontribuie":7072,"Ġdel":7073,"ĠNATO":7074,"Ġbule":7075,"Ġcra":7076,"ĠGrigo":7077,"ĠboalÄĥ":7078,"ĠÃ®ncÄĥlzi":7079,"ĠmaÅŁina":7080,"Ġmarketing":7081,"Ġriscu":7082,"Ġpropriul":7083,"Ġserviciul":7084,"ulescu":7085,"Ġ48":7086,"Ġizol":7087,"ĠÅŀti":7088,"ĠÃİN":7089,"Ġcoopera":7090,"qu":7091,"ĠpurtÄĥ":7092,"mu":7093,"Ġmelo":7094,"49":7095,"Ġpremii":7096,"Ġprivate":7097,"Ġ400":7098,"voarea":7099,"ĠSorin":7100,"ĠArhi":7101,"ĠSfÃ¢nt":7102,"tiilor":7103,"Ġdemonstra":7104,"Ġtrecu":7105,"ell":7106,"ture":7107,"ĠaÈĻe":7108,"Ġnaturi":7109,"ovi":7110,"PA":7111,"Ġvotat":7112,"basa":7113,"IB":7114,"Ġtara":7115,"pari":7116,"Ġseg":7117,"fil":7118,"hia":7119,"Ġvolumul":7120,"Ġpromovare":7121,"Ġpornit":7122,"Ġpeisa":7123,"Ġraportul":7124,"ĠsÄĥnÄĥtos":7125,"Ġepi":7126,"Ġactual":7127,"Ġclin":7128,"ĠAb":7129,"ĠplÄĥtit":7130,"Ġmascul":7131,"Ġdispozitive":7132,"Ġtoti":7133,"tau":7134,"Ġnemul":7135,"Ġmotor":7136,"Ġredus":7137,"Ġplanul":7138,"ĠWil":7139,"Ġaferente":7140,"Ġpoezii":7141,"Ġsportiv":7142,"ĠfiecÄĥrui":7143,"Ġprocedura":7144,"ĠcÃ£":7145,"ĠÃ®nfÄĥ":7146,"Ġutil":7147,"ĠanunÅ£Äĥ":7148,"Ġserios":7149,"Ġexistente":7150,"Ġrealitatea":7151,"Ġavantaj":7152,"ĠÃ®nÅ£elege":7153,"ost":7154,"Ġspectacul":7155,"Ġconserv":7156,"Ġdiferit":7157,"Ġgro":7158,"Ġfarma":7159,"Ġposibili":7160,"Ġmembrilor":7161,"Ġlinguri":7162,"ĠFer":7163,"ĠÅŀtefan":7164,"ceni":7165,"ĠPut":7166,"ĠIl":7167,"ĠTurcia":7168,"Ġkg":7169,"ĠPatriarh":7170,"Ġferm":7171,"Ġoricare":7172,"Ġgrupului":7173,"ĠceilalÅ£i":7174,"stii":7175,"ĠreÈĽea":7176,"ĠÃ®ntreru":7177,"ĠreuÈĻi":7178,"Ġcategorie":7179,"hor":7180,"Ġsume":7181,"Ġlungi":7182,"Ġcomi":7183,"tind":7184,"ĠsfÃ¢rÅŁit":7185,"ĠfuncÈĽia":7186,"ĠInterne":7187,"ĠTÃ¢rgu":7188,"77":7189,"Ġbiserici":7190,"ĠpregÄĥtire":7191,"Ġbaz":7192,"Ġdecora":7193,"Ġilu":7194,"Ġlite":7195,"Ġoferta":7196,"Ġdispus":7197,"riilor":7198,"ĠieÅŁit":7199,"Ġpicioarele":7200,"ICI":7201,"ĠIm":7202,"Ġscul":7203,"ĠreÈĽele":7204,"Ġmedicul":7205,"larÄĥ":7206,"ĠSil":7207,"ĠMihail":7208,"Ġtratamentul":7209,"Ġdeschiderea":7210,"ĠCorne":7211,"Ġdumneze":7212,"ĠFond":7213,"ĠtreacÄĥ":7214,"ĠPove":7215,"ĠaÈĻtepta":7216,"Ġaparte":7217,"Ġintrare":7218,"Ġinteresante":7219,"baÈĽi":7220,"ĠtoamnÄĥ":7221,"Ġbon":7222,"Ġnoului":7223,"xt":7224,"Ġprogre":7225,"Ġ33":7226,"Ġtrime":7227,"Ġexploa":7228,"ĠComuni":7229,"Ġpari":7230,"Ġpersonaje":7231,"ĠGay":7232,"Ġrevenit":7233,"ĠsituaÈĽii":7234,"ĠsituaÅ£ii":7235,"ĠSto":7236,"Ġnecunos":7237,"Ġpersoanei":7238,"ĠrealizÄĥ":7239,"Ġoaspe":7240,"Ġacuza":7241,"ĠContra":7242,"ĠÃ®ncÃ¢n":7243,"Ġfondul":7244,"Ġset":7245,"Ġevenimentul":7246,"ĠSpre":7247,"ĠLege":7248,"tuit":7249,"Ġfrag":7250,"ĠAnge":7251,"Ñı":7252,"inea":7253,"Ġautoriza":7254,"aÅŁ":7255,"ĠRadio":7256,"ĠSitua":7257,"ĠrÄĥspunsul":7258,"ĠAnt":7259,"CA":7260,"sto":7261,"Ġtreaba":7262,"tezi":7263,"ĠVÃ¢l":7264,"ĠseamÄĥ":7265,"Ġintroduce":7266,"deze":7267,"ĠÃ®nsuÅŁi":7268,"ĠdispoziÈĽie":7269,"ĠBuzÄĥ":7270,"time":7271,"Ġsportive":7272,"ĠÃİi":7273,"Ġtotali":7274,"ĠJurn":7275,"iera":7276,"Ġnoile":7277,"giei":7278,"Ġsuplimenta":7279,"alt":7280,"oneze":7281,"ĠÃİnainte":7282,"ĠMunte":7283,"Ġlibertatea":7284,"ĠsolicitÄĥ":7285,"Ġslo":7286,"ĠplÄĥcere":7287,"44":7288,"Ġacuzat":7289,"Ġgradul":7290,"Ġantic":7291,"ĠMarii":7292,"ĠpÄĥrinÅ£ii":7293,"Ġinau":7294,"Ġintelectu":7295,"ramure":7296,"pati":7297,"pÄĥri":7298,"Ġplastic":7299,"ĠsalÄĥ":7300,"zeze":7301,"ĠÃİmp":7302,"ĠurmÄĥtorul":7303,"lay":7304,"ĠOrganiza":7305,"ĠrecunoaÅŁte":7306,"ĠGrecia":7307,"Ġambasa":7308,"smului":7309,"ĠadÃ¢nc":7310,"Ġcredit":7311,"tag":7312,"ĠMine":7313,"dil":7314,"Ġemail":7315,"Ġvehicul":7316,"Ġlovit":7317,"ĠSlo":7318,"ĠFatÄĥ":7319,"ĠRead":7320,"Ġadmite":7321,"Ġpline":7322,"Ġimobili":7323,"ĠFam":7324,"vici":7325,"ĠDrago":7326,"Ġmesajul":7327,"gatÄĥ":7328,"Ġopre":7329,"ĠCentrului":7330,"teÅŁte":7331,"ĠumanÄĥ":7332,"Ġshow":7333,"oastre":7334,"Ġdesigur":7335,"Ġconsili":7336,"galerie":7337,"ĠreferÄĥ":7338,"tofi":7339,"tarului":7340,"ĠGrÄĥ":7341,"Ġbebelu":7342,"ĠMore":7343,"Ġindividual":7344,"ĠstrÄĥine":7345,"ĠDem":7346,"alu":7347,"ĠPRO":7348,"ĠTom":7349,"ĠgrÄĥdini":7350,"ĠJudecÄĥ":7351,"tenci":7352,"her":7353,"Ġcrimin":7354,"anului":7355,"Ġpartidului":7356,"Ġumani":7357,"Din":7358,"Ġintitul":7359,"chilor":7360,"Ġtextul":7361,"Ġadoptat":7362,"ĠsituaÈĽie":7363,"ĠOvi":7364,"Å£ate":7365,"ĠstrÄĥini":7366,"Ġamenin":7367,"Ġå":7368,"ĠprotecÈĽie":7369,"ĠSexuale":7370,"ĠdovadÄĥ":7371,"ĠnaturalÄĥ":7372,"ĠautoritÄĥÈĽile":7373,"ĠactualÄĥ":7374,"ĠdÄĥm":7375,"ĠhÃ¢rtie":7376,"Ġenergia":7377,"Ġexperimen":7378,"Ġsune":7379,"sal":7380,"ĠClau":7381,"Ġapropiere":7382,"ĠdeÅ£in":7383,"Ġprodusul":7384,"Ġrai":7385,"mani":7386,"ĠÃ®nghe":7387,"ĠobÈĽin":7388,"Ġtransform":7389,"Ġguvernul":7390,"Ġtras":7391,"roid":7392,"ĠMÄĥnÄĥstirea":7393,"izeazÄĥ":7394,"ĠMoscova":7395,"Ġprelungi":7396,"ĠCN":7397,"Å£ionarea":7398,"Å£ialÄĥ":7399,"Ġcadru":7400,"ĠTulcea":7401,"ronicÄĥ":7402,"Ġrelu":7403,"Ġexterne":7404,"trol":7405,"ĠbÄĥtÄĥ":7406,"ĠpublicatÄĥ":7407,"lugÄĥ":7408,"ĠLin":7409,"Ġfierbinte":7410,"ĠrezervÄĥ":7411,"Ġefort":7412,"Ġnuan":7413,"Ġog":7414,"Ġspui":7415,"sex":7416,"Ġbom":7417,"ĠinternaÈĽional":7418,"ĠurmÄĥtoarea":7419,"ĠRoma":7420,"ĠatenÈĽie":7421,"32":7422,"Ġefectele":7423,"Ġvicepre":7424,"ĠsusÅ£inut":7425,"teÈĻte":7426,"Ġfabrica":7427,"ĠRÃ¢":7428,"Ġexprim":7429,"Ġdurere":7430,"Ġaeri":7431,"ĠpreÅŁedintelui":7432,"ĠcompletÄĥ":7433,"bet":7434,"ĠÃİl":7435,"pare":7436,"ĠnaÈĽionalÄĥ":7437,"ĠVIDEO":7438,"Ġparf":7439,"ĠdobÃ¢n":7440,"Ġorganizare":7441,"titudine":7442,"Ġetiche":7443,"otelul":7444,"ĠDezvoltare":7445,"ĠReprez":7446,"ĠÃ®nÈĽelege":7447,"Ġatribui":7448,"Ġinse":7449,"Ġprimii":7450,"ĠFranÅ£a":7451,"Ġformare":7452,"ĠBanca":7453,"ĠposibilÄĥ":7454,"Ġinferi":7455,"Ġoricine":7456,"ĠBulgaria":7457,"raÈĽi":7458,"Ġreme":7459,"Ġdator":7460,"Ġmanipul":7461,"indows":7462,"ĠZa":7463,"ĠpreÈĽul":7464,"Ġneo":7465,"Ð²":7466,"ĠprezenÈĽa":7467,"Ġtransforma":7468,"Ġcarti":7469,"ĠcomunicÄĥ":7470,"ĠcÃ¢ÈĽiva":7471,"Ġcreste":7472,"Ġbucur":7473,"ĠÃ®ncheie":7474,"ĠPublice":7475,"Ġdemni":7476,"vul":7477,"ĠcredinÅ£Äĥ":7478,"Ġhran":7479,"ĠDesc":7480,"ĠpiatrÄĥ":7481,"istic":7482,"Ġproto":7483,"ĠcreÈĻtin":7484,"Ġ75":7485,"ĠÃ®ntreagÄĥ":7486,"dinÄĥ":7487,"ĠIP":7488,"ĠclasÄĥ":7489,"ĠfuncÈĽioneazÄĥ":7490,"ĠperfectÄĥ":7491,"mana":7492,"ĠinformaÈĽiile":7493,"Ġstatele":7494,"cerea":7495,"Ġaccesorii":7496,"Ġlas":7497,"ĠPh":7498,"Ġsexuale":7499,"ĠSM":7500,"ĠdoriÈĽi":7501,"ĠMaj":7502,"ĠXI":7503,"Ġtin":7504,"ĠfricÄĥ":7505,"ĠpÄĥrÅ£i":7506,"2011":7507,"Ġdetali":7508,"Ġformarea":7509,"Ġsublini":7510,"urgiu":7511,"ĠÃ®ndoi":7512,"Ġ01":7513,"mbur":7514,"ÅŁeÅŁte":7515,"ĠvitezÄĥ":7516,"ĠfolositÄĥ":7517,"Ġimplementarea":7518,"Ġinstr":7519,"âĢ¦)":7520,"ĠNov":7521,"Ġ37":7522,"ĠneapÄĥrat":7523,"stituit":7524,"duit":7525,"ĠProtec":7526,"Ġmp":7527,"tern":7528,"Ġgest":7529,"Ġconsiderare":7530,"ĠtÄĥi":7531,"Ġlimbii":7532,"olice":7533,"Ġspiritul":7534,"oÅŁi":7535,"ĠeducaÈĽie":7536,"Ġtoata":7537,"ham":7538,"Ġgrad":7539,"Ġoptim":7540,"Ġruga":7541,"tphone":7542,"sia":7543,"Ġacciden":7544,"Ġliceu":7545,"ĠPrincip":7546,"ĠcreÅŁ":7547,"ĠValen":7548,"dy":7549,"Ġspunem":7550,"Ġcheie":7551,"ĠactivitÄĥÅ£ii":7552,"Ġadministrativ":7553,"ĠVaslui":7554,"ĠEchipa":7555,"Ġreprezentat":7556,"ĠmaÈĻina":7557,"Ġpon":7558,"ditate":7559,"Ġdestinate":7560,"Ġactuale":7561,"Ġalea":7562,"Ġbucuria":7563,"Ġopozi":7564,"Ġnegocie":7565,"Ġdefinitiv":7566,"Ġcance":7567,"cesc":7568,"Ġavion":7569,"Ġocupat":7570,"ĠrugÄĥciune":7571,"ĠgamÄĥ":7572,"ĠTVR":7573,"ĠaÈĻteaptÄĥ":7574,"tez":7575,"state":7576,"ĠcÃ¢Å£iva":7577,"Ġfru":7578,"uli":7579,"Ġprobe":7580,"Ġculoarea":7581,"Ġprost":7582,"ĠProble":7583,"Ġbuzun":7584,"Ġorien":7585,"Ġconsilier":7586,"Ġprofit":7587,"ĠdoreÈĻte":7588,"Ġsacri":7589,"vic":7590,"Ġsindic":7591,"Ġcandidat":7592,"ĠCÄĥci":7593,"Ġparticipare":7594,"Ġsimilare":7595,"Ġconstant":7596,"clara":7597,"ĠnecesitÄĥ":7598,"Ġfasc":7599,"ĠinstituÅ£ii":7600,"Ġdim":7601,"ĠAdicÄĥ":7602,"ĠPolonia":7603,"Ġcomunicatul":7604,"Ġutiliza":7605,"Ã¶":7606,"Ġpof":7607,"ĠFrum":7608,"ĠÃ®ntreb":7609,"uÅ£i":7610,"Ġarhe":7611,"ĠFiind":7612,"ĠprocedurÄĥ":7613,"ĠEmil":7614,"Ġtransformat":7615,"Ġistoriei":7616,"ĠDoi":7617,"Ġnucle":7618,"ĠvizeazÄĥ":7619,"Ġoferim":7620,"ĠTotul":7621,"ĠfinanciarÄĥ":7622,"Ġasigure":7623,"ĠBaia":7624,"Ġprofesori":7625,"ĠunicÄĥ":7626,"Ġacceptat":7627,"organ":7628,"Ġpersonalului":7629,"Ġpedea":7630,"ĠAir":7631,"Ġfaza":7632,"Ġ09":7633,"ĠaÅŁteaptÄĥ":7634,"tire":7635,"ĠpoveÈĻti":7636,"Ġimplicat":7637,"ĠmaÅŁinÄĥ":7638,"ĠEro":7639,"Ã¢ndÄĥ":7640,"Ġimposibil":7641,"ĠStar":7642,"ĠcivilÄĥ":7643,"Ġfemeilor":7644,"Ġtehnologie":7645,"Ġ1990":7646,"Ġurban":7647,"ĠHotel":7648,"ĠMÃ¢ntui":7649,"ĠdesfÄĥÅŁoarÄĥ":7650,"Ġcadou":7651,"terii":7652,"ĠFranÈĽa":7653,"ĠconÅ£ine":7654,"ĠOlim":7655,"ĠdoreÅŁte":7656,"Ġinsu":7657,"Ġhidra":7658,"Ġdesfa":7659,"Ġsufletului":7660,"Ġgrupuri":7661,"ĠAdevÄĥ":7662,"Ġevre":7663,"ĠfÄĥce":7664,"Ġparoh":7665,"ĠSimona":7666,"Ġmilitar":7667,"Ġiubit":7668,"ĠpÄĥrul":7669,"ĠmaÈĻini":7670,"pice":7671,"met":7672,"ĠAsociaÅ£ia":7673,"55":7674,"ĠNU":7675,"ĠgÃ¢ndul":7676,"Ġmultu":7677,"Ġusor":7678,"ĠSatu":7679,"Ġ39":7680,"Ġhai":7681,"Ġjapone":7682,"Ġepiscop":7683,"ĠPreÈĻedintele":7684,"vele":7685,"ĠacÈĽiuni":7686,"Ġdormi":7687,"ĠOdatÄĥ":7688,"EL":7689,"ĠRela":7690,"Ġceai":7691,"Ġmotivul":7692,"gicÄĥ":7693,"Ġest":7694,"ĠbeneficiazÄĥ":7695,"vesc":7696,"ĠinternaÅ£ional":7697,"ĠVine":7698,"ĠCartea":7699,"ĠBib":7700,"Ġdomnului":7701,"Ġinspira":7702,"Ġcomentarii":7703,"ĠreuÅŁi":7704,"Ġacordarea":7705,"ĠDinamo":7706,"Ġcitesc":7707,"ĠpÄĥrinÈĽii":7708,"Ġnevoile":7709,"Ġaste":7710,"ĠacordÄĥ":7711,"Ġcolegi":7712,"Ã¢ntul":7713,"Ġposibile":7714,"ĠÃ®nvÄĥÈĽÄĥmÃ¢nt":7715,"stur":7716,"Ġsate":7717,"Ġsubiectul":7718,"turgh":7719,"Ġsil":7720,"Ġauton":7721,"ĠbÄĥrbaÈĽi":7722,"Ġtor":7723,"oritatea":7724,"ĠpÄĥrÈĽi":7725,"ĠsusÈĽinut":7726,"Ġcentrale":7727,"ĠServiciului":7728,"Ġrege":7729,"Ġresponsabili":7730,"ĠEvanghel":7731,"ÈĽate":7732,"ĠcÃ¢r":7733,"Ġfla":7734,"ĠDomniÈĻ":7735,"Ġwebsite":7736,"ĠtrÄĥim":7737,"ĠrÄĥs":7738,"Ġpermit":7739,"âĢ¦âĢ¦":7740,"89":7741,"Ġculturii":7742,"izatÄĥ":7743,"ĠAlte":7744,"xelles":7745,"ĠBistri":7746,"ziune":7747,"ĠNews":7748,"oÈĻ":7749,"ĠconÈĽinut":7750,"66":7751,"ĠjuridicÄĥ":7752,"ĠSpeci":7753,"ĠÅŁcoli":7754,"Ñĭ":7755,"ĠProbabil":7756,"Ġorto":7757,"ĠColegiul":7758,"ĠÃ®nscri":7759,"ĠcarierÄĥ":7760,"Ġmunicip":7761,"Ġevenimentele":7762,"ĠzahÄĥr":7763,"Ġvoastre":7764,"buc":7765,"Ġsimul":7766,"Ġvali":7767,"Ġdeosebire":7768,"ĠaÅŁtepta":7769,"ĠNoul":7770,"matricul":7771,"ĠnumitÄĥ":7772,"Ġlen":7773,"Au":7774,"ĠSecre":7775,"ĠFilm":7776,"Ġlegume":7777,"Ġfericit":7778,"Ġgalben":7779,"Ġteore":7780,"ĠâĢĻ":7781,"ĠspaÅ£iu":7782,"ĠCuvÃ¢n":7783,"ĠPorn":7784,"ĠWi":7785,"mic":7786,"Ġvoturi":7787,"Ġmodifica":7788,"Ġgratuite":7789,"ĠcomandÄĥ":7790,"ĠbucurÄĥ":7791,"ĠfÄĥcÃ¢nd":7792,"ĠFac":7793,"Ġiei":7794,"ĠsocietÄĥÈĽii":7795,"Ġsfer":7796,"Ġdepen":7797,"Ġaltora":7798,"ĠCultural":7799,"ĠVladimir":7800,"Ġentuzia":7801,"ondiale":7802,"tinÄĥ":7803,"Ġconsumul":7804,"Ġcircum":7805,"ctaÈĽi":7806,"MP":7807,"ĠDatori":7808,"Ġdragi":7809,"ĠcÄĥutarea":7810,"Ġincredi":7811,"ĠapÄĥrea":7812,"ela":7813,"Ġciviliza":7814,"MW":7815,"Ġmarile":7816,"ĠspaÅ£iul":7817,"ogÄĥ":7818,"ĠmÄĥsurile":7819,"Ġmal":7820,"ĠÃ®ndrÄĥz":7821,"ĠInf":7822,"ĠJos":7823,"urie":7824,"Ġlocuitori":7825,"Ġlabor":7826,"Ġarate":7827,"Ġsinte":7828,"ĠsticlÄĥ":7829,"Ġdecide":7830,"Ġorganism":7831,"usÄĥ":7832,"ĠCru":7833,"ĠcreeazÄĥ":7834,"ĠEugen":7835,"Ġinaugu":7836,"Ġfratele":7837,"stine":7838,"tili":7839,"ĠDN":7840,"ĠpleacÄĥ":7841,"Ġoferte":7842,"Ġpermi":7843,"Ġexpi":7844,"Ã¢mp":7845,"Ġuit":7846,"ĠClub":7847,"ĠConferin":7848,"Ġsecunde":7849,"ĠveÅŁ":7850,"ĠdezvoltÄĥrii":7851,"Ġturn":7852,"Ġspectacole":7853,"Ġdiscutat":7854,"onim":7855,"ÈĻani":7856,"ĠvorbÄĥ":7857,"Ġcoleg":7858,"Ġcuprinse":7859,"Ġprilej":7860,"Ġcresc":7861,"Ġlucrare":7862,"Ġcampania":7863,"ĠLiber":7864,"Ġprimite":7865,"mes":7866,"easca":7867,"Ġservi":7868,"ĠreÅ£ele":7869,"Ġhor":7870,"hiepiscop":7871,"Ġstar":7872,"ĠsfÃ¢rÈĻit":7873,"ash":7874,"ĠexperienÈĽa":7875,"Ġpropunerea":7876,"Ġacelui":7877,"Ġautomo":7878,"orile":7879,"ĠPiaÅ£a":7880,"meazÄĥ":7881,"Ġcancer":7882,"ĠLea":7883,"Ġmarele":7884,"ĠmetodÄĥ":7885,"Ġcomentariu":7886,"Ġromane":7887,"Ġnoastra":7888,"ĠdesfÄĥÈĻoarÄĥ":7889,"pusÄĥ":7890,"mesc":7891,"Ġterenul":7892,"lexi":7893,"ĠmarÈĽi":7894,"ĠPite":7895,"Ġnepo":7896,"Ð¼":7897,"Ġatins":7898,"Ġfiica":7899,"Ġmeciuri":7900,"ĠspaÈĽiul":7901,"ĠLÄĥ":7902,"ĠpÄĥrintele":7903,"ĠCopil":7904,"uÅ£":7905,"Ġraza":7906,"ÈĽel":7907,"Ġ2003":7908,"ds":7909,"hÄĥ":7910,"Ġinceput":7911,"ĠDel":7912,"iectele":7913,"Le":7914,"Ġton":7915,"ĠcÃ®t":7916,"ÈĻului":7917,"Ġoriginal":7918,"pun":7919,"Ġfoa":7920,"ĠTeen":7921,"Ġcomunitate":7922,"ocam":7923,"Ġfavoarea":7924,"ÈĽialÄĥ":7925,"sac":7926,"Ġeconomie":7927,"ĠBruxelles":7928,"Ġmane":7929,"Al":7930,"Ġinstruc":7931,"Ġcabine":7932,"ĠVom":7933,"ĠFlori":7934,"Ġtoamna":7935,"Ġpreziden":7936,"ĠVie":7937,"Ġedu":7938,"ĠcompletÄĥrile":7939,"RomÃ¢n":7940,"inic":7941,"ĠÈĻtiinÈĽi":7942,"ĠAcademiei":7943,"Ġtar":7944,"Ġsmartphone":7945,"ĠAproape":7946,"Ġgrele":7947,"Ġguvernare":7948,"Ġelectronice":7949,"Ġprezentare":7950,"ĠdimineaÅ£Äĥ":7951,"ĠÃ®nsemn":7952,"ĠFu":7953,"ĠdesÄĥ":7954,"ĠprotecÅ£ie":7955,"Ġmaghi":7956,"Ġamplas":7957,"tionale":7958,"ĠOvidiu":7959,"rusalim":7960,"Ġadmini":7961,"orld":7962,"2006":7963,"Ġidentitate":7964,"Ġmedal":7965,"Li":7966,"ĠreÅ£ea":7967,"Ġdrumuri":7968,"ĠWindows":7969,"Ġneam":7970,"Ġvarian":7971,"uci":7972,"Ġconsultan":7973,"ĠCit":7974,"ĠceilalÈĽi":7975,"ÈĽionarea":7976,"ĠdedicatÄĥ":7977,"ĠÃ®ngro":7978,"seori":7979,"Ġasoci":7980,"tirea":7981,"Ġfine":7982,"Ġtransportul":7983,"ÈĻilor":7984,"ĠÃ®nvÄĥÈĽat":7985,"Ġrecomandat":7986,"Ġpropa":7987,"sip":7988,"Ġproiectelor":7989,"ĠEvi":7990,"ĠsemnÄĥ":7991,"SS":7992,"ĠgÄĥseascÄĥ":7993,"ĠHai":7994,"ĠSpa":7995,"Ġintervalul":7996,"ĠFilme":7997,"Ġhand":7998,"ĠdeosebitÄĥ":7999,"Ġdificil":8000,"Ġinterac":8001,"Ġregimul":8002,"Ġpurta":8003,"ĠIan":8004,"ĠieÈĻit":8005,"ĠHD":8006,"ĠCarol":8007,"Ġacti":8008,"ĠDuhul":8009,"ĠRusiei":8010,"Ġsuprafe":8011,"Ġsemnal":8012,"mane":8013,"Ġful":8014,"Ġalimen":8015,"king":8016,"ĠcÄĥutare":8017,"Ġumb":8018,"Ġorei":8019,"ĠDepar":8020,"ĠgrÄĥs":8021,"ĠsuferÄĥ":8022,"ĠÃ®ntrebarea":8023,"Ġneb":8024,"Ġnegative":8025,"Å£iÅŁ":8026,"lile":8027,"Ġgroa":8028,"Ġcomponente":8029,"ĠUrmÄĥ":8030,"ĠElect":8031,"ĠUniversitÄĥÅ£ii":8032,"ĠLucian":8033,"uÈĻ":8034,"Ġinspec":8035,"Ġ55":8036,"Ġdocumentele":8037,"Ġfunda":8038,"ĠfiscalÄĥ":8039,"Å£iu":8040,"ĠrÄĥdÄĥ":8041,"wer":8042,"**":8043,"Ġvotul":8044,"Ġemite":8045,"ĠdimineaÈĽÄĥ":8046,"onald":8047,"Ġcomportament":8048,"Ġpreluat":8049,"Sunt":8050,"Ġvostru":8051,"Ġweekend":8052,"ĠinvestiÅ£ii":8053,"ĠoricÃ¢nd":8054,"pit":8055,"Ġapartament":8056,"ĠVoi":8057,"Ġelement":8058,"rute":8059,"Ġing":8060,"Ġja":8061,"ĠIerusalim":8062,"cÃ¢t":8063,"cÄĥtoare":8064,"ĠreprezentanÅ£ii":8065,"Ġimpus":8066,"ĠIni":8067,"Ġpunem":8068,"jud":8069,"ĠÃ®nte":8070,"Ġumplu":8071,"ĠTrei":8072,"ĠfirmÄĥ":8073,"Ġminunat":8074,"Ġvoluntari":8075,"Ġinto":8076,"46":8077,"ĠCiteÅŁte":8078,"Ġierar":8079,"Ġlucrul":8080,"Ġabu":8081,"ĠnumÄĥrului":8082,"Ġtablo":8083,"cani":8084,"ferici":8085,"terin":8086,"ĠJap":8087,"Ġregiune":8088,"Ġaleg":8089,"ĠluÄĥm":8090,"Ġpreferat":8091,"orit":8092,"Ġcomercial":8093,"Ġcutrem":8094,"ĠCÄĥtÄĥlin":8095,"Ġï":8096,"ĠurgenÈĽÄĥ":8097,"Ġcompaniile":8098,"Ġatent":8099,"Ġpremierul":8100,"zer":8101,"ĠSuper":8102,"ĠzÄĥpa":8103,"Ġglu":8104,"diilor":8105,"ĠÃ®ntregii":8106,"Ġreve":8107,"Ġautoturism":8108,"poarte":8109,"ĠasigurÄĥri":8110,"ĠpreÅ£ul":8111,"ĠvrÄĥ":8112,"Ġsoftware":8113,"ĠbÄĥrbatul":8114,"Ġbugetului":8115,"Ġ65":8116,"Ġrost":8117,"Ġetape":8118,"ciunea":8119,"ĠrecunoaÈĻte":8120,"Ġparlamentare":8121,"Ġpresedin":8122,"Ġcomite":8123,"ÈĻeÈĻte":8124,"Ġmamei":8125,"Ġmenta":8126,"ĠcorectÄĥ":8127,"Ġoficiale":8128,"cÃ¢ndu":8129,"ĠBen":8130,"ĠsÄĥra":8131,"Ġmotiva":8132,"ĠOmul":8133,"Ġrug":8134,"Ġcald":8135,"ĠUnde":8136,"Ġretro":8137,"2012":8138,"ĠGratuit":8139,"Ġcivile":8140,"Ġprevenirea":8141,"Ġaceia":8142,"Ġspani":8143,"Ġrefuzat":8144,"ĠÃ®nlÄĥ":8145,"ĠDecizia":8146,"Ġconcursului":8147,"Ġscorul":8148,"ĠLocale":8149,"ĠdespÄĥr":8150,"ĠatÃ¢tea":8151,"Ġeval":8152,"Ġ250":8153,"ĠAmbasa":8154,"PC":8155,"Ġcomunitatea":8156,"Ġmetal":8157,"bine":8158,"nie":8159,"Ġcapacitate":8160,"ĠGor":8161,"Ġcinemat":8162,"Ġsomn":8163,"ĠprÄĥbu":8164,"Ġarta":8165,"Ġadministrarea":8166,"Ġgale":8167,"chea":8168,"Ġdedicate":8169,"ĠÈĺtefan":8170,"ĠSocial":8171,"alitÄĥÅ£ii":8172,"Ġhar":8173,"Ã¢ie":8174,"Ġire":8175,"ĠcÃ¢ÅŁtigÄĥ":8176,"Ġdosare":8177,"Ġmedii":8178,"ĠpremierÄĥ":8179,"Ġfrancez":8180,"est":8181,"sura":8182,"Ġconsider":8183,"deau":8184,"ĠCFR":8185,"lesc":8186,"arma":8187,"Ġpunctele":8188,"Ġaplicat":8189,"Ġveniturile":8190,"Ġflo":8191,"Ġridicate":8192,"ENT":8193,"Ġguvernului":8194,"ĠPiaÈĽa":8195,"ĠpÄĥrere":8196,"riat":8197,"Ġperspectiva":8198,"ĠtÃ¢nÄĥrÄĥ":8199,"ĠMaramure":8200,"mili":8201,"Ġdelega":8202,"Ġcontracte":8203,"Ġexpe":8204,"Ġpietre":8205,"DA":8206,"Ġpreten":8207,"ciei":8208,"citeste":8209,"ĠvoastrÄĥ":8210,"Å£ionare":8211,"Ġlocalitate":8212,"ĠHale":8213,"Ġlegen":8214,"ĠaflatÄĥ":8215,"2010":8216,"Ġevita":8217,"entÃ¢nd":8218,"ĠPle":8219,"Ġuimi":8220,"ĠIde":8221,"Ġsemnificativ":8222,"stase":8223,"Ġdeb":8224,"Ġprimului":8225,"berg":8226,"tane":8227,"Ġminori":8228,"ĠgÃ¢nde":8229,"»¿":8230,"Ġreligioase":8231,"Ġtransfe":8232,"Ġrar":8233,"inica":8234,"OP":8235,"ĠsÄĥl":8236,"Ġvop":8237,"Ġobiectul":8238,"47":8239,"Ġtitul":8240,"uare":8241,"cciden":8242,"Ġagricole":8243,"ĠsÄĥrbÄĥtoare":8244,"SP":8245,"ĠapÄĥrare":8246,"Ġurcat":8247,"ĠIndi":8248,"ĠelectricÄĥ":8249,"Ġatitudine":8250,"ĠPopa":8251,"Ġrevine":8252,"Ġbrand":8253,"Ġvizitat":8254,"CI":8255,"ĠlegislativÄĥ":8256,"cutiv":8257,"Ġstadi":8258,"UG":8259,"osex":8260,"ĠinvestiÈĽii":8261,"cula":8262,"ĠcÄĥutat":8263,"100":8264,"enÅ£i":8265,"sy":8266,"ĠschimbÄĥri":8267,"torial":8268,"ĠpoliÅ£iÅŁtii":8269,"ĠÅŁeful":8270,"ĠPartener":8271,"ĠSteaua":8272,"ĠrÄĥzb":8273,"Ġtenis":8274,"Ġjandar":8275,"Ġlipsi":8276,"ÃŃ":8277,"Ġatras":8278,"Ġiarna":8279,"ĠmodernÄĥ":8280,"Ġinvitat":8281,"ĠvorbeÅŁte":8282,"ÈĻesc":8283,"Ġenergiei":8284,"ĠmaÅŁini":8285,"Ġdulce":8286,"sung":8287,"Ġrelativ":8288,"omosex":8289,"ĠtemÄĥ":8290,"Ġvazut":8291,"Ġminci":8292,"Ġcrezi":8293,"ĠadunÄĥ":8294,"ĠFiul":8295,"anca":8296,"Ġsfaturi":8297,"oxi":8298,"2008":8299,"ĠafecteazÄĥ":8300,"tatile":8301,"ĠLim":8302,"Ġradic":8303,"Ġparcare":8304,"Ġretur":8305,"Ġ2002":8306,"ĠScrip":8307,"Ġintegral":8308,"Ġreducere":8309,"Ġarmon":8310,"Ġadeva":8311,"Ġtransparen":8312,"Ġcondamn":8313,"ĠcÄĥsÄĥtori":8314,"jma":8315,"ĠAR":8316,"Ex":8317,"ĠTuri":8318,"Ġprofund":8319,"Ġomor":8320,"Ġstabil":8321,"ÅŁie":8322,"ĠGale":8323,"Ġpozitiv":8324,"Ġpatron":8325,"ĠalbÄĥ":8326,"Ġanal":8327,"Ġgun":8328,"ĠAnti":8329,"ĠneagrÄĥ":8330,"Ġtone":8331,"Ġprovo":8332,"ĠRobert":8333,"tel":8334,"ĠEr":8335,"Ġlac":8336,"Ġfaptele":8337,"este":8338,"Ġbucurat":8339,"ĠCapitalei":8340,"ĠAlb":8341,"Ġinterese":8342,"ĠAvÃ¢nd":8343,"Ġpovestit":8344,"Å£u":8345,"Ġgimna":8346,"ĠpusÄĥ":8347,"Ġsatisfa":8348,"ĠTatÄĥl":8349,"ĠFap":8350,"ĠAD":8351,"rita":8352,"ĠGiurgiu":8353,"Ġmalul":8354,"Ġfavora":8355,"ĠcentralÄĥ":8356,"hova":8357,"ĠCana":8358,"ĠUnele":8359,"Ġrelev":8360,"oastra":8361,"Ġbea":8362,"Ġproveni":8363,"ĠlegatÄĥ":8364,"ĠsimÅ£":8365,"Ġder":8366,"Ġhidro":8367,"Ġamintesc":8368,"Ġdecor":8369,"ĠPublic":8370,"Ġegal":8371,"cam":8372,"ĠActivi":8373,"ĠunitÄĥÅ£i":8374,"umÄĥrul":8375,"dim":8376,"Ġgros":8377,"ĠcrizÄĥ":8378,"ĠCulturÄĥ":8379,"tara":8380,"isticÄĥ":8381,"Ġmajore":8382,"Ġefectuarea":8383,"ĠÅ£inut":8384,"Ġari":8385,"Ġindicat":8386,"Ġspirit":8387,"ĠfiÈĻ":8388,"galia":8389,"uned":8390,"Ġaudio":8391,"Ġjert":8392,"Ġrata":8393,"Ġbron":8394,"Ġprincipalele":8395,"ĠDesigur":8396,"Ġinstrumente":8397,"ist":8398,"tent":8399,"Ġimpri":8400,"ĠXV":8401,"xul":8402,"ĠinstituÈĽii":8403,"Ġeliminarea":8404,"Ġmagistra":8405,"ĠDigi":8406,"ĠdispoziÅ£ie":8407,"Ġvina":8408,"ĠPartea":8409,"Ġtotdeauna":8410,"Ġbogat":8411,"ĠÈĻcoli":8412,"ĠgÃ¢nduri":8413,"ĠcÃ¢nte":8414,"ĠBlack":8415,"batÄĥ":8416,"ĠCoc":8417,"Ġliberal":8418,"abil":8419,"wo":8420,"Ġcelule":8421,"ĠFostul":8422,"ĠgreÅŁe":8423,"Ġmilion":8424,"erÄĥm":8425,"IO":8426,"Ġdiscurs":8427,"tanÄĥ":8428,"ĠutilizeazÄĥ":8429,"ĠPÄĥrinte":8430,"The":8431,"talului":8432,"Ġinova":8433,"seste":8434,"ĠpÄĥstreazÄĥ":8435,"denÈĽi":8436,"ĠÃ®ntregi":8437,"Ġiese":8438,"Ġspitale":8439,"ĠTudo":8440,"Ġreguli":8441,"ĠSE":8442,"Ġ2001":8443,"ĠprincipalÄĥ":8444,"liere":8445,"ĠCÃ¢mp":8446,"ket":8447,"Ġprocurorii":8448,"ĠvÃ¢rf":8449,"Ġprodusului":8450,"Ġutile":8451,"pic":8452,"oferul":8453,"onare":8454,"Acest":8455,"Ġimuni":8456,"Ġsocializare":8457,"Ġ$":8458,"Ġinve":8459,"Ġpartide":8460,"ologiei":8461,"Ġindividuale":8462,"Ġvecin":8463,"ĠGrup":8464,"ĠJocuri":8465,"ĠiasÄĥ":8466,"ĠÃ®nvÄĥÅ£at":8467,"Ġgama":8468,"ĠMatei":8469,"Ġbord":8470,"eniile":8471,"onic":8472,"Ġgrija":8473,"ĠAcci":8474,"ĠdeclarÄĥ":8475,"Ġpurtat":8476,"Ġboala":8477,"Ġprezentarea":8478,"ĠridicatÄĥ":8479,"Ġinteligen":8480,"ĠPrimarul":8481,"Si":8482,"ĠinvitÄĥ":8483,"Ġutilizator":8484,"sch":8485,"Ġgl":8486,"Ġdefec":8487,"ĠÃ®ndrÄĥgo":8488,"ĠArma":8489,"Ġroa":8490,"znic":8491,"ĠsupÄĥ":8492,"Ġmur":8493,"Ġpachet":8494,"Ġapreciat":8495,"Ġplece":8496,"rÄĥrile":8497,"Ġinstrument":8498,"ĠdesÄĥvÃ¢r":8499,"Ġconcert":8500,"zvan":8501,"Ġreviz":8502,"ĠÅŁtii":8503,"zece":8504,"ĠMax":8505,"Ġpod":8506,"ĠÈĻtim":8507,"ĠAndreea":8508,"Ġpoezie":8509,"Ġrevista":8510,"ocamdatÄĥ":8511,"ĠeducaÅ£ie":8512,"neÅŁti":8513,"Ġamericane":8514,"Ġremarca":8515,"dite":8516,"ĠdirectÄĥ":8517,"Ġmandat":8518,"Ġos":8519,"surile":8520,"rosoft":8521,"Ġteste":8522,"enitenci":8523,"ĠState":8524,"ĠprevÄĥzut":8525,"Ġconcursul":8526,"Ġconfort":8527,"matice":8528,"ĠBMW":8529,"ĠDrÄĥ":8530,"Ġvalor":8531,"Ġ08":8532,"Ġml":8533,"Ġaccele":8534,"78":8535,"Ġscopuri":8536,"ĠconfruntÄĥ":8537,"ÅŁirea":8538,"Ġalegere":8539,"ĠpÄĥmÃ¢ntul":8540,"Ġutilizatorilor":8541,"ĠbucÄĥtÄĥrie":8542,"sfin":8543,"Ġport":8544,"ditÄĥ":8545,"Ġordonan":8546,"Ġurb":8547,"Ġturistice":8548,"ĠHalep":8549,"ĠcumpÄĥra":8550,"ĠAndroid":8551,"ĠXxx":8552,"rurile":8553,"jeze":8554,"Ġpraf":8555,"ĠaflÄĥm":8556,"sor":8557,"Ġcurat":8558,"ÈĽiu":8559,"Fi":8560,"ĠcÄĥlÄĥtori":8561,"Ġfeminin":8562,"Ġmona":8563,"uat":8564,"ĠLiturgh":8565,"Ġcreate":8566,"Ġgravi":8567,"ĠadÄĥuga":8568,"Ġparticipe":8569,"ĠpopulaÅ£iei":8570,"ĠouÄĥ":8571,"ĠEnerg":8572,"ĠCrea":8573,"ĠoraÈĻe":8574,"Ġutila":8575,"Ġmass":8576,"Ġstatutul":8577,"ĠPropune":8578,"Ġfire":8579,"ĠInspectoratului":8580,"ĠdeÅ£ine":8581,"Ġfostului":8582,"ĠÃ®ntÃ¢rzie":8583,"ĠÅŁtim":8584,"ĠclÄĥdiri":8585,"Ġdenumirea":8586,"ĠeficientÄĥ":8587,"jude":8588,"Ġprega":8589,"ĠducÄĥ":8590,"Ġconexi":8591,"Ġprimei":8592,"lung":8593,"Ġincluse":8594,"ĠMuz":8595,"isti":8596,"Ġabsor":8597,"Ġfilosof":8598,"oul":8599,"Ġposes":8600,"cilÄĥ":8601,"ĠDÄĥn":8602,"ĠIndu":8603,"ĠVar":8604,"ĠInstitutului":8605,"ĠdreaptÄĥ":8606,"ĠBre":8607,"ĠadevÄĥr":8608,"ĠHuned":8609,"ĠsunteÅ£i":8610,"Ġdeta":8611,"Ġdifuz":8612,"ĠprivatÄĥ":8613,"Ġorganismului":8614,"cipro":8615,"ĠsÄĥrÄĥ":8616,"ĠExterne":8617,"Ġcredem":8618,"Ġiub":8619,"Ġuniversitar":8620,"mm":8621,"Ġapele":8622,"Ġsecret":8623,"Ġdatori":8624,"bac":8625,"Ġacelor":8626,"ĠEd":8627,"ĠSexy":8628,"Ġcurtea":8629,"Ġconfirmat":8630,"wit":8631,".(":8632,"Pa":8633,"Ġcampi":8634,"ĠspiritualÄĥ":8635,"ĠpÄĥtrun":8636,"Ġchim":8637,"shi":8638,"ĠcorespunzÄĥtoare":8639,"ĠCiteÈĻte":8640,"ĠPÄĥsÄĥricÄĥ":8641,"Ġexplor":8642,"Ġkilogra":8643,"ĠlipsÄĥ":8644,"inti":8645,"spon":8646,"Ġrecord":8647,"licate":8648,"ĠPremiul":8649,"Ġsinguri":8650,"Ġdispozitiv":8651,"Ġparcur":8652,"ĠdimineaÈĽa":8653,"tenia":8654,"aure":8655,"Ġ;":8656,"ĠLigii":8657,"ĠAF":8658,"Ġtrimi":8659,"ĠAcolo":8660,"Ġtrupe":8661,"ĠsoluÈĽie":8662,"Ġvictorie":8663,"ĠAP":8664,"ĠiPhone":8665,"ĠPartidului":8666,"ĠAlt":8667,"Ġdublu":8668,"ĠsuprafaÅ£Äĥ":8669,"ĠBiblioteca":8670,"ĠWeb":8671,"Ġsecole":8672,"stem":8673,"Ġverifica":8674,"Ġconflict":8675,"Ġsme":8676,"ĠDupa":8677,"65":8678,"??":8679,"ÑĮ":8680,"Ġinov":8681,"SA":8682,"Ġtehnologia":8683,"ĠFot":8684,"iari":8685,"Ġspuse":8686,"sionat":8687,"Ġingrediente":8688,"CL":8689,"Ġimpresia":8690,"Ġcitat":8691,"ĠCopiii":8692,"Ġcapitala":8693,"ĠaparÄĥ":8694,"IR":8695,"Ġelectro":8696,"ĠCamerei":8697,"Ġsemnul":8698,"onalÄĥ":8699,"Ġabsolven":8700,"ĠMaicii":8701,"Ġfirmei":8702,"ĠMad":8703,"Ġpresiune":8704,"Ġlimbi":8705,"liu":8706,"Ġrot":8707,"ĠjudeÅ£ului":8708,"prie":8709,"Ġefectul":8710,"ĠcaldÄĥ":8711,"Ġuite":8712,"ĠexistenÅ£a":8713,"bere":8714,"Ġtron":8715,"vene":8716,"ril":8717,"Ġcasti":8718,"ĠgermanÄĥ":8719,"ĠSistemul":8720,"Ġ(âĢŀ":8721,"ĠgurÄĥ":8722,"Ġpriva":8723,"Ġcape":8724,"ĠAustria":8725,"ĠatenÅ£ie":8726,"orup":8727,"ĠsuperioarÄĥ":8728,"Ġmodificare":8729,"Ġrestric":8730,"ĠsuprafaÈĽÄĥ":8731,"Ġorizon":8732,"Ġantreprenori":8733,"ĠApple":8734,"ĠFestivalului":8735,"ĠVideoclipuri":8736,"ĠGrupul":8737,"...)":8738,"ĠjudeÈĽ":8739,"Ġsonda":8740,"Ġdeplin":8741,"ocrat":8742,"ĠTotuÈĻi":8743,"sire":8744,"Ġviu":8745,"denÈĽÄĥ":8746,"Ġschimbe":8747,"Ġacordate":8748,"Ġ47":8749,"Ġfaca":8750,"ĠTop":8751,"ĠfinanÈĽare":8752,"Ġpreala":8753,"ĠFierbinte":8754,"Ġeco":8755,"Ġdecenii":8756,"Ġsalva":8757,"ÅŁat":8758,"Ġvizibil":8759,"ĠcondusÄĥ":8760,"ĠÃ®nalte":8761,"Ġgasi":8762,"ĠMunicip":8763,"Ġpresta":8764,"Ġbor":8765,"ĠCristina":8766,"Ġlunar":8767,"ficÄĥrii":8768,"Ġcunoscu":8769,"ºi":8770,"ĠsimÈĽ":8771,"chetului":8772,"Ġputerii":8773,"ĠCla":8774,"Ġsubliniat":8775,"ĠDouÄĥ":8776,"ĠÈĻo":8777,"Ġmedici":8778,"ĠpÄĥrinÅ£i":8779,"Ġcomparativ":8780,"inÈĽei":8781,"Ġnaturii":8782,"Ġrecunosc":8783,"Ġmergem":8784,"ĠRomaniei":8785,"Ġdomiciliu":8786,"Ġpiesa":8787,"ĠpÄĥrinÈĽi":8788,"Ð´":8789,"Ġsublin":8790,"ĠVÃ¢lcea":8791,"Ġfum":8792,"cali":8793,"Ġafacere":8794,"Ġinimii":8795,"ĠCA":8796,"ĠdeterminÄĥ":8797,"ricol":8798,"ĠÃ®nregistrare":8799,"Ġevaluarea":8800,"ĠAsa":8801,"ĠYou":8802,"Ġsepa":8803,"ĠurmÄĥrit":8804,"ĠconsideratÄĥ":8805,"Ġ44":8806,"Ġintroducerea":8807,"Ġati":8808,"Ġtranzi":8809,"Ġucen":8810,"ness":8811,"Ġpersonalul":8812,"ĠApel":8813,"Ġbunurilor":8814,"Ġcolon":8815,"ĠpÄĥrinte":8816,"md":8817,"88":8818,"EG":8819,"loare":8820,"ĠsoluÅ£ii":8821,"Ġflexi":8822,"Ġacadem":8823,"Ġinclus":8824,"Ġproc":8825,"ĠVechi":8826,"ĠÃİmpÄĥ":8827,"ĠFoarte":8828,"Ġbutonul":8829,"ĠdistanÈĽÄĥ":8830,"Ġatmosfera":8831,"imile":8832,"DM":8833,"ĠpÄĥdure":8834,"Ġcana":8835,"ĠprecizeazÄĥ":8836,"ĠgreÈĻe":8837,"Ġvaccin":8838,"ÈĽionare":8839,"Ġcompro":8840,"ĠuitÄĥm":8841,"ĠÃ®ntÄĥ":8842,"ĠdesfÄĥÅŁurat":8843,"Ġasigurat":8844,"anÅ£Äĥ":8845,"ĠÈĽe":8846,"ĠdezamÄĥ":8847,"Ġliteratura":8848,"Ġadmira":8849,"Ġexiste":8850,"ĠÈĻapte":8851,"osea":8852,"ano":8853,"ĠVii":8854,"ĠKe":8855,"ith":8856,"ack":8857,"Ġalegerilor":8858,"Ġdureri":8859,"ĠplÄĥteascÄĥ":8860,"ĠCity":8861,"gue":8862,"Ġproprietatea":8863,"ĠPlat":8864,"rovi":8865,"Ġdetermina":8866,"intea":8867,"ĠHunedoara":8868,"hai":8869,"Ġscaun":8870,"Ġviteza":8871,"Ġpreferin":8872,"ĠproducÅ£ie":8873,"ley":8874,"Ġsuperioare":8875,"ĠdeÈĽin":8876,"Ġslab":8877,"ĠfÄĥcu":8878,"gente":8879,"ĠiarÄĥ":8880,"ĠAgricul":8881,"Ġvea":8882,"Ġoriunde":8883,"ĠÐ¿":8884,"Ġyou":8885,"Ġcantitate":8886,"ĠArtÄĥ":8887,"ĠrÃ¢nduri":8888,"Ġimplicate":8889,"ovici":8890,"ĠrÄĥma":8891,"Ġunitatea":8892,"Ġtelefoane":8893,"Ġtemp":8894,"uÈĽi":8895,"ĠprimeascÄĥ":8896,"Ġposturi":8897,"Ġcuri":8898,"Ġimperi":8899,"Ġdestinat":8900,"ĠreÈĽe":8901,"Ġsexy":8902,"ĠSamsung":8903,"Ġeuropeni":8904,"otera":8905,"Ġies":8906,"Ġpisc":8907,"sÄĥrii":8908,"ĠclipÄĥ":8909,"Ġcurio":8910,"ĠfrancezÄĥ":8911,"eamÄĥ":8912,"Ġfilmului":8913,"ĠbrÃ¢n":8914,"ĠGal":8915,"Ġsupre":8916,"Ġmedicii":8917,"ĠNoua":8918,"Ġghe":8919,"fra":8920,"ĠĠĠĠ":8921,"ami":8922,"ĠSocietatea":8923,"Ġcheltuielile":8924,"Ġdina":8925,"ĠHer":8926,"lome":8927,"ĠplÃ¢nge":8928,"taÅ£ie":8929,"Ġup":8930,"ĠComer":8931,"Ġremarcat":8932,"ĠMÄĥr":8933,"ĠCip":8934,"Ã¢mbovi":8935,"Ġvariante":8936,"ĠluatÄĥ":8937,"Ġautoritatea":8938,"Ġpopular":8939,"ĠTotuÅŁi":8940,"ĠVir":8941,"Ġclo":8942,"ĠRevolu":8943,"ĠpermanentÄĥ":8944,"Ġinteresele":8945,"roi":8946,"PDATE":8947,"Ġpomeni":8948,"view":8949,"59":8950,"Ã¢ntÄĥ":8951,"mentare":8952,"ĠÅŁo":8953,"Ġjocurile":8954,"Ġauz":8955,"Ġstart":8956,"ĠAcord":8957,"ĠDeclara":8958,"ĠpÄĥrerea":8959,"ĠÃ®nvins":8960,"drea":8961,"Ġlegile":8962,"Ġputeau":8963,"Ġtehnologii":8964,"ĠcorespunzÄĥtor":8965,"verse":8966,"Ġascuns":8967,"Ġrezerva":8968,"Ġcariera":8969,"Ġfrate":8970,"chie":8971,"Ġdovede":8972,"ĠcostÄĥ":8973,"Ġchemat":8974,"ãĢ":8975,"ĠjucÄĥtor":8976,"Ġperioade":8977,"Ġindica":8978,"Ġucra":8979,"ĠBuzÄĥu":8980,"Ġelementele":8981,"Ġputeti":8982,"Ġscrisoare":8983,"Ġ//":8984,"',":8985,"stica":8986,"Ġoarecare":8987,"Ġministe":8988,"ĠgratuitÄĥ":8989,"Ġfactori":8990,"ĠamÃ¢n":8991,"Ġtrico":8992,"pon":8993,"Ġpreot":8994,"Ġcasele":8995,"Ġclient":8996,"67":8997,"Ġproblemelor":8998,"Ġocciden":8999,"Ġintamp":9000,"Ġfanta":9001,"ĠvacanÈĽÄĥ":9002,"ĠÃ®mbÄĥ":9003,"Ġpractice":9004,"anÈĽÄĥ":9005,"Ġlase":9006,"Ġdiscre":9007,"Ġofera":9008,"ĠgÄĥsim":9009,"Ġcandid":9010,"ĠbazeazÄĥ":9011,"ĠformatÄĥ":9012,"Ġmetod":9013,"NT":9014,"ĠÃ®ncheierea":9015,"ĠreprezentanÈĽii":9016,"fele":9017,"ĠTranspor":9018,"Ã¢ÈĽe":9019,"Ġcalificat":9020,"ĠstrÃ¢ns":9021,"ĠÈĻter":9022,"Ġmanifesta":9023,"Ġsoi":9024,"Ġsupraveghere":9025,"Ġturism":9026,"ĠÃ®ngriji":9027,"ĠcÄĥutÄĥ":9028,"ĠBusiness":9029,"gerul":9030,"Ġrecipro":9031,"Ġnota":9032,"Ġinclud":9033,"Ġpublicitate":9034,"Ġaplicate":9035,"ĠDunÄĥrii":9036,"ĠOrdinul":9037,"ĠDol":9038,"Ġrezolu":9039,"omÄĥ":9040,"ĠDatoritÄĥ":9041,"ĠpregÄĥtirea":9042,"Ġsalaria":9043,"ĠCiteste":9044,"Ġcreativi":9045,"Ġactul":9046,"ĠrelateazÄĥ":9047,"âĶĢâĶĢâĶĢâĶĢâĶĢâĶĢâĶĢâĶĢ":9048,"Ġ49":9049,"Ġechivalen":9050,"ĠDoc":9051,"Ġdemonstrat":9052,"ĠAntena":9053,"Ġparcurs":9054,"ĠPiat":9055,"Ġcosme":9056,"colul":9057,"Ġsenz":9058,"ĠpoziÈĽia":9059,"Ġfere":9060,"Ġpasiune":9061,"ĠefectueazÄĥ":9062,"ĠScopul":9063,"Ġ42":9064,"ĠapariÈĽia":9065,"Ġparc":9066,"ĠPutin":9067,"ĠpoziÅ£ia":9068,"tizare":9069,"Ġmuscul":9070,"Ġgay":9071,"Ġbilete":9072,"Ġmix":9073,"Ġpractica":9074,"Ġcuplu":9075,"ĠCeau":9076,"ĠSfintei":9077,"ĠClin":9078,"Ġrespecta":9079,"fla":9080,"enia":9081,"Ġabon":9082,"Ġfrecvent":9083,"ĠnaÅŁtere":9084,";&":9085,"urt":9086,"ctului":9087,"ĠAfacerilor":9088,"Ġaruncat":9089,"ĠFOTO":9090,"Ġlipsit":9091,"Ġclasic":9092,"seÅŁti":9093,"Ġrein":9094,"ĠCÄĥr":9095,"Ġsecrete":9096,"ĠediÈĽia":9097,"ĠST":9098,"ĠproducÈĽie":9099,"ĠAmat":9100,"Ġcerea":9101,"ĠLesbi":9102,"Ġeficiente":9103,"Ġarme":9104,"ĠpiesÄĥ":9105,"äº":9106,"Ġsche":9107,"ĠcredinÅ£a":9108,"nera":9109,"stel":9110,"ĠactivitÄĥÈĽii":9111,"Ġbolnav":9112,"oder":9113,"Ġutilizatorii":9114,"Ġnoii":9115,"Ġelectorale":9116,"ĠImagini":9117,"Ġarata":9118,"ĠGlo":9119,"ĠdesfÄĥÈĻurat":9120,"Ġdeterminat":9121,"Ġsuspec":9122,"ĠSper":9123,"Ġrestaurant":9124,"ĠMen":9125,"ĠAero":9126,"ĠcreascÄĥ":9127,"Ġreclaman":9128,"ĠpÃ¢ine":9129,"inate":9130,"Ġdeputat":9131,"fie":9132,"toni":9133,"Ġbeneficii":9134,"DupÄĥ":9135,"ĠculturalÄĥ":9136,"ĠinternÄĥ":9137,"Ġpremiul":9138,"ĠapariÅ£ia":9139,"ĠUniversitÄĥÈĽii":9140,"ĠReprezentan":9141,"Ġpresti":9142,"ĠDacia":9143,"Ġmiros":9144,"Ġ600":9145,"Ġproteja":9146,"zesc":9147,"Ġrepor":9148,"sche":9149,"derilor":9150,"saÈĽi":9151,"ÅŁesc":9152,"Ġcuprins":9153,"ĠreprezentÃ¢nd":9154,"ĠONG":9155,"opere":9156,"ĠgravÄĥ":9157,"ĠCat":9158,"ĠpoliÈĽiÈĻtii":9159,"ĠÃ®ncet":9160,"Ġadunat":9161,"Ġpiata":9162,"Ġpoarta":9163,"Ġridica":9164,"Ġvictime":9165,"ĠPartidul":9166,"Ġsh":9167,"och":9168,"ĠaparÅ£in":9169,"jute":9170,"Ġreglement":9171,"Ġeconomia":9172,"cios":9173,"tana":9174,"minte":9175,"ĠuÈĻoarÄĥ":9176,"ĠgÃ¢t":9177,"Ġacorda":9178,"Ã®l":9179,"ĠmenÈĽionat":9180,"ĠPot":9181,"Ġslujba":9182,"Ġultra":9183,"Ġvremuri":9184,"ĠCli":9185,"Ġrand":9186,"Ġjurnal":9187,"stronom":9188,"Ġcontraven":9189,"get":9190,"Ġlungime":9191,"Ġpensii":9192,"Ġnegativ":9193,"Ġsolicita":9194,"ĠIr":9195,"ĠAdul":9196,"ĠmoÅŁte":9197,"Ġomeni":9198,"Ġregimului":9199,"giului":9200,"ĠpauzÄĥ":9201,"Ġmemoria":9202,"neori":9203,"ĠbÄĥrbaÅ£i":9204,"loa":9205,"mult":9206,"day":9207,"ĠmÃ¢ini":9208,"veze":9209,"Vi":9210,"ÑģÑĤ":9211,"!âĢĿ,":9212,"Ġconduc":9213,"2004":9214,"Ġscump":9215,"Ġtemeiul":9216,"Ġdl":9217,"iss":9218,"ĠCON":9219,"ĠDen":9220,"ĠParcul":9221,"ĠConsul":9222,"ĠdimineaÅ£a":9223,"ead":9224,"ĠpuÈĽine":9225,"Ġchimi":9226,"Ġcompaniilor":9227,"ĠdispÄĥrut":9228,"Ġplo":9229,"Ġprofesorul":9230,"ĠÃ®nfrÃ¢n":9231,"ĠLiceul":9232,"ĠDonald":9233,"Ġdan":9234,"Äĥrile":9235,"vas":9236,"fax":9237,"Ġumple":9238,"ĠautoritÄĥÅ£ilor":9239,"Ġtrecere":9240,"Ġefectiv":9241,"Ġserviciului":9242,"versul":9243,"Ġmodali":9244,"Ġpozitive":9245,"Ġdeosebite":9246,"ĠtreabÄĥ":9247,"Ġmetro":9248,"gaj":9249,"Ġmilitari":9250,"Ġjocului":9251,"Ġcuan":9252,"NR":9253,"ĠOrtodoxe":9254,"2009":9255,"ĠArhiepiscop":9256,"peu":9257,"ĠCulturii":9258,"govi":9259,"Ġrevol":9260,"sese":9261,"Ġevacu":9262,"Ġbere":9263,"Ġdinspre":9264,"Ġmergi":9265,"ovat":9266,"ilie":9267,"ticii":9268,"judici":9269,"ĠÃ®ntregul":9270,"rican":9271,"ĠpopularÄĥ":9272,"ĠInternational":9273,"gubi":9274,"Ġagi":9275,"Ġpesc":9276,"Ġobiectivele":9277,"Ġream":9278,"ĠConta":9279,"Ġforum":9280,"cus":9281,"ĠaceÈĻti":9282,"ĠÎ":9283,"umim":9284,"nerul":9285,"Ġeconomici":9286,"Ġdona":9287,"pers":9288,"zar":9289,"rant":9290,"ĠBbw":9291,"ĠUnirii":9292,"Ġoperare":9293,"ĠmenÅ£ionat":9294,"ĠÃİncepÃ¢nd":9295,"Ġtrezit":9296,"ĠsoÅ£ia":9297,"ĠGÄĥseÈĻte":9298,"ĠrelaÈĽia":9299,"Ġverzi":9300,"42":9301,"dura":9302,"ĠvÃ¢nzÄĥ":9303,"Ġhard":9304,"68":9305,"arca":9306,"xie":9307,"ĠneplÄĥ":9308,"Ġdivi":9309,"ĠÃ®ndemn":9310,"Ġpierderea":9311,"Ġintervi":9312,"ĠÃ®ncrederea":9313,"ĠIstorie":9314,"æĹ":9315,"ĠstrÄĥzile":9316,"ĠangajaÅ£i":9317,"ĠAdo":9318,"ĠcriticÄĥ":9319,"Ġsluji":9320,"Ġfinala":9321,"Ġcazurile":9322,"ĠrespectÄĥ":9323,"ĠInternaÈĽional":9324,"ĠpÄĥca":9325,"ĠElve":9326,"Ġasigurare":9327,"ĠcercetÄĥri":9328,"ĠformeazÄĥ":9329,"ĠNumÄĥrul":9330,"Ġsatului":9331,"ĠprotecÈĽia":9332,"],":9333,"ling":9334,"ĠdobÃ¢ndi":9335,"ĠnaÈĻtere":9336,"ĠdistanÅ£Äĥ":9337,"ĠDecembrie":9338,"ï¼":9339,"ĠuitÄĥ":9340,"chizi":9341,"ĠHor":9342,"ĠAutor":9343,"redi":9344,"stÄĥri":9345,"Ġobligatoriu":9346,"Ġpersonaj":9347,"Ġclubului":9348,"Ġyo":9349,"Ġpromis":9350,"Ġrecol":9351,"ĠdorinÈĽa":9352,"ĠÃ®nmatricul":9353,"Ġintrodus":9354,"ĠBote":9355,"ĠCJ":9356,"Ġplay":9357,"ĠpuÅ£ine":9358,"Ġutilizatori":9359,"Ġcosturile":9360,"Ġmore":9361,"Ġlucreze":9362,"Ġprimarului":9363,"Ġmicu":9364,"ĠmodÄĥ":9365,"ĠMarin":9366,"Ġdepuse":9367,"rent":9368,"ĠcÄĥldurÄĥ":9369,"Ġvalabil":9370,"strie":9371,"Ġplicti":9372,"Ġsurprins":9373,"ĠÃ®ntin":9374,"ĠChar":9375,"ĠÅ£Äĥrile":9376,"rezi":9377,"Ġactele":9378,"Ġonoare":9379,"Ġhan":9380,"ĠMel":9381,"Ġsalariul":9382,"ĠpÄĥrut":9383,"ĠvorbeÈĻte":9384,"ĠÃ®mbunÄĥtÄĥ":9385,"ĠHotÄĥrÃ¢rea":9386,"ĠNegre":9387,"Ġcelorlal":9388,"Ġredac":9389,"ceapÄĥ":9390,"Ġrecru":9391,"Ġrep":9392,"Ġceremon":9393,"ĠfuncÅ£ioneazÄĥ":9394,"Ġscandal":9395,"Ġparfum":9396,"orica":9397,"Ġamuz":9398,"ĠCarmen":9399,"Ġalbum":9400,"ĠteamÄĥ":9401,"âģ":9402,"ĠStiri":9403,"ĠInde":9404,"ĠGabriela":9405,"ĠSRI":9406,"Ġneput":9407,"ĠInternaÅ£ional":9408,"Ġmanual":9409,"ĠplajÄĥ":9410,"ĠbÄĥtut":9411,"ĠcetÄĥÅ£enilor":9412,"ÈĽu":9413,"jo":9414,"qui":9415,"Ġactri":9416,"Ġdelici":9417,"ĠPC":9418,"dago":9419,"back":9420,"ĠOrtodoxÄĥ":9421,"!)":9422,"Ġsav":9423,"ĠvÃ¢ndut":9424,"oliu":9425,"Ġamericani":9426,"ĠoraÅŁe":9427,"neascÄĥ":9428,"Ġintens":9429,"zo":9430,"Ġabor":9431,"Ġcomplexe":9432,"Ġjuridic":9433,"Ġtaie":9434,"Ġdebi":9435,"hat":9436,"ĠVest":9437,"ĠAmericii":9438,"ĠfiecÄĥrei":9439,"Ġanterioare":9440,"ĠamÄĥn":9441,"ĠmilitarÄĥ":9442,"ĠclienÈĽilor":9443,"ĠPÄĥrintele":9444,"Ġdige":9445,"ĠdorinÅ£a":9446,"Ġferea":9447,"ĠSingure":9448,"ĠBro":9449,"Ġstrict":9450,"Ġbritanic":9451,"ĠaÈĻtep":9452,"Ġdrumurile":9453,"ĠTar":9454,"Ġnegre":9455,"ĠÃ®ntÄĥri":9456,"bei":9457,"Å£el":9458,"ĠrelaÈĽie":9459,"%),":9460,"UB":9461,"Ã®ntul":9462,"Ġasfal":9463,"oroci":9464,"ĠafiÈĻ":9465,"Ġpunerea":9466,"tist":9467,"Ġgeni":9468,"Ġimen":9469,"ĠÈĽinut":9470,"................":9471,"ĠDrept":9472,"ĠPom":9473,"ĠCali":9474,"ĠfinanÅ£are":9475,"ĠprimÄĥvarÄĥ":9476,"Ġderi":9477,"ĠPDL":9478,"ctii":9479,"Ġtemperatura":9480,"Ġstudiile":9481,"ichi":9482,"ĠcÄĥlugÄĥ":9483,"verin":9484,"Ġargint":9485,"ÅŁtia":9486,"ĠSoc":9487,"Ġnecesitatea":9488,"Ġmotivele":9489,"nim":9490,"parea":9491,"Ġ1000":9492,"Ġrezolva":9493,"ĠdezvoltÄĥ":9494,"ĠPiatra":9495,"fat":9496,"Mai":9497,"Ġzero":9498,"ĠImperi":9499,"ĠTÃ¢nÄĥ":9500,"Ġregre":9501,"paci":9502,"Ġsubiecte":9503,"ĠzÃ¢mbe":9504,"Ġreziden":9505,"ĠPur":9506,"Ġlupte":9507,"Ġelectronic":9508,"41":9509,"ĠdeÈĽine":9510,"vezi":9511,"Bu":9512,"ÅŁtea":9513,"Ġprocent":9514,"orel":9515,"Ġ120":9516,"ĠROM":9517,"ĠactivitÄĥÈĽile":9518,"Ġsarcina":9519,"ĠRÄĥspun":9520,"Ġdezin":9521,"Ġ(âĢ¦)":9522,"taÈĽie":9523,"Ġprezinte":9524,"ĠLuca":9525,"ĠsÃ¢r":9526,"Ġpresei":9527,"lope":9528,"Ġiubirii":9529,"ĠIubi":9530,"ĠEX":9531,"indÄĥ":9532,"Ġrecen":9533,"ĠUPDATE":9534,"ESC":9535,"ĠcopilÄĥrie":9536,"ĠTub":9537,"ĠmulÈĽime":9538,"Ġpotrivite":9539,"ĠactivÄĥ":9540,"Ġadi":9541,"ĠCapitalÄĥ":9542,"2007":9543,"ĠsimÈĽit":9544,"ĠVene":9545,"ĠlimitÄĥ":9546,"Ġrecente":9547,"CT":9548,"sie":9549,"Ġconstruirea":9550,"biei":9551,"puri":9552,"Ġreferire":9553,"Ġaerul":9554,"sticile":9555,"ĠsoluÅ£ie":9556,"Ġprefera":9557,"ĠAur":9558,"ĠAnton":9559,"Ġdomeniile":9560,"Ġalo":9561,"ĠexprimÄĥ":9562,"Ġcalculator":9563,"ĠCup":9564,"ĠGalaÅ£i":9565,"ĠvariantÄĥ":9566,"ĠCupa":9567,"ĠVizi":9568,"Ġrecomanda":9569,"ĠaplicaÈĽii":9570,"gÄĥtoare":9571,"Ġlinii":9572,"Ġdiagnosti":9573,"85":9574,"ĠÃ®mpÄĥrÄĥ":9575,"BC":9576,"Ġvarie":9577,"Ġgan":9578,"ĠBÃ¢r":9579,"Ġcampaniei":9580,"Ġvehicule":9581,"ĠAÈĻadar":9582,"ĠNÄĥstase":9583,"neÈĻti":9584,"Ġplanuri":9585,"ĠleagÄĥ":9586,"Ġje":9587,"calaure":9588,"ĠmiÈĻcare":9589,"ĠAde":9590,"clusiv":9591,"Ġmajoritate":9592,"Ġspecialist":9593,"ĠamÃ¢nd":9594,"Ġelectric":9595,"odia":9596,"ĠprevÄĥzutÄĥ":9597,"aniei":9598,"ĠVran":9599,"inÄĥrii":9600,"Ġnegli":9601,"uarea":9602,"Ġcomunist":9603,"ĠDÄĥncilÄĥ":9604,"ĠprotecÅ£ia":9605,"Ġgoluri":9606,"eamna":9607,"ĠMilf":9608,"Ġcen":9609,"Ġzonei":9610,"Ġansamblu":9611,"Ġregulile":9612,"ĠRO":9613,"ĠBÄĥrbaÈĽi":9614,"Ġ%":9615,"ĠfoloseÈĻte":9616,"ĠMureÅŁ":9617,"ĠBisericÄĥ":9618,"ĠRÄĥzvan":9619,"âģł":9620,"ĠÃ®nÈĽeleg":9621,"ociere":9622,"gÄĥri":9623,"Ġvechim":9624,"ĠBihor":9625,"ĠBerlin":9626,"ĠnÄĥscu":9627,"ĠAsisten":9628,"ĠsfÄĥ":9629,"out":9630,"Ġafectate":9631,"Ġefectua":9632,"ĠSP":9633,"ieze":9634,"Ġdezbatere":9635,"ink":9636,"old":9637,"Ġtelevizor":9638,"UT":9639,"veÈĻte":9640,"Ġmaturi":9641,"Ġplatforma":9642,"tions":9643,"ĠscÄĥdere":9644,"ĠFund":9645,"ĠÃ®ndoialÄĥ":9646,"sk":9647,"ĠTeodor":9648,"Ġeconomiei":9649,"trie":9650,"ÈĽiÈĻ":9651,"Ġportof":9652,"ĠdezvÄĥlui":9653,"riceanu":9654,"ĠAnglia":9655,"Ġinu":9656,"Ġimplicit":9657,"cic":9658,"Ġpragul":9659,"ĠlanseazÄĥ":9660,"Ġstom":9661,"Ġpractici":9662,"Ġlocuitorii":9663,"ĠfoloseascÄĥ":9664,"Ġaranj":9665,"Ġajungem":9666,"ĠadreseazÄĥ":9667,"43":9668,"ĠproaspÄĥ":9669,"ĠOare":9670,"Ġplanurile":9671,"Ġomene":9672,"ĠÃ®nÅ£elep":9673,"Ġbas":9674,"Ġfundamentale":9675,"Cum":9676,"ĠTribunalul":9677,"dierea":9678,"Ġconstituit":9679,"IF":9680,"ĠprivinÅ£a":9681,"ĠManage":9682,"ĠOf":9683,"ĠultimÄĥ":9684,"Ġstudia":9685,"ĠsigurÄĥ":9686,"Ġpartenerii":9687,"ĠatÃ®t":9688,"chezi":9689,"ĠOricum":9690,"osif":9691,"ĠInspectoratul":9692,"ĠgospodÄĥ":9693,"Ġoferind":9694,"Ġcapitolul":9695,"Ġinformat":9696,"Ġperio":9697,"Ġmagne":9698,"Ġcontribui":9699,"Ġexpor":9700,"Ġclick":9701,"Ġexcurs":9702,".),":9703,"tuale":9704,"dej":9705,"ĠpreÈĻedintelui":9706,"ĠAcademia":9707,"Ġsentiment":9708,"rans":9709,"Ġpaginile":9710,"Ġversiune":9711,"gurile":9712,"Ġmae":9713,"ĠSele":9714,"ĠvÃ¢nÄĥ":9715,"Ġjoace":9716,"ĠAG":9717,"sco":9718,"Ġdeschidere":9719,"ĠlÄĥu":9720,"Ġcentre":9721,"Ġreparti":9722,"ĠÃ®nsoÅ£i":9723,"ĠpotrivitÄĥ":9724,"ĠBÄĥn":9725,"Ġsuccesul":9726,"Ġcheltu":9727,"ĠBuda":9728,"Ġtaxa":9729,"Ġdeplasare":9730,"Ġvoce":9731,"ony":9732,"Ġmetoda":9733,"inÅ£ele":9734,"Ġapost":9735,"jelor":9736,"Ġascunde":9737,"ĠUneori":9738,"Ġconfe":9739,"Ġclari":9740,"Ġexperti":9741,"Ġsalarii":9742,"Ġcontinuu":9743,"Ġextraordinar":9744,"Ġanivers":9745,"Ġpt":9746,"Ġuscat":9747,"Ġexemple":9748,"ceanu":9749,"âĢ¦.":9750,"ĠindicÄĥ":9751,"Ġnai":9752,"sare":9753,"oric":9754,"ĠShe":9755,"Ġvulnera":9756,"Ġstudent":9757,"ĠinformaÅ£iile":9758,"ĠrelaÈĽii":9759,"Ġprincipiu":9760,"Ġajungi":9761,"Ġexprimat":9762,"Ġamor":9763,"Ġsolda":9764,"2001":9765,"alizeazÄĥ":9766,"list":9767,"Ġsapta":9768,"Ġautobu":9769,"Ġdiscuta":9770,"Ġatare":9771,"Ġgenun":9772,"Ġaparatul":9773,"ĠFilip":9774,"ĠÃ®nregistrÄĥ":9775,"Ġversiunea":9776,"Ġprelua":9777,"Ġdurerea":9778,"star":9779,"ĠIz":9780,"Ġimplicarea":9781,"ĠpÄĥrÄĥsit":9782,"Ġtraduce":9783,"cher":9784,"!âĢĿ.":9785,"69":9786,"ĠStre":9787,"nd":9788,"Ġrugat":9789,"ĠsexualÄĥ":9790,"ĠÃ®ndepline":9791,"aj":9792,"ĠfaceÅ£i":9793,"teni":9794,"ĠViena":9795,"ĠMihaela":9796,"ĠCenten":9797,"Ġhec":9798,"Ġorganismul":9799,"Ã¤":9800,"ĠpoliÅ£ie":9801,"ĠÂºi":9802,"Mo":9803,"ĠPlus":9804,"Ġpersonalitate":9805,"oaca":9806,"Ġfiresc":9807,"ĠpÄĥstrat":9808,"ĠdiscuÅ£ie":9809,"ĠMuncii":9810,"Ġmultiple":9811,"Ġglobal":9812,"Ġcheltui":9813,"Ġminune":9814,"ĠcÄĥlÄĥtorii":9815,"ÈĻie":9816,"Ġ1918":9817,"Ġfura":9818,"PR":9819,"tante":9820,"ĠpasÄĥ":9821,"Ġcredite":9822,"ĠobservÄĥ":9823,"ĠprezenÅ£i":9824,"icile":9825,"ĠWorld":9826,"Ġapucat":9827,"Ġresurselor":9828,"ĠprezenÈĽi":9829,"ĠÃ®nvÄĥÈĽa":9830,"alo":9831,"Ġtermeni":9832,"ĠPS":9833,"ĠÃ®mplinit":9834,"ĠaceleaÅŁi":9835,"Ġben":9836,"neÅŁte":9837,"bala":9838,"ĠclÄĥdire":9839,"ĠBri":9840,"Ġdesprin":9841,".).":9842,"ĠDintre":9843,"Ġsculp":9844,"Ġfre":9845,"ĠclienÈĽii":9846,"ĠSÄĥnÄĥtate":9847,"ĠOrdonanÅ£ei":9848,"Ġdejun":9849,"ĠÃ®ncerc":9850,"ĠEgi":9851,"zaÈĽi":9852,"MÄĥ":9853,"Ġcaut":9854,"ografie":9855,"ĠinternaÈĽionalÄĥ":9856,"Ġderanj":9857,"ĠSigur":9858,"Ġidentificat":9859,"ĠFoc":9860,"ologi":9861,"Ġlate":9862,"Ġrelaxare":9863,"ĠMureÈĻ":9864,"besc":9865,"Ġcone":9866,"ÄĥrbÄĥ":9867,"ĠsÄĥnÄĥtoasÄĥ":9868,"Ġdemisia":9869,"Ġscurte":9870,"Ġprinde":9871,"ĠediÅ£ia":9872,"64":9873,"ĠMesaje":9874,"Ġtenta":9875,"lav":9876,"Ġdomni":9877,"Ġmodalitate":9878,"ĠDirecÅ£iei":9879,"Ġpromova":9880,"Ġspectacolul":9881,"Ġwith":9882,"ĠtoÈĽii":9883,"credin":9884,"Bi":9885,"ĠacoperÄĥ":9886,"ĠAtÃ¢t":9887,"ĠNoa":9888,"Ġelimina":9889,"Ġfurnizarea":9890,"ĠcÄĥuta":9891,"Ġabordare":9892,"Ġgratis":9893,"unele":9894,"ĠMicrosoft":9895,"ĠEU":9896,"Ġador":9897,"ĠistoricÄĥ":9898,"ĠCalea":9899,"Ġsfat":9900,"caz":9901,"Ġviol":9902,"ĠSy":9903,"Ġsolicitarea":9904,"Ġpompie":9905,"busti":9906,"Ġafle":9907,"ĠPoliÅ£iei":9908,"ĠoricÄĥrei":9909,"Ġconsisten":9910,"Ġlibere":9911,"Ġpricina":9912,"Ġfetele":9913,"ĠsimÅ£it":9914,"ĠBlu":9915,"ĠsÄĥptÄĥmÃ¢nii":9916,"Å£ionatÄĥ":9917,"ĠÅŁedinÅ£a":9918,"ĠTor":9919,"bio":9920,"ĠamericanÄĥ":9921,"ĠLibe":9922,"Ġartist":9923,"ĠEv":9924,"veÅŁte":9925,"RomÃ¢nia":9926,"ĠSar":9927,"Ġesc":9928,"trii":9929,"Ġdon":9930,"ĠperspectivÄĥ":9931,"Ġmisiunea":9932,"Ġstai":9933,"derul":9934,"Ġtox":9935,"Ġtole":9936,"fit":9937,"Ġcada":9938,"Ġsincer":9939,"TER":9940,"ĠÈĺcoala":9941,"ĠÃ®mprumu":9942,"Ġliderii":9943,"Ġconsiderate":9944,"ÈĻcÄĥ":9945,"ĠgÃ¢ndurile":9946,"ÄĤR":9947,"ĠDirector":9948,"uzie":9949,"vocat":9950,"Ġcantitatea":9951,"ĠDeputaÅ£ilor":9952,"ERI":9953,"fectul":9954,"Ġfalse":9955,"leascÄĥ":9956,"Ġeliberarea":9957,"Ġnedrep":9958,"TV":9959,"Ġgustul":9960,"Ġparalel":9961,"ĠexcepÅ£ia":9962,"Ġnumarul":9963,"Ġacelasi":9964,"Ġpostat":9965,"ĠFeci":9966,"av":9967,"Prin":9968,"Ġcoe":9969,"Ġbenz":9970,"Ġji":9971,"ĠXIX":9972,"Ġspiritual":9973,"gy":9974,"ĠRA":9975,"cescu":9976,"Ġcombaterea":9977,"ĠJandar":9978,"Ġvalorilor":9979,"ĠPuteÈĽi":9980,"Ġmica":9981,"ĠCÄĥlin":9982,"xy":9983,"shop":9984,"lr":9985,"Ġpremier":9986,"Ġlimitele":9987,"Ġinainte":9988,"ĠzÄĥpadÄĥ":9989,"ĠHome":9990,"Ġvest":9991,"Ġpropagan":9992,"ĠaflaÈĽi":9993,"Ġcupl":9994,"ĠclarÄĥ":9995,"ĠFondul":9996,"imiti":9997,"Ġfunction":9998,"CD":9999,"opol":10000,"ĠoricÄĥrui":10001,"ĠdÃ¢n":10002,"Ġlivrare":10003,"ĠÅ£e":10004,"ĠDÃ¢mbovi":10005,"Ġceas":10006,"ĠliniÅŁti":10007,"Ġfesti":10008,"ĠMc":10009,"Ġdispera":10010,"Ġmotoc":10011,"ĠconstruitÄĥ":10012,"ward":10013,"statÄĥ":10014,"tionala":10015,"ĠintereseazÄĥ":10016,"Ġdemult":10017,"ĠIoana":10018,"Ġpuri":10019,"Ġmutat":10020,"ĠinstituÅ£iile":10021,"Ġcuce":10022,"ĠBiroul":10023,"ĠvorbeascÄĥ":10024,"Ġment":10025,"ĠLun":10026,"ĠbogatÄĥ":10027,"Ġ(...)":10028,"ĠrezultÄĥ":10029,"ĠAcces":10030,"ĠJaponia":10031,"Ġchipul":10032,"Ġcle":10033,"ĠascultÄĥ":10034,"Ġfals":10035,"REA":10036,"ĠPloieÅŁti":10037,"terul":10038,"odon":10039,"Ġminutul":10040,"ĠfuncÅ£ii":10041,"ĠbÄĥi":10042,"ĠSpitalului":10043,"Ġgel":10044,"Ġgeam":10045,"toriale":10046,"Ġtrata":10047,"ĠIosif":10048,"vern":10049,"ielilor":10050,"oarei":10051,"ĠsituatÄĥ":10052,"ras":10053,"Ġavoca":10054,"Ġ85":10055,"ĠaceleaÈĻi":10056,"Ġbancar":10057,"ĠApostol":10058,"Ġploaie":10059,"ĠNumele":10060,"ĠrÄĥbdare":10061,"ĠrÄĥm":10062,"Ġ41":10063,"Ġcolectiv":10064,"oader":10065,"neÈĻte":10066,"Ġintru":10067,"imÄĥ":10068,"ologul":10069,"Ġcodul":10070,"Ġidentificarea":10071,"ĠUlterior":10072,"cinta":10073,"Ġoxi":10074,"ĠÃ®ntÃ¢lnirea":10075,"ington":10076,"ĠZilei":10077,"urare":10078,"ĠChat":10079,"luc":10080,"ĠÅŀcoala":10081,"ĠExpozi":10082,"ĠdiscuÈĽie":10083,"Ġignor":10084,"ĠfrontierÄĥ":10085,"ĠJuri":10086,"ciuc":10087,"nica":10088,"ĠplÄĥcutÄĥ":10089,".:":10090,"ĠstÃ¢r":10091,"ĠduÅŁ":10092,"zÄĥr":10093,"stÃ¢nd":10094,"Ġstres":10095,"Ġresursele":10096,"Ġconver":10097,"Ġfolc":10098,"Ġdescri":10099,"ĠÃ®nÄĥlÅ£":10100,"Ġungh":10101,"ĠAlina":10102,"ĠMajoritatea":10103,"Ġbijute":10104,"sub":10105,"Ġalegi":10106,"ĠMus":10107,"Ġingine":10108,"Ġalbe":10109,"Ġaparat":10110,"Ġanticip":10111,"Ġjuni":10112,"ĠscÄĥpat":10113,"fiind":10114,"Ġdevenind":10115,"Ġavan":10116,"Ġpatrul":10117,"Ġfan":10118,"ĠnormalÄĥ":10119,"ĠCautÄĥ":10120,"ĠCap":10121,"Ġintal":10122,"Ġcomportamentul":10123,"ĠNr":10124,"ĠLat":10125,"Ġucis":10126,"Ġresponsabilitatea":10127,"Ġcrescu":10128,"Ġduhovnice":10129,"2003":10130,"ult":10131,"ĠadevÄĥrate":10132,"Ġmanev":10133,"Ġsana":10134,"Ġtimi":10135,"ĠÈĽÄĥrile":10136,"ĠPost":10137,"ĠMulte":10138,"ĠpildÄĥ":10139,"ĠMoi":10140,"Ġdatoria":10141,"burg":10142,"ĠÃ®nsÄĥr":10143,"Ġsector":10144,"ĠStrate":10145,"Ġinterioare":10146,"ĠnenumÄĥ":10147,"Fe":10148,"Ġpicior":10149,"Ġmisiune":10150,"Ġcetate":10151,"ĠBÄĥl":10152,"noi":10153,"Ġtraseul":10154,"Ġlibera":10155,"inatÄĥ":10156,"ĠØ":10157,"ĠrelaÅ£ii":10158,"ĠAplicaÈĽii":10159,"Ġprelucrarea":10160,"poli":10161,"Ġprincipiul":10162,"ĠobÅ£inute":10163,"tativ":10164,"entariile":10165,"Ġrespins":10166,"tome":10167,"Ġinculp":10168,"!\"":10169,"ĠVin":10170,"uiÅ£i":10171,"Ġtitluri":10172,"Ġscriitor":10173,"Ġprogramele":10174,"ĠscÄĥpa":10175,"ĠPrahova":10176,"ĠÅŁcolar":10177,"ĠÃ®ncercare":10178,"ĠelectoralÄĥ":10179,"Ġtotalitate":10180,"Ġreferitor":10181,"ĠsunÄĥ":10182,"tas":10183,"istan":10184,"Ġpensie":10185,"Ġdecon":10186,"95":10187,"ĠofertÄĥ":10188,"ĠbÄĥnci":10189,"ĠUnirea":10190,"ĠBol":10191,"gile":10192,"ĠPoliÅ£i":10193,"Ġmodificat":10194,"Ġblogul":10195,"ĠsfinÅ£i":10196,"Ġcererii":10197,"Ġdumneavoastra":10198,"ĠSÃ¢n":10199,"ĠÈĽÃ¢ÈĽe":10200,"ĠBrÄĥila":10201,"gene":10202,"ĠcearÄĥ":10203,"ĠangajaÈĽi":10204,"Ġocuparea":10205,"ĠsurprizÄĥ":10206,"Ġimaginile":10207,"uel":10208,"ĠiniÅ£ial":10209,"ĠforÅ£Äĥ":10210,"Ġdescur":10211,"Ġvoc":10212,"ĠDÄĥ":10213,"Ġdesfiin":10214,"Ġdocumentelor":10215,"Â®":10216,"Ġjudiciar":10217,"Ġdroguri":10218,"ĠiniÅ£i":10219,"ĠProte":10220,"Ġfacultate":10221,"ĠCuvÃ¢ntul":10222,"Ġpropuse":10223,"ĠproducÄĥtor":10224,"Ġintervenit":10225,"ÃĤN":10226,"Ġbel":10227,"Ġstudiul":10228,"Ġeventual":10229,"otul":10230,"ĠliniÈĻti":10231,"gÄĥtor":10232,"ĠProblema":10233,"ĠinterioarÄĥ":10234,"Ġactori":10235,"denÅ£Äĥ":10236,"ĠSupra":10237,"Ġfestivalului":10238,"ĠtoÅ£ii":10239,"ĠDispozi":10240,"æľ":10241,"osti":10242,"Ġfosta":10243,"Ġzbu":10244,"indeni":10245,"ĠiniÈĽial":10246,"ĠrÄĥspÃ¢ndi":10247,"Ġseparat":10248,"Ġgran":10249,"ĠclienÈĽi":10250,"Ġstatelor":10251,"Ġcami":10252,"ama":10253,"isme":10254,"ĠÃ®ntreabÄĥ":10255,"ÈĽionatÄĥ":10256,"ĠAzi":10257,"ĠproaspÄĥt":10258,"Ġtraficul":10259,"Ġneferici":10260,"ĠNeagrÄĥ":10261,"Ġideile":10262,"drÄĥ":10263,"moni":10264,"Ġrin":10265,"Ġmaximum":10266,"Ġaglome":10267,"toriu":10268,"Ġinterzice":10269,"ĠArgeÅŁ":10270,"Ġmis":10271,"ĠliteraturÄĥ":10272,"siunilor":10273,"ĠToader":10274,"Ġbinele":10275,"Ġeliberat":10276,"ĠVineri":10277,"ĠfuncÈĽii":10278,"ĠDomniÈĻoare":10279,"Di":10280,"Ġcadouri":10281,"Ġtraseu":10282,"fund":10283,"ping":10284,"ĠmiÅŁcare":10285,"URI":10286,"ĠSale":10287,"teÅŁti":10288,"Ġpreva":10289,"ĠRai":10290,"Ġpereche":10291,"Ġrezultatelor":10292,"ĠBrÃ¢n":10293,"Ġambul":10294,"ĠÈĻeful":10295,"ĠRoc":10296,"zului":10297,"Ġrevin":10298,"Ġpostului":10299,"Ġunuia":10300,"Ġsalariu":10301,"ĠÄĥla":10302,"toarelor":10303,"Ġdatorii":10304,"DO":10305,"ÅŁine":10306,"Ġperioadei":10307,"ĠrÄĥspundere":10308,"Ġtransmise":10309,"ĠÃ®ndemÃ¢n":10310,"ĠSoare":10311,"titudinea":10312,"2002":10313,"Ġbrusc":10314,"Ġilegal":10315,"gariei":10316,"Ġeforturile":10317,"ĠfÄĥceau":10318,"Ġ06":10319,"Ġigi":10320,"Ġ57":10321,"Ġinteresat":10322,"ĠSha":10323,"Ġipote":10324,"ĠVreau":10325,"talii":10326,"ney":10327,"Ġmiere":10328,"Ġnivelului":10329,"SB":10330,"Ġreligie":10331,"Ġnisip":10332,"ĠMemb":10333,"steazÄĥ":10334,"ĠinternaÅ£ionalÄĥ":10335,"timi":10336,"ick":10337,"ĠÐ²":10338,"Ġmasaj":10339,"Ġprovocat":10340,"IG":10341,"liei":10342,"ULUI":10343,"Ġepo":10344,"Ġconcentra":10345,"ĠcetÄĥÈĽenilor":10346,"ĠTinere":10347,"ĠgrÄĥdinÄĥ":10348,"Ġclare":10349,"Ġprivesc":10350,"CC":10351,"ĠconÅ£inut":10352,"ĠAntonescu":10353,"Ġcorespon":10354,"Ġadresat":10355,"Ġreprezinta":10356,"Ġfolosim":10357,"taie":10358,"Ġpropun":10359,"ĠurÄĥ":10360,"ĠmulÅ£umi":10361,"Ġcontinuarea":10362,"Ġimobile":10363,"ĠpeÅŁte":10364,"2005":10365,"vÄĥrii":10366,"Ġcule":10367,"Ġunice":10368,"Ġidentifica":10369,"Ġfotogra":10370,"Ġsum":10371,"Ġlanga":10372,"ĠVrancea":10373,"ĠCere":10374,"Ġbeton":10375,"Ġnede":10376,"Ġlegislative":10377,"Ġobligatorie":10378,"Ġporunci":10379,"Ġcinsti":10380,"Ġatitudinea":10381,"Ġlitri":10382,"Ġfelici":10383,"Ġtreptat":10384,"Ġ46":10385,"ĠUSR":10386,"colar":10387,"Ġspons":10388,"ĠHu":10389,"Ġputeam":10390,"ĠPsi":10391,"Ġritm":10392,"ĠBotoÅŁani":10393,"Ġobose":10394,"Ġfurat":10395,"Ġtun":10396,"mniza":10397,"ĠdiscutÄĥ":10398,"Ġprezentei":10399,"ĠCiu":10400,"Ġinterval":10401,"ĠUrgenÅ£Äĥ":10402,"Ġcomputer":10403,"Ġdivor":10404,"alitÄĥÈĽii":10405,"Ġexecutiv":10406,"ĠMadrid":10407,"Ġminerale":10408,"ĠApa":10409,"Ġpretin":10410,"ÈĽime":10411,"Ġautovehicule":10412,"ĠvÃ¢rful":10413,"57":10414,"Ġclasice":10415,"Ġcumpere":10416,"Ġcontinue":10417,"ografia":10418,"diere":10419,"hul":10420,"pitan":10421,"Ġgunoi":10422,"Ġveti":10423,"Ġpatra":10424,"ĠconfirmÄĥ":10425,"ĠbancÄĥ":10426,"ĠexperienÅ£a":10427,"ĠJustiÅ£iei":10428,"Ġghea":10429,"ĠFaptul":10430,"ĠAdam":10431,"Ġlacrimi":10432,"Ġfondurilor":10433,"ÅŁcÄĥ":10434,"Tu":10435,"tail":10436,"ĠÃ®nÅ£eleg":10437,"Ġautonom":10438,"Sun":10439,"Ġroz":10440,"ĠaflaÅ£i":10441,"ĠdureazÄĥ":10442,"Ġmomentele":10443,"ĠTimp":10444,"Ġfrac":10445,"alizÄĥri":10446,"ĠMitropoli":10447,"ĠstructurÄĥ":10448,"Ġsimptome":10449,"Ġcapabil":10450,"ĠexecutÄĥ":10451,"euro":10452,"Ġautoh":10453,"Ġfrica":10454,"ĠTex":10455,"ĠfazÄĥ":10456,"Ġtest":10457,"Ġ2020":10458,"Ġdovada":10459,"Ġsent":10460,"vire":10461,"ĠÃ®nghi":10462,"ĠCampionatul":10463,"Ġresponsabilitate":10464,"Ġtrib":10465,"cron":10466,"ĠPoze":10467,"ĠÃ®ngrijire":10468,"Ġtratat":10469,"ĠasemÄĥnÄĥtoare":10470,"ĠgeneraÈĽie":10471,"Ġdiavol":10472,"ĠPractic":10473,"ĠspÄĥl":10474,"ĠNimeni":10475,"Ġastazi":10476,"ms":10477,"Ġdulci":10478,"ĠatmosferÄĥ":10479,"ĠÃ®ntoar":10480,"dale":10481,"Ġmodului":10482,"ĠrelaÅ£ia":10483,"ÅŁitÄĥ":10484,"Ġradi":10485,"ĠÈĭ":10486,"init":10487,"ĠÈĻtiÈĽi":10488,"amental":10489,"Ġintera":10490,"Ġsimilar":10491,"locu":10492,"ĠVictoriei":10493,"Ġrapoarte":10494,"Ġevenimentelor":10495,"ĠÃ®ndatÄĥ":10496,"tutindeni":10497,"Ġochilor":10498,"ĠÃİnvÄĥ":10499,"Ġsucce":10500,"Ġfrau":10501,"Ġmijloacele":10502,"Ġcaractere":10503,"ĠDumi":10504,"video":10505,"Ġtopul":10506,"ĠunitÄĥÈĽi":10507,"Ġ43":10508,"ĠPune":10509,"ĠArte":10510,"ĠAccident":10511,"sin":10512,"ĠToc":10513,"Ġone":10514,"Ġsof":10515,"mva":10516,"ĠBarce":10517,"ĠEducaÅ£iei":10518,"iau":10519,"hel":10520,"cÄĥruia":10521,"zil":10522,"ardÄĥ":10523,"Ġprecis":10524,"diei":10525,"ĠAÅŁadar":10526,"ĠtrÄĥiascÄĥ":10527,"Ġexcelent":10528,"ĠApÄĥrÄĥrii":10529,"ĠspecificÄĥ":10530,"ĠmajorÄĥ":10531,"ĠANA":10532,"ĠFM":10533,"ĠSolu":10534,"Ġmarii":10535,"ĠSenatului":10536,"Ġaviz":10537,"âĢĿ)":10538,"ĠEti":10539,"toresc":10540,"tial":10541,"ĠÃ®mbÄĥtrÃ¢n":10542,"func":10543,"luit":10544,"Ġrare":10545,"ĠNational":10546,"Ġexamenul":10547,"ĠFra":10548,"Ġartistic":10549,"totdeauna":10550,"Ġsoarele":10551,"Ġsecol":10552,"Ġprioritate":10553,"ĠsarcinÄĥ":10554,"unarea":10555,"Ġopere":10556,"CÃ¢nd":10557,"Ġnote":10558,"Ġservice":10559,"ĠLazÄĥr":10560,"Ġalbastru":10561,"mÃ¢ne":10562,"oarelor":10563,"Ġcheltuielilor":10564,"Ġdocumenta":10565,"ĠÃ®mbogÄĥ":10566,"Ġcursurile":10567,"ĠDos":10568,"Ġfruntea":10569,"Ġfinalizarea":10570,"ĠBene":10571,"ĠconstrucÅ£ii":10572,"tivele":10573,"ĠaÅŁtep":10574,"Ġprejudici":10575,"Ġpartidul":10576,"tÃ£":10577,"Ġdimensiunea":10578,"Ġiri":10579,"ĠÃ®ntocmit":10580,"gil":10581,"Ġrepl":10582,"ĠCir":10583,"Ġantrenor":10584,"Ġmemorie":10585,"Ġoff":10586,"scris":10587,"Ġvocea":10588,"ĠUR":10589,"Ġpsihi":10590,"ĠIrina":10591,"Ġadministrare":10592,"ĠrugÄĥciunea":10593,"Ġsezonului":10594,"ĠClaudiu":10595,"ĠAsociaÅ£iei":10596,"Ġdezvolte":10597,"Ġexecutare":10598,"Ġaparate":10599,"gerpres":10600,"Ġfrontie":10601,"tean":10602,"Ġautostra":10603,"ters":10604,"ĠrÄĥz":10605,"Ġrespecte":10606,"Ġindustriale":10607,"Ġzb":10608,"58":10609,"jan":10610,"ĠSti":10611,"ĠTen":10612,"Ġputeri":10613,"Ġconceput":10614,"ĠFisc":10615,"ĠComunic":10616,"casÄĥ":10617,"ĠLA":10618,"crimin":10619,"Ġcomisiei":10620,"Ġinformatii":10621,"Ġfoame":10622,"Ġcontacta":10623,"hei":10624,"Ġlimpe":10625,"Ġhiper":10626,"ĠAdolesc":10627,"ĠGroup":10628,"ĠaÈĻteptat":10629,"ĠfrÃ¢n":10630,"ĠMay":10631,"Ġsecretar":10632,"ĠcetÄĥÅ£eni":10633,"Ġcaracterul":10634,"Ġbanilor":10635,"Ġstudio":10636,"!!!":10637,"ĠÃ®ncredin":10638,"ĠCodului":10639,"Ġina":10640,"Ġblu":10641,"Ġanimalelor":10642,"Ġjob":10643,"geaba":10644,"Ġanalize":10645,"ĠArti":10646,"Ġdeciziei":10647,"libe":10648,"ĠamÄĥnun":10649,"ĠbÄĥiat":10650,"Ġalune":10651,"trea":10652,"ĠSing":10653,"ĠlecturÄĥ":10654,"Ġneuro":10655,"Ġprilejul":10656,"Ġcombusti":10657,"ĠHum":10658,"ĠMij":10659,"Ñĩ":10660,"ĠVrem":10661,"Ġvolume":10662,"Ġchema":10663,"tator":10664,"olatÄĥ":10665,"ĠCasei":10666,"ĠacÅ£iunile":10667,"ĠAmin":10668,"utului":10669,"ĠÑģ":10670,"Ġromani":10671,"ĠmulÈĽumi":10672,"Ġizbuc":10673,"Acea":10674,"ĠactivitÄĥÅ£ile":10675,"Ġpiept":10676,"Ġflor":10677,"Ġcron":10678,"ĠAustra":10679,"Ġevrei":10680,"Ġdire":10681,"Ġsecuritatea":10682,"Ġpct":10683,"anie":10684,"ĠDirecÅ£ia":10685,"ĠdespÄĥ":10686,"Ġust":10687,"Ġconcluzia":10688,"bin":10689,"ĠÃ®nsÄĥrcin":10690,"Ra":10691,"unei":10692,"Ġdirij":10693,"ĠSexual":10694,"Ġfrig":10695,"ĠValentin":10696,"Ġpartenerul":10697,"ĠAut":10698,"Ġvas":10699,"Ġrutiere":10700,"Ġbarba":10701,"Ġlaptop":10702,"Ġ..":10703,"Ġcontribuit":10704,"Ġgla":10705,"Ġarestat":10706,"ĠasistenÅ£Äĥ":10707,"ĠStatelor":10708,"ĠStrÄĥ":10709,"Ġsupus":10710,"ĠcirculaÅ£ie":10711,"ĠUltima":10712,"ÈĽite":10713,"uiÈĽi":10714,"ĠFol":10715,"tisment":10716,"ĠMondialÄĥ":10717,"Ġbonus":10718,"Ġere":10719,"ĠOlanda":10720,"æĹ¶":10721,"Ġmize":10722,"ĠfoloseÅŁte":10723,"Ġconcept":10724,"Ġdeal":10725,"ĠWash":10726,"ĠstrÄĥzi":10727,"Ġmagazinul":10728,"Ġconcerte":10729,"ĠFotbal":10730,"Ġmort":10731,"ĠinteresantÄĥ":10732,"Ġtriste":10733,"Ġcaracteristici":10734,"Ġnoilor":10735,"aa":10736,"ĠsoÈĽia":10737,"ĠRegulamentul":10738,"Ġacei":10739,"Ġciudat":10740,"Ġcauze":10741,"oaia":10742,"Ã®nÅ£ele":10743,"Ġdesene":10744,"Ġasia":10745,"ĠLen":10746,"ĠIndia":10747,"Ġdiza":10748,"ĠpÄĥrinÅ£ilor":10749,"Ġlucrurilor":10750,"Ġschimbul":10751,"âĢĻ,":10752,"Ġmuzicale":10753,"ĠAfi":10754,"Ġsistemele":10755,"ĠPovestea":10756,"Ġraf":10757,"Ġvremii":10758,"ĠtÃ¢nÄĥrul":10759,"Ġvenea":10760,"cumen":10761,"ĠJi":10762,"ĠGrigore":10763,"%)":10764,"nicii":10765,"ĠVictoria":10766,"ĠLitera":10767,"Ġterenuri":10768,"ĠJean":10769,"ĠÃ®nsemna":10770,"linÄĥ":10771,"luie":10772,"direa":10773,"Ġimposi":10774,"Ġviteze":10775,"ĠBelgia":10776,"spru":10777,"Ġproducerea":10778,"Ġcomparti":10779,"ĠautoritÄĥÈĽilor":10780,"ĠFinanci":10781,"Ġintri":10782,"ĠTeatrului":10783,"ĠdatoreazÄĥ":10784,"Lu":10785,"tizarea":10786,"Ġieftin":10787,"Ġcerul":10788,"Ġminuni":10789,"Ġspirituale":10790,"Ġbanca":10791,"ĠvÃ¢rste":10792,"Ġarhitectura":10793,"Ġobiectivul":10794,"rutÄĥ":10795,"ĠPoe":10796,"ĠacceptÄĥ":10797,"tus":10798,"Ġfemeii":10799,"Ġmuzicii":10800,"Ġ800":10801,"IP":10802,"Ġeconomi":10803,"ĠcÃ®teva":10804,"ĠSeba":10805,"ĠGeneralÄĥ":10806,"ĠdeÈĻe":10807,"Ġaflau":10808,"Ġtata":10809,"Ġambala":10810,"ĠstabilitÄĥ":10811,"ĠpÄĥmÃ¢n":10812,"Ġinstalat":10813,"Ġmiro":10814,"ĠInsta":10815,"Ġtrimise":10816,"Ġfocul":10817,"ĠIonescu":10818,"Ġtrezi":10819,"Ġreper":10820,"oanelor":10821,"ĠbogÄĥ":10822,"Ġtotalul":10823,"ĠGav":10824,"ĠÅŁtiinÅ£Äĥ":10825,"ĠIstoria":10826,"Ġasociate":10827,"Ġfaim":10828,"ĠCanada":10829,"ĠstrÄĥin":10830,"Ġava":10831,"Ġconsuma":10832,"Ġarmata":10833,"sting":10834,"ĠgÃ¢ndim":10835,"rÃ¢u":10836,"Ġafecta":10837,"Ġprotec":10838,"ĠduÈĻ":10839,"Ġcartierul":10840,"ye":10841,"Ġcadre":10842,"mpi":10843,"Ġfiloz":10844,"Ġalar":10845,"dez":10846,"Ġincendiu":10847,"ĠtabÄĥ":10848,"ĠÃ®ncor":10849,"ĠÃ®nvÄĥÅ£a":10850,"Ġnumere":10851,"ĠdisponibilÄĥ":10852,"Ġlectura":10853,"ĠObie":10854,"ĠVede":10855,"ĠSchim":10856,"Ġsiguranta":10857,"Ġhomosex":10858,"ĠsÄĥlba":10859,"Ġnes":10860,"dus":10861,"ĠMateri":10862,"Ġincinta":10863,"ĠÃ®ntreba":10864,"ĠpicÄĥ":10865,"Ġpremiu":10866,"Ġbazat":10867,"ĠTÃ¢rgovi":10868,"56":10869,"Ġpetrecere":10870,"ĠÃ®ntreÅ£ine":10871,"Ġdrumului":10872,"Ġsoarelui":10873,"Ba":10874,"Ġretras":10875,"Ġferme":10876,"Ġbio":10877,"ĠcomunitÄĥÈĽii":10878,"ĠvÃ¢nzÄĥri":10879,"sula":10880,"ĠasistenÈĽÄĥ":10881,"ĠNE":10882,"ĠproducÄĥtori":10883,"Ġartistice":10884,"Ġprofesorii":10885,"Ġispi":10886,"Ġcompati":10887,"Ġreduceri":10888,"Ġpreotul":10889,"ĠComplex":10890,"ĠDire":10891,"sesti":10892,"Ġamintit":10893,"oliul":10894,"ĠRos":10895,"ĠprovoacÄĥ":10896,"Ġsexual":10897,"umini":10898,"Ġorganele":10899,"ĠfericitÄĥ":10900,"ĠAutoritatea":10901,"Ġprezentul":10902,"ĠOlt":10903,"Ġfeluri":10904,"ĠCha":10905,"âĢ¦âĢĿ":10906,"oar":10907,"ress":10908,"Ġadoptarea":10909,"ĠcetÄĥÅ£enii":10910,"Ġperse":10911,"metri":10912,"ĠSerbia":10913,"ĠCÄĥlÄĥra":10914,"finan":10915,"nes":10916,"Ġterori":10917,"Ġbanda":10918,"alelor":10919,"ĠMAI":10920,"ĠDomn":10921,"Ġprofesionist":10922,"ĠPopul":10923,"ÈĽeles":10924,"ĠFranci":10925,"inelor":10926,"Ġ64":10927,"ĠVan":10928,"stituirea":10929,"Ġbrow":10930,"Ġcompus":10931,"ĠiniÈĽi":10932,"Ġprocedurii":10933,"ĠCarac":10934,"ĠPÄĥi":10935,"Ġreprezentant":10936,"Ġieftine":10937,"Ġneregul":10938,"taÅ£ii":10939,"ĠcreatÄĥ":10940,"ĠÅŀe":10941,"Ġcontac":10942,"ĠActu":10943,"Ġdesemnat":10944,"ĠhÄĥr":10945,"ĠadresÄĥ":10946,"ĠStuden":10947,"Ġelectoral":10948,"ĠTit":10949,"ĠroÈĻu":10950,"yn":10951,"ĠpoveÅŁti":10952,"Ġaveti":10953,"Ġlideri":10954,"ĠÈĻcolar":10955,"ĠParticip":10956,"Ġdigital":10957,"Ġinterse":10958,"Ġprincipiile":10959,"Ġindis":10960,"reunÄĥ":10961,"lona":10962,"ĠGimna":10963,"Ġspecifica":10964,"Ġatacat":10965,"ĠAgerpres":10966,"Ġchirurgic":10967,"iev":10968,"ĠsupravieÅ£":10969,"ĠReal":10970,"Ġax":10971,"Ġcreeze":10972,"ĠrelaÅ£ie":10973,"87":10974,"ĠinstituÈĽiile":10975,"Ġdispari":10976,"dacÄĥ":10977,"Ġble":10978,"ĠNeg":10979,"Ġaud":10980,"ĠredusÄĥ":10981,"ĠajungÃ¢nd":10982,"cÄĥtorul":10983,"ĠMedicinÄĥ":10984,"Ġporni":10985,"ĠpÄĥtra":10986,"ĠAsociaÈĽiei":10987,"ĠLaura":10988,"ĠprimÄĥvara":10989,"ĠStr":10990,"Ġfurnizate":10991,"ÐµÐ½":10992,"nicie":10993,"alizÄĥrii":10994,"umblr":10995,"ĠrusÄĥ":10996,"ĠmondialÄĥ":10997,"ĠTÄĥriceanu":10998,"zÃ¢ndu":10999,"Ġinch":11000,"terni":11001,"Ġaccesa":11002,"ĠcetÄĥÈĽenii":11003,"olic":11004,"Ġpose":11005,"Ġdepres":11006,"ĠProce":11007,"Ġunghi":11008,"Ġdeo":11009,"Ġpetro":11010,"ĠPr":11011,"Ġexercitarea":11012,"ĠcÄĥpÄĥ":11013,"ĠdiferitÄĥ":11014,"ĠjudeÈĽului":11015,"ĠAM":11016,"Ġhol":11017,"Ġimpactul":11018,"Ġunt":11019,"ĠgÄĥseÈĻte":11020,"ĠBasarabia":11021,"ĠDumnezeul":11022,"ĠViorel":11023,"ĠMasa":11024,"entelor":11025,"ĠÃ®nscriere":11026,"ĠAfrica":11027,"Ġpale":11028,"ierilor":11029,"ĠAcasa":11030,"Ġasigur":11031,"ĠapÄĥrarea":11032,"Ġmasina":11033,"Ġsinuci":11034,"ĠcreÈĻ":11035,"ĠurmÄĥtorii":11036,"ĠDobrogea":11037,"Ġlansare":11038,"Ġregele":11039,"ĠCentralÄĥ":11040,"Ġfamiliile":11041,"ĠZiarul":11042,"Ġviziune":11043,"ĠdepÄĥÈĻi":11044,"Ġviziunea":11045,"ĠFri":11046,"Ġmanager":11047,"ĠamendÄĥ":11048,"Ġimpuse":11049,"ĠconsumÄĥ":11050,"ĠplatformÄĥ":11051,"Ġfondurile":11052,"fov":11053,"Ġinsufici":11054,"nel":11055,"tatilor":11056,"ĠViorica":11057,"hael":11058,"Ġ000":11059,"ĠProgramului":11060,"perea":11061,"set":11062,"vatÄĥ":11063,"ĠplÄĥcea":11064,"Ġtasta":11065,"Ġcriterii":11066,"Ġmasculin":11067,"ĠfiecÄĥruia":11068,"Ġseme":11069,"âĶĤ":11070,"ĠcomunitÄĥÅ£ii":11071,"RES":11072,"CS":11073,"Ġviza":11074,"ĠCurÅ£ii":11075,"sis":11076,"Ġemisiunea":11077,"ĠNatura":11078,"cheazÄĥ":11079,"Ġrevistei":11080,"ĠALDE":11081,"universi":11082,"ĠaprobÄĥ":11083,"antului":11084,"rimea":11085,"mir":11086,"tÃ¢ndu":11087,"guvern":11088,"Ġcomunicarea":11089,"ĠÅŁedinÅ£Äĥ":11090,"ĠÃ®nfi":11091,"Ġsumele":11092,"Ġaccepta":11093,"Ġjudecat":11094,"ĠdiscuÈĽii":11095,"Ġtrai":11096,"ĠprÃ¢n":11097,"Ġactor":11098,"ĠOne":11099,"ĠacÅ£ion":11100,"Ġcomplete":11101,"Ġ''":11102,"ĠAgenÅ£ia":11103,"Ġinvers":11104,"ĠDJ":11105,"ĠProfes":11106,"ĠpreferÄĥ":11107,"ĠtradiÈĽionale":11108,"ĠCristos":11109,"Ġnormative":11110,"ĠadministraÅ£iei":11111,"Ġdur":11112,"Ġolim":11113,"Ġmaterialele":11114,"Ġadvers":11115,"Ad":11116,"vili":11117,"ĠMediafax":11118,"ĠpÄĥsÄĥricÄĥ":11119,"Ġprivirea":11120,"Ġdetaliile":11121,"Ġcosturi":11122,"chen":11123,"ĠdrÄĥ":11124,"ĠPoi":11125,"Ġsesiune":11126,"Ġsudul":11127,"Ġnave":11128,"Ġlocuiesc":11129,"Ġstrategie":11130,"uÈĽ":11131,"Ġ@":11132,"å½":11133,"Ġconcrete":11134,"fav":11135,"cean":11136,"Ġlumi":11137,"sma":11138,"ĠcheamÄĥ":11139,"ĠjucÄĥtorii":11140,"ĠÃ®ntinde":11141,"Ġbaga":11142,"Ġnordul":11143,"Mar":11144,"Ġregenera":11145,"Va":11146,"ski":11147,"ĠDracu":11148,"andu":11149,"ĠforÈĽÄĥ":11150,"Ġincepe":11151,"tificarea":11152,"Ġindemniza":11153,"ĠPIB":11154,"Ġconfec":11155,"Ġautovehicul":11156,"Ġepoca":11157,"plu":11158,"Ġexecutarea":11159,"ĠalcÄĥtui":11160,"uim":11161,"ĠPiteÅŁti":11162,"Ġprovoca":11163,"ĠÃ®nceapÄĥ":11164,"ĠGalaÈĽi":11165,"Ġprospe":11166,"Ġperete":11167,"Ġasociat":11168,"ĠBoc":11169,"Ġcriza":11170,"Ġascunse":11171,"dru":11172,"ciul":11173,"ĠDie":11174,"ĠpreÈĽuri":11175,"Ġexpuse":11176,"Ġrefer":11177,"ĠinstituÅ£iilor":11178,"ĠHoria":11179,"ĠZona":11180,"Ġsoarta":11181,"Ġcurajul":11182,"ĠOUG":11183,"ÑĢÐ°":11184,"toreascÄĥ":11185,"Ġvacante":11186,"ĠSue":11187,"ĠrÄĥspunsuri":11188,"Ġprovocare":11189,"Ġelaborarea":11190,"Ġspori":11191,"ĠLumea":11192,"Ġ1999":11193,"Ġilustra":11194,"econom":11195,"ĠsÄĥnÄĥtÄĥÅ£ii":11196,"calaureat":11197,"drala":11198,"Ġcompleta":11199,"ĠmuÈĻ":11200,"Ġurmatoarele":11201,"lurile":11202,"Ã¢nde":11203,"ĠCNA":11204,"ĠIM":11205,"Ġfugit":11206,"Ġinseamna":11207,"Ġrezolvarea":11208,"ĠOM":11209,"Ġfamili":11210,"Ġpretul":11211,"Ġniste":11212,"ĠverificÄĥ":11213,"tot":11214,"Ġstrategii":11215,"mormÃ¢n":11216,"colii":11217,"ĠFotograf":11218,"Ġvitamina":11219,"Ġconsac":11220,"Ġdecedat":11221,"Ġconsemn":11222,"eu":11223,"Ġpopulari":11224,"fen":11225,"bilul":11226,"Ġpantal":11227,"CÄĥ":11228,"Ġorgani":11229,"mpa":11230,"ĠdiscuÅ£ii":11231,"Ġpoliticii":11232,"Ġsensibil":11233,"ĠPE":11234,"Ġavocat":11235,"Ġtramva":11236,"ĠRM":11237,"vardul":11238,"ĠConsil":11239,"intelor":11240,"ĠTime":11241,"Ġsimpa":11242,"onez":11243,"ĠscÄĥderea":11244,"ĠFolo":11245,"gaÈĽi":11246,"Ġfinale":11247,"Ġliterare":11248,"tamentului":11249,"Ġpred":11250,"von":11251,"ĠPortu":11252,"Ġoarecum":11253,"ĠcetÄĥÈĽeni":11254,"Ġcuiva":11255,"zitate":11256,"ĠpÄĥmÃ¢ntului":11257,"ĠLeon":11258,"titÄĥ":11259,"ont":11260,"ĠprÄĥji":11261,"ĠðŁĺ":11262,"ĠEvident":11263,"'s":11264,"kov":11265,"Ġvictoria":11266,"Ġcuceri":11267,"izol":11268,"Ġcooperare":11269,"Ġinspirat":11270,"ĠAten":11271,"Ġmonah":11272,"Â°":11273,"Ġconducerii":11274,"Ġsemifin":11275,"gram":11276,"ĠStati":11277,"contin":11278,"gari":11279,"pid":11280,"vest":11281,"ĠobligaÅ£ia":11282,"Ġrecuno":11283,"Ġconsim":11284,"Ġcontinui":11285,"Ġcurte":11286,"Ġarbi":11287,"bici":11288,"ĠafiÅŁ":11289,"ĠartiÈĻti":11290,"Ġsuve":11291,"ĠscarÄĥ":11292,"Ġmorale":11293,"ĠSebastian":11294,"Ġsunat":11295,"ĠmorÅ£ii":11296,"pii":11297,"ministru":11298,"Ġfrunte":11299,"ĠconstÄĥn":11300,"mina":11301,"anei":11302,"dicap":11303,"ĠinvitaÈĽi":11304,"ĠhotÄĥrÃ¢rea":11305,"IU":11306,"ĠreÅ£inut":11307,"ĠriscÄĥ":11308,"ĠprezentatÄĥ":11309,"cy":11310,"gel":11311,"ĠmÃ¢ng":11312,"ĠpoziÅ£ie":11313,"ĠSebe":11314,"Ġactualul":11315,"Ġrelevante":11316,"ĠÃ®ndelung":11317,"ĠConven":11318,"Ġadministrative":11319,"Ġvorbind":11320,"ĠaplicatÄĥ":11321,"Ġtemporar":11322,"Ġactului":11323,"ĠMamaia":11324,"Ġcriteri":11325,"Ġhectare":11326,"oth":11327,"ĠobiÈĻnuit":11328,"scar":11329,"specta":11330,"Noi":11331,"ĠAjun":11332,"milor":11333,"ted":11334,"mentului":11335,"Ġnebun":11336,"ĠexcepÈĽia":11337,"kel":11338,"ĠPersoanele":11339,"ĠtatÄĥlui":11340,"Ġmarilor":11341,"amentalÄĥ":11342,"Å£uri":11343,"Ġdinainte":11344,"ĠDimi":11345,"ĠDeoarece":11346,"ĠvedeÈĽi":11347,"Ġdepar":11348,"Ġamintiri":11349,"Ġamestec":11350,"Ġafectat":11351,"ĠÃ®nv":11352,"Ġexecutat":11353,"ĠÃ®nÄĥ":11354,"ĠmÃ¢ncat":11355,"gheni":11356,"CH":11357,"Ġmachia":11358,"Ġconsumului":11359,"Ġinterzis":11360,"ĠmulÈĽumesc":11361,"ĠinstituÅ£iei":11362,"ĠdemonstreazÄĥ":11363,"Ġdeciziile":11364,"ĠUlti":11365,"Ge":11366,"\\/":11367,"Ġporto":11368,"ĠDon":11369,"Ġ56":11370,"ĠprivinÈĽa":11371,"ĠAlÄĥ":11372,"Ġplecare":11373,"Ġpahar":11374,"imii":11375,"Ġurechi":11376,"ĠAte":11377,"Ġsuplimentar":11378,"ĠconÈĽinutul":11379,"ĠfrÄĥ":11380,"Ġcalde":11381,"ĠsupravieÈĽ":11382,"Ġcotidi":11383,"ĠterminÄĥ":11384,"ĠpoziÈĽie":11385,"ĠViitorul":11386,"ÅŁedinte":11387,"rind":11388,"goj":11389,"cs":11390,"ĠFrance":11391,"Ġadevarat":11392,"inescu":11393,"vu":11394,"Ġ51":11395,"Ð¾Ð²":11396,"Ġprogramat":11397,"Ġsuficiente":11398,"ĠanchetÄĥ":11399,"ĠvÃ¢nt":11400,"Ġculorile":11401,"registra":11402,"Ġconvinge":11403,"ĠgÄĥseÈĻti":11404,"ĠevaluÄĥ":11405,"Ġdracu":11406,"Ġagent":11407,"ĠpocÄĥ":11408,"Ġpricep":11409,"ĠPala":11410,"Ġsimptom":11411,"ĠAnim":11412,"Ġprotest":11413,"Ġfrumoasa":11414,"ĠSÃ¢mbÄĥtÄĥ":11415,"stere":11416,"ilvan":11417,"Ġneconstitu":11418,"ĠÃ®ntuneric":11419,"cop":11420,"ĠDodon":11421,"Ġprincipii":11422,"ĠArde":11423,"ĠpopulaÈĽiei":11424,"Ġdirecte":11425,"Ġgasit":11426,"ĠÃ®nchide":11427,"Ġneglij":11428,"Ġrede":11429,"cheta":11430,"Ġsentimentul":11431,"Ġortodox":11432,"Ġnevin":11433,"ĠPark":11434,"Ġtrofe":11435,"ĠÃ®ncheia":11436,"yo":11437,"Ġvideoclipuri":11438,"Ġ52":11439,"Ġlocurilor":11440,"ritatea":11441,"Ġalia":11442,"mÄĥn":11443,"Ġ95":11444,"Ġreduse":11445,"olii":11446,"ĠMarele":11447,"Ġrepri":11448,"ĠStatul":11449,"ĠAdevÄĥrul":11450,"ĠPoliÅ£iÅŁtii":11451,"ĠpopulaÅ£ia":11452,"Ġmobilier":11453,"ĠÈĺe":11454,"Ġprivile":11455,"ĠvÄĥr":11456,"ĠrÄĥspundÄĥ":11457,"ĠsimilarÄĥ":11458,"Co":11459,"ĠFel":11460,"Ġacoperit":11461,"ĠoricÃ¢t":11462,"ĠMeto":11463,"ĠreligioasÄĥ":11464,"ĠIancu":11465,"Ġpredic":11466,"Ġjudetul":11467,"Ġmicul":11468,"ĠmoralÄĥ":11469,"ĠTocmai":11470,"Ġcade":11471,"ĠAcela":11472,"Ġbeneficiile":11473,"Ġfericirea":11474,"Ġcontradic":11475,"Åŀi":11476,"ĠFemeia":11477,"joc":11478,"ĠPoÈĽi":11479,"ĠCD":11480,"Ġsistemelor":11481,"Ġprezentului":11482,"vali":11483,"onii":11484,"ĠÃ®ntruni":11485,"ĠDuminicÄĥ":11486,"ĠMonica":11487,"gaÅ£i":11488,"Ġprincipala":11489,"Ġproteste":11490,"Ġtexte":11491,"ĠContinuÄĥ":11492,"gÄĥm":11493,"ĠperformanÈĽÄĥ":11494,"Ġcumul":11495,"ĠaparÈĽin":11496,"Ġimpul":11497,"ĠHen":11498,"Ġregia":11499,"Ġcenz":11500,"ĠflÄĥ":11501,"ĠSof":11502,"Ġturneu":11503,"ĠobÈĽinute":11504,"Â»,":11505,"Ġnormele":11506,"Ġemisiunii":11507,"mirea":11508,"ĠinfluenÅ£a":11509,"ĠEducaÈĽiei":11510,"giile":11511,"Ġsubven":11512,"Ġimpe":11513,"ĠalternativÄĥ":11514,"Ġaducem":11515,"Ġcorecte":11516,"Ġaprecia":11517,"ĠNimic":11518,"ĠrÄĥtÄĥ":11519,"ĠgÄĥseÅŁte":11520,"Ġdizabili":11521,"Ġreven":11522,"ĠKar":11523,"Ġintui":11524,"Ġpropuneri":11525,"Ġconstruite":11526,"ĠÃ®ncÄĥlzire":11527,"ĠaparÅ£ine":11528,"Ġclima":11529,"Ġcutie":11530,"geni":11531,"Ġgreutatea":11532,"brica":11533,"ĠrelaÅ£iile":11534,"Ġfirmele":11535,"ĠlÄĥm":11536,"Ġ112":11537,"ĠBiroului":11538,"UE":11539,"Ġkilograme":11540,"ĠLuna":11541,"Ġdurat":11542,"ĠsecundÄĥ":11543,"Ġpasiunea":11544,"ĠUnivers":11545,"Ġbunurile":11546,"ĠdespÄĥgubi":11547,"inge":11548,"ĠIndepen":11549,"Ġmoale":11550,"Ġbiz":11551,"Ġbla":11552,"ĠrÄĥzboiului":11553,"ĠAltfel":11554,"Ġdeputatul":11555,"mara":11556,"ĠIran":11557,"ĠÃ®ncal":11558,"Ġcereri":11559,"parlamen":11560,"ĠMuzeului":11561,"ĠContinue":11562,"ÈĽire":11563,"ĠnumeÅŁte":11564,"Ġanimalele":11565,"ĠspecialiÈĻti":11566,"tismul":11567,"Ġeforturi":11568,"ĠÃ®nsuÈĻi":11569,"dorul":11570,"Ġnoti":11571,"tehn":11572,"Ġconfortabil":11573,"ĠfuncÅ£ionare":11574,"ĠextraordinarÄĥ":11575,"Ġdeterior":11576,"Ġprocuror":11577,"ĠpromoveazÄĥ":11578,"ĠÃ®mpline":11579,"Ġfrunze":11580,"ÅŁca":11581,"ĠFir":11582,"Ġasim":11583,"ĠLiturghie":11584,"ĠsimtÄĥ":11585,"Ġregiuni":11586,"ĠprimeÅŁte":11587,"ĠAcasÄĥ":11588,"Ġstudiat":11589,"Ġgeogra":11590,"ĠinstanÅ£Äĥ":11591,"Ġpam":11592,"ĠBÄĥrbat":11593,"ish":11594,"ĠDane":11595,"Ġnecu":11596,"ĠJoi":11597,"Ġpensiona":11598,"Ġcontribuabil":11599,"ĠBran":11600,"ĠFata":11601,"Ġfrigi":11602,"Ġapartamente":11603,"Ġrafin":11604,"ĠstudenÈĽi":11605,"ĠWillia":11606,"onarea":11607,"tors":11608,"Ġcai":11609,"Ġezi":11610,"Ġemise":11611,"ĠBudape":11612,"ĠSea":11613,"Ġhotare":11614,"denÅ£a":11615,"junct":11616,"ĠÅŁcoala":11617,"veanu":11618,"ĠEf":11619,"facerea":11620,"ĠnuntÄĥ":11621,"ĠIndiferent":11622,"Ġprincipalul":11623,"ĠToatÄĥ":11624,"lari":11625,"Ġveniturilor":11626,"Ġnormale":11627,"eli":11628,"Ġgrupa":11629,"psÄĥ":11630,"Ġstructuri":11631,"AP":11632,"ĠProprie":11633,"ĠgÄĥsiÈĽi":11634,"ID":11635,"Ġteen":11636,"orman":11637,"Ġnec":11638,"sterul":11639,"ĠutilizÄĥrii":11640,"Ġvese":11641,"Ġimpozitul":11642,"Ġpericuloase":11643,"Ġobsta":11644,"Ġocro":11645,"ĠcuratÄĥ":11646,"Ġexage":11647,"sivitate":11648,"witter":11649,"ĠBarcelona":11650,"ĠModi":11651,"Ġbilet":11652,"Ġnera":11653,"deanu":11654,"Ġsemna":11655,"ĠComitetului":11656,"79":11657,"ĠCO":11658,"Cel":11659,"Ġaflu":11660,"ston":11661,"seu":11662,"Ġscape":11663,"ĠanterioarÄĥ":11664,"Ġ02":11665,"Ġdetaliu":11666,"pp":11667,"ĠMani":11668,"Ġsociali":11669,"Ġeroare":11670,"ĠFron":11671,"em":11672,"ĠAntre":11673,"Ġcruce":11674,"ĠGermaniei":11675,"''":11676,"Ġemb":11677,"ĠAntic":11678,"Ġwork":11679,"Ġtermina":11680,"Ġcampanii":11681,"ĠpeÈĻte":11682,"Ġgenunchi":11683,"ziv":11684,"oveni":11685,"Ġhttps":11686,"ĠMediului":11687,"ĠtradiÅ£ionale":11688,"ĠÃİnal":11689,"Ġegi":11690,"Ġrecompen":11691,"Ġsac":11692,"vere":11693,"ĠConsi":11694,"tilÄĥ":11695,"Ġmigra":11696,"ĠTermen":11697,"ĠTro":11698,"Ġantrenorul":11699,"arelor":11700,"Ġterapeu":11701,"ĠcunoascÄĥ":11702,"gro":11703,"guran":11704,"ĠÃ®nvaÈĽÄĥ":11705,"Ġpedeapsa":11706,"Ġpierd":11707,"Ġinsol":11708,"ĠMea":11709,"Ġarte":11710,"Ġprotesta":11711,"ĠforÅ£a":11712,"Ġcuptor":11713,"ĠPrie":11714,"ĠapÄĥrÄĥ":11715,"Ġtrecutul":11716,"Ġok":11717,"Ġdidactic":11718,"Ġfactor":11719,"Ġcinste":11720,"ĠjudiciarÄĥ":11721,"ĠRomÃ¢nii":11722,"Ġspecii":11723,"ĠSindic":11724,"ĠSÄĥrbÄĥ":11725,"ĠCupei":11726,"Ġmusul":11727,"Ġpostare":11728,"Å£ini":11729,"ĠsÄĥnÄĥtoase":11730,"Ð·":11731,"tum":11732,"teÈĻti":11733,"atei":11734,"Ġsora":11735,"Ġconcluzie":11736,"ĠmobilÄĥ":11737,"Ġaprobate":11738,"osa":11739,"urarea":11740,"ĠmulÅ£ime":11741,"Ġbrut":11742,"hot":11743,"cule":11744,"Ġefortul":11745,"Ġrefugia":11746,"Ġsfar":11747,"ater":11748,"ĠFÄĥgÄĥ":11749,"Ġsalariile":11750,"Ġcara":11751,"Ġnunta":11752,"ĠIal":11753,"Ġitalian":11754,"ĠVul":11755,"ĠONU":11756,"ĠTrÄĥ":11757,"Ġraion":11758,"Ġexprima":11759,"Ġchimice":11760,"Ġaerului":11761,"vian":11762,"ĠpÄĥrului":11763,"ÈĽionali":11764,"ĠIdeea":11765,"ĠÃ®nregistratÄĥ":11766,"Ġpartidele":11767,"Ġepui":11768,"Ġfacebook":11769,"Ġdemi":11770,"ĠPoliÅ£ie":11771,"Ġcontrolului":11772,"Ġ59":11773,"Ġliterar":11774,"covina":11775,"âĢĿ:":11776,"ĠParchetul":11777,"ĠToÅ£i":11778,"Ġpoliticieni":11779,"duc":11780,"Ġextern":11781,"ĠÃ®ntregului":11782,"Ġoglin":11783,"Ġnumesc":11784,"ĠaÅŁteptat":11785,"wood":11786,"ĠÃ®m":11787,"Ġenorm":11788,"ĠÅŁtiÅ£i":11789,"ĠdificilÄĥ":11790,"Ġcontractelor":11791,"omene":11792,"Ġidentitatea":11793,"ĠpÄĥrinÈĽilor":11794,"Ġanali":11795,"Ġdisc":11796,"Ġadmis":11797,"zime":11798,"ĠrÄĥzboiul":11799,"Ġxxx":11800,"Ġreflec":11801,"Ġinc":11802,"anÈĽi":11803,"Ġcoli":11804,"ĠclÄĥdirea":11805,"ĠbucatÄĥ":11806,"Ġrenumi":11807,"ĠVÃ¢r":11808,"Ġobtine":11809,"ĠCovas":11810,"Ġbirouri":11811,"Ġrural":11812,"Ġortodoc":11813,"EM":11814,"ĠdeocamdatÄĥ":11815,"ĠMal":11816,"gentÄĥ":11817,"wnloa":11818,"Ġcompen":11819,"Ġromanul":11820,"Ġ99":11821,"Ġminime":11822,"Ġtipurile":11823,"ĠÈĭn":11824,"ous":11825,"reÅŁti":11826,"ĠCentral":11827,"ĠÃ®nregistreazÄĥ":11828,"Ġcapitol":11829,"ĠÃ®nmormÃ¢n":11830,"peti":11831,"Ġelegant":11832,"Ġlesbi":11833,"52":11834,"Ġanuale":11835,"Ġprocese":11836,"ĠServicii":11837,"76":11838,"Ġargumente":11839,"Ġprocurorilor":11840,"ĠactivitÄĥÅ£ilor":11841,"ĠPutem":11842,"Ġfilmele":11843,"Ġcondamna":11844,"Ġbolii":11845,"ĠÃ®nteme":11846,"2000":11847,"Ġ1998":11848,"ĠLeague":11849,"tex":11850,"ining":11851,"qua":11852,"Ġlingvis":11853,"ĠnemulÅ£":11854,"ĠexistenÈĽa":11855,"Ø§Ù":11856,"53":11857,"umate":11858,"ĠMondiale":11859,"ĠRam":11860,"Ġalternative":11861,"Ġactuala":11862,"anÅ£i":11863,"ĠSÄĥnÄĥtÄĥÅ£ii":11864,"ĠWashington":11865,"ĠExperi":11866,"RD":11867,"Ġcota":11868,"Ġechipele":11869,"ĠHal":11870,"ĠprofundÄĥ":11871,"èµ":11872,"ĠcÄĥsÄĥtorie":11873,"Ġalese":11874,"ĠgrupÄĥ":11875,"Ġabd":11876,"ĠdefinitivÄĥ":11877,"putatul":11878,"cinile":11879,"ĠreprezentanÈĽi":11880,"ĠminunatÄĥ":11881,"Ġmira":11882,"Ġanimal":11883,"Ġechilibru":11884,"Ġbre":11885,"Ġdigitale":11886,"ĠsusÈĽinerea":11887,"To":11888,"Å£ire":11889,"stament":11890,"zis":11891,"ĠSiria":11892,"cineva":11893,"Ġsarcini":11894,"Ġfarme":11895,"Ġcartier":11896,"Ã®i":11897,"Ġaparent":11898,"reaga":11899,"Ġorienta":11900,"ĠMunicipal":11901,"ĠPana":11902,"ĠLuni":11903,"ĠgÃ¢ndire":11904,"Ġtrez":11905,"Ġciup":11906,"ĠPremierul":11907,"Dum":11908,"ĠÃ®nvaÅ£Äĥ":11909,"ĠvÃ¢nzarea":11910,"cument":11911,"Ġacredi":11912,"Ġploi":11913,"Ġclasele":11914,"Ġdovezi":11915,"ĠCP":11916,"Ġpele":11917,"Ġcrema":11918,"Ġdenun":11919,"Ġstandarde":11920,"Ġautorului":11921,"ĠÐ½":11922,"rÃ¢nd":11923,"Ġunora":11924,"Uni":11925,"ĠManu":11926,"Ġpasiona":11927,"Ġhainele":11928,"ĠÃ®ncura":11929,"Ġmanagementul":11930,"ĠBotoÈĻani":11931,"ĠDes":11932,"ĠProto":11933,"marca":11934,"ĠreflectÄĥ":11935,"Tre":11936,"stu":11937,"ĠactiveazÄĥ":11938,"Ġ~":11939,"Ġreie":11940,"istice":11941,"Ġsufletele":11942,"Ġblocat":11943,"Ġsarcin":11944,"ĠIliescu":11945,"Ġordon":11946,"sarea":11947,"Ġbib":11948,"ĠCuza":11949,"ĠexcelentÄĥ":11950,"Ġpasul":11951,"ĠscoatÄĥ":11952,"Ġmeteo":11953,"ĠMie":11954,"Ġaline":11955,"ĠreprezentanÅ£i":11956,"ĠSectorului":11957,"ĠÃ®nsem":11958,"Ġbogate":11959,"ĠcredinÈĽÄĥ":11960,"Ġoptimi":11961,"Ġcompromis":11962,"ĠParchetului":11963,"Or":11964,"Ã®na":11965,"Ġdeseori":11966,"ĠFirea":11967,"ĠtÄĥiat":11968,"Ġcontrola":11969,"Ġproaspe":11970,"ĠValoarea":11971,"ĠnenumÄĥrate":11972,"ĠEram":11973,"ĠuÅŁoarÄĥ":11974,"ĠloviturÄĥ":11975,"ĠbÄĥuturi":11976,"Ġ--":11977,"Ġextinderea":11978,"Ġturul":11979,"Ġ700":11980,"ĠadulÈĽi":11981,"Ġconversa":11982,"ĠsusÅ£inerea":11983,"inÈĽele":11984,"ĠsfÃ¢nt":11985,"ĠpicturÄĥ":11986,"Ġconsumatorilor":11987,"ĠRena":11988,"Å£eazÄĥ":11989,"ĠDrumul":11990,"ĠfuncÅ£ionarea":11991,"inu":11992,"Ġpret":11993,"Ġintitulat":11994,"tube":11995,"range":11996,"Ġ58":11997,"ĠMichael":11998,"Ġflux":11999,"Ġancheta":12000,"ĠCapit":12001,"ĠdepÄĥÅŁi":12002,"ĠBank":12003,"ĠfuncÅ£iona":12004,"ĠÈĻanse":12005,"tantÄĥ":12006,"taÈĽii":12007,"Ġopus":12008,"ĠClubul":12009,"ĠRegele":12010,"Ġfundul":12011,"turarea":12012,"Ġopta":12013,"ptÄĥmÃ¢na":12014,"Ġstrat":12015,"Ġvechime":12016,"Ġrestr":12017,"ĠstÄĥrii":12018,"Ġprogno":12019,"ĠroÅŁu":12020,"Ġnece":12021,"Ġaspectele":12022,"ĠPeri":12023,"tenii":12024,"Ġsch":12025,"ĠHot":12026,"Ġmodelele":12027,"ĠÃ®ncercÃ¢nd":12028,"ĠAbia":12029,"ĠBos":12030,"ĠcapitalÄĥ":12031,"Ġinchi":12032,"Ġperchezi":12033,"CO":12034,"ml":12035,"ĠDA":12036,"Ġenergetic":12037,"Ġcircumstan":12038,"ÅŁeascÄĥ":12039,"ning":12040,"icilor":12041,"Ġmasiv":12042,"ĠstÃ¢l":12043,"Ġout":12044,"ĠpÄĥcatele":12045,"Ġalumini":12046,"Ġconcediu":12047,"ĠDirecÈĽia":12048,"Ġvoca":12049,"Ġsituate":12050,"Ġmaterialelor":12051,"Ġscria":12052,"Ġstatut":12053,"Ġplacut":12054,"Ġreclama":12055,"Ġfurniza":12056,"Ġsuro":12057,"Ġmoral":12058,"Ġnef":12059,"wi":12060,"Ġsupune":12061,"bora":12062,"Ġserii":12063,"Ġevoluat":12064,"ĠFormul":12065,"ĠÃ®nregistrarea":12066,"Ġfascin":12067,"formei":12068,"Ġexac":12069,"Ġampren":12070,"PÄĥ":12071,"Ġnecaz":12072,"NAL":12073,"Ġindustrie":12074,"ical":12075,"ĠÃ®nlocui":12076,"tle":12077,"Ġculturi":12078,"Âº":12079,"ĠÃ®ndeplinirea":12080,"Ã®ntÃ¢l":12081,"rui":12082,"Ġpreferate":12083,"Ġalun":12084,"ĠpozitivÄĥ":12085,"COT":12086,"ĠMartin":12087,"Ġopinie":12088,"Ġaeroport":12089,"sty":12090,"litate":12091,"Ġer":12092,"dimen":12093,"ovÄĥ":12094,"Ġmodernizarea":12095,"ĠÃ®ncÄĥrcat":12096,"Ġdicta":12097,"Ġpropunere":12098,"ĠÃ®mbol":12099,"ĠMulÈĽ":12100,"ĠIgor":12101,"ĠSco":12102,"Ġnevoit":12103,"ĠFlu":12104,"sez":12105,"ÈĻine":12106,"Ġbunul":12107,"ĠacÈĽiunile":12108,"Ġtineret":12109,"ĠOpen":12110,"ÅŁterea":12111,"boarÄĥ":12112,"Ġposta":12113,"Ġneut":12114,"ĠacÅ£iunea":12115,"ĠIvan":12116,"dÄĥm":12117,"voca":12118,"dentÄĥ":12119,"Ġmagazinele":12120,"ĠPoliÈĽi":12121,"ĠStatului":12122,"Ġhandicap":12123,"ĠScrii":12124,"ĠANAF":12125,"poca":12126,"Ġnormativ":12127,"Ġcolorate":12128,",\"":12129,"Ġlipi":12130,"Ġplanta":12131,"ctiunea":12132,"Ġporumb":12133,"Ġstartul":12134,"reÈĻti":12135,"ĠÅŁtiinÅ£ifice":12136,"Ġspecializate":12137,"Ġcult":12138,"ĠcalitÄĥÅ£ii":12139,"ĠadoptatÄĥ":12140,"reni":12141,"--------":12142,"ĠmÄĥsurilor":12143,"ĠdezvÄĥluie":12144,"Ġdomiciliul":12145,"ĠRegulamentului":12146,"Ġpariuri":12147,"Ġcercetarea":12148,"Ġ53":12149,"ĠMom":12150,"Ġtehnica":12151,"Ġcostul":12152,"ĠÃİncer":12153,"Ġclubul":12154,"Ġacc":12155,"Ġindustriei":12156,"ĠNud":12157,"Ġmisteri":12158,"INE":12159,"ĠMagistra":12160,"Ã®nÈĽeles":12161,"ĠevoluÅ£ia":12162,"Ġspuneam":12163,"GB":12164,"cien":12165,"Ġbazate":12166,"Ġcarnea":12167,"Ġagres":12168,"Ġscade":12169,"ĠaÈĻtept":12170,"ĠFun":12171,"ĠdublÄĥ":12172,"ĠExecutiv":12173,"ĠrefuzÄĥ":12174,"Ġtimpuri":12175,"Ġscuze":12176,"Ġeventu":12177,"Å£ionali":12178,"ĠparticipanÈĽi":12179,"ĠaruncÄĥ":12180,"ĠdoreÈĻti":12181,"ĠAlege":12182,"Tra":12183,"Ġvibra":12184,"-âģł":12185,"Ġpreia":12186,"Ġinunda":12187,"Ġcopie":12188,"Ġintelectual":12189,"Ġaeriene":12190,"vocarea":12191,"ctivul":12192,"Ġalian":12193,"ĠAurel":12194,"pan":12195,"gata":12196,"Ġporun":12197,"Ġ04":12198,"Ġcomenzi":12199,"Ġsosit":12200,"Ġameli":12201,"Ġdistrus":12202,"Ġlasa":12203,"Ġscaune":12204,"ĠGalaxy":12205,"ĠliterarÄĥ":12206,"ÅŁescu":12207,"ĠIulian":12208,"Ġactiva":12209,"dÄĥu":12210,"ĠOct":12211,"ĠÃ®nceperea":12212,"ĠmanifestÄĥri":12213,"ĠRezultatele":12214,"ĠrepublicatÄĥ":12215,"ÂŃÂŃ":12216,"Ġpreajma":12217,"Ġformele":12218,"ĠPrimele":12219,"Poli":12220,"ĠMediu":12221,"ctivitate":12222,"ĠSÄĥu":12223,"ĠciocolatÄĥ":12224,"ĠImpor":12225,"Ġince":12226,"ĠÈĻedinÈĽa":12227,"beta":12228,"Ġteritoriu":12229,"ĠsocietÄĥÅ£i":12230,"ĠTineretului":12231,"Ġtub":12232,"ĠpÃ¢rÃ¢":12233,"Ġpension":12234,"Ġid":12235,"Ġcultiv":12236,"ĠCovasna":12237,"Ġsos":12238,"Ġscum":12239,"ĠCCR":12240,"ĠcÃ¢ÈĻtiga":12241,"Ġintegrat":12242,"tiÈĽi":12243,"ĠKove":12244,"ĠOfici":12245,"ĠlegalÄĥ":12246,"ĠComitetul":12247,"oo":12248,"ĠVIII":12249,"ĠTransilvan":12250,"Ġunu":12251,"ĠartisticÄĥ":12252,"inice":12253,"Ġabate":12254,"ÈĻtea":12255,"ĠvecinÄĥ":12256,"Ġ03":12257,"Ġaccesibile":12258,"Ġportre":12259,"ĠÅŁtiut":12260,"Ġnumero":12261,"Ġaceluia":12262,"ĠFilmul":12263,"ĠSecuritate":12264,"ĠOana":12265,"Ġstie":12266,"Ġprogramelor":12267,"Ġmaterialul":12268,"lier":12269,"ĠcumpÄĥrÄĥturi":12270,"ĠelectronicÄĥ":12271,"ĠcompetiÈĽie":12272,"Ġordinul":12273,"Ġreviste":12274,"Ġbrowser":12275,"54":12276,"ĠpoliÈĽie":12277,"Ġabsorb":12278,"Ġprepara":12279,"ĠGene":12280,"Ġformularul":12281,"ĠpoliÅ£iÅŁti":12282,"Ġaspira":12283,"ĠjumÄĥtatea":12284,"Ġoriginale":12285,"Ġsemnificative":12286,"ĠBÄĥtrÃ¢n":12287,"Ã®nÅ£eles":12288,"Ð¹":12289,"ĠSunte":12290,"ĠFR":12291,"Ġcursa":12292,"Ġconsiliului":12293,"ĠVen":12294,"ĠSep":12295,"ĠStudii":12296,"ĠÃ®nfiinÅ£area":12297,"ĠHan":12298,"Ġdetec":12299,"niceascÄĥ":12300,"Ġautoritate":12301,"Ġ05":12302,"ĠclasicÄĥ":12303,"ĠcirculaÈĽie":12304,"ccident":12305,"ĠsuprafaÅ£a":12306,"saÅ£i":12307,"Ġviceprim":12308,"ĠidealÄĥ":12309,"Ġtraficului":12310,"ĠPoliÅ£ia":12311,"Ġobiec":12312,"wei":12313,"Ġdepistat":12314,"ĠarmÄĥ":12315,"ĠdeÅŁe":12316,"ĠRaportul":12317,"Ġgrupe":12318,"ĠMoise":12319,"DMR":12320,"nr":12321,"ĠpregÄĥtitÄĥ":12322,"Ġasculta":12323,"ĠbazatÄĥ":12324,"sitÄĥ":12325,"ĠGenerale":12326,"ĠuÈĻur":12327,"ĠdeclaraÅ£ie":12328,"ĠcremÄĥ":12329,"Ġfinalizat":12330,"ditatea":12331,"ĠÃ®ntreÈĽine":12332,"Ġizv":12333,"ĠconstrucÈĽii":12334,"ĠconstatÄĥ":12335,"ĠTE":12336,"ĠCarpa":12337,"Ġconceptul":12338,"ĠMiercuri":12339,"ĠIorga":12340,"Ġtrenul":12341,"ĠDiana":12342,"ĠadevÄĥrata":12343,"Ġarticolele":12344,"ĠSuperi":12345,"ĠspaÈĽii":12346,"ĠAgenÈĽia":12347,"ĠEvalu":12348,"ĠsÄĥnÄĥtÄĥÈĽii":12349,"Ġsectorului":12350,"teau":12351,"Ġrecuperare":12352,"ĠManagement":12353,"Ġgriji":12354,"Ġimpreuna":12355,"Ġprivit":12356,"BA":12357,"kin":12358,"ĠPÄĥmÃ¢nt":12359,"los":12360,"ĠCristi":12361,"Ġobligatorii":12362,"Ġdistruge":12363,"Ġminut":12364,"Ġfinele":12365,"ĠÃ®mbunÄĥtÄĥÈĽirea":12366,"ĠLimba":12367,"ĠPlÄĥ":12368,"ÈĽitÄĥ":12369,"Ġscene":12370,"ĠspecialiÅŁti":12371,"Ġram":12372,"ĠfuncÈĽionare":12373,"ĠNeamÅ£":12374,"Ġpartida":12375,"ĠSuedia":12376,"ortul":12377,"mÃ¢nd":12378,"ĠpÄĥduri":12379,"Ġminunate":12380,"Ġperspective":12381,"Ġrem":12382,"Ġlegatura":12383,"ĠtrÄĥsÄĥ":12384,"Ġepisod":12385,"off":12386,"ĠinvitÄĥm":12387,"ĠÃ®ntorc":12388,"Ġrealizare":12389,"mÄĥri":12390,"Ġclasei":12391,"Ġrapide":12392,"ĠPil":12393,"sitoare":12394,"matica":12395,"Ġajut":12396,"ĠdeplinÄĥ":12397,"taru":12398,"Ġinspector":12399,"ĠWTA":12400,"Ġprietenul":12401,"Ġsentimente":12402,"Ġregionale":12403,"ĠreÈĽeaua":12404,"lem":12405,"ĠÃ®ndo":12406,"dÄĥri":12407,"ptul":12408,"untru":12409,"Ġsubteran":12410,"bby":12411,"ĠgreÅŁit":12412,"Ġplimbare":12413,"ĠBudapesta":12414,"Ġafli":12415,"Ġoste":12416,"Ġrefuz":12417,"unica":12418,"ĠPopor":12419,"ĠintervenÅ£ie":12420,"ĠdezamÄĥgi":12421,"Ġscumpe":12422,"ĠBecali":12423,"86":12424,"vanta":12425,"Ġbeneficiat":12426,"Ġprovine":12427,"Ġpatriarh":12428,"Î±":12429,"ĠnotÄĥ":12430,"ĠnumeÈĻte":12431,"73":12432,"Ġdatorita":12433,"ĠFree":12434,"Ġpreparate":12435,"ĠobiÅŁnuit":12436,"ĠSpecta":12437,"ĠmÄĥnÃ¢ncÄĥ":12438,"unghi":12439,"ĠIsa":12440,"ĠRich":12441,"ĠmatematicÄĥ":12442,"Ġampla":12443,"Ġmail":12444,"Ġnevoilor":12445,"Ġaceeasi":12446,"Ġmg":12447,"ĠLED":12448,"ĠÈĻtiinÈĽÄĥ":12449,"Ġwi":12450,"ÅŁan":12451,"Ġcaute":12452,"ĠÈĻansa":12453,"Ġbolnavi":12454,"ĠhranÄĥ":12455,"ĠvacanÅ£Äĥ":12456,"å½©":12457,"ĠsusÅ£inÄĥ":12458,"Ġavere":12459,"tte":12460,"ĠRON":12461,"Ġcritici":12462,"Ġobiectivelor":12463,"ĠÈĻcoala":12464,"ĠiarÄĥÅŁi":12465,"ĠÃ®ngÄĥ":12466,"ĠprimeÈĻte":12467,"Ġalaturi":12468,"vem":12469,"Ġ^":12470,"TP":12471,"Ġexemplare":12472,"stÄĥrii":12473,"Ġfunctie":12474,"ĠÈĻedinÈĽÄĥ":12475,"sari":12476,"ficile":12477,"ĠÃ®nÅ£elegere":12478,"Ġ69":12479,"Ġveste":12480,"ĠMag":12481,"Ġpierdere":12482,"Ġturneul":12483,"ĠBon":12484,"Ġconfis":12485,"tificare":12486,"Ġcosmetice":12487,"ĠmoÈĻte":12488,"bur":12489,"olicÄĥ":12490,"Ġaduna":12491,"Ġsepara":12492,"ĠrelaÈĽiile":12493,"tand":12494,"Ġpromovat":12495,"Ġdiagnostic":12496,"otimp":12497,"ĠTeleorman":12498,"olu":12499,"ĠSla":12500,"ico":12501,"Ġsalvat":12502,"Ġpretutindeni":12503,"Ġserioase":12504,"Ġclientului":12505,"Ġmuzical":12506,"ĠobÅ£inerea":12507,"ĠorganizaÈĽii":12508,"ĠOcta":12509,"ĠJustiÅ£ie":12510,"Ġante":12511,"ĠÃ®ngrÄĥ":12512,"ĠdezvÄĥluit":12513,"Ġusturo":12514,"ĠÃ®ntÃ®mp":12515,"bilitÄĥÅ£ii":12516,"ĠagriculturÄĥ":12517,"ĠLista":12518,"ĠexternÄĥ":12519,"ĠConstruc":12520,"ĠRecom":12521,"ĠÙ":12522,"ĠlÄĥsÄĥm":12523,"Ġserver":12524,"Ġnenoroci":12525,"Ġaloca":12526,"Ġpoet":12527,"Ġstudiilor":12528,"ary":12529,"Ġingin":12530,"Ġtrac":12531,"alii":12532,"ĠBunÄĥ":12533,"ĠMod":12534,"Ġdovedi":12535,"ĠcÃ¢ine":12536,"comma":12537,"ĠHotelul":12538,"ĠÈĻtiri":12539,"Ġterapie":12540,"Fo":12541,"bire":12542,"sponsa":12543,"Ġdoamnei":12544,"Ġampli":12545,"At":12546,"Ġgermane":12547,"Ġlaborator":12548,"atch":12549,"poc":12550,"hal":12551,"Ġexten":12552,"Ġtratarea":12553,"ĠKovesi":12554,"chestra":12555,"durea":12556,"ĠpermitÄĥ":12557,"Ġbara":12558,"ĠdiferenÈĽa":12559,"Ġarde":12560,"Ġclase":12561,"ferii":12562,"Ġtransferul":12563,"Ġpremierului":12564,"Ġdepre":12565,"ĠJul":12566,"nicul":12567,"Ġvinova":12568,"peten":12569,"ĠtaxÄĥ":12570,"orarea":12571,"ĠLEG":12572,"Ġcoali":12573,"Ġuniversitare":12574,"VÄĥ":12575,"pla":12576,"ĠBÄĥie":12577,"ï»¿":12578,"stini":12579,"pile":12580,"ĠÃ®ntoarcÄĥ":12581,"ĠbandÄĥ":12582,"Ġdeser":12583,"Ġbolilor":12584,"Ġscriitori":12585,"Ġpropriei":12586,"Ġ1997":12587,"my":12588,"ĠÐ¸":12589,"ĠMaster":12590,"democra":12591,"ÈĽeazÄĥ":12592,"ĠgÄĥsite":12593,"ĠcÄĥrÈĽile":12594,"Ġsocote":12595,"Ġgestionarea":12596,"ĠÃ®mprumut":12597,"ĠcercetÄĥrii":12598,"Ġcinematogra":12599,"Ġexplic":12600,"ĠsÃ¢ngele":12601,"ĠodihnÄĥ":12602,"Ġdefine":12603,"limi":12604,"ĠaprobatÄĥ":12605,"Ġdebutat":12606,"Ġritmul":12607,"Ġascultat":12608,"ĠproastÄĥ":12609,"sprezece":12610,"Ġrau":12611,"Ġit":12612,"Ġrambur":12613,"ĠRevista":12614,"Ġprogres":12615,"cob":12616,"ĠsusÈĽinÄĥ":12617,"Ġintereselor":12618,"ĠacÈĽion":12619,"ozitate":12620,"ĠPropunere":12621,"ĠCiprian":12622,"ĠCroa":12623,"Ġdegeaba":12624,"Ġbac":12625,"Ġridice":12626,"ĠcreÅŁtine":12627,"ĠCentru":12628,"ĠplÄĥtite":12629,"Ġcurse":12630,"curo":12631,"ĠmÄĥrii":12632,"stein":12633,"Ġstudiului":12634,"Ġvisul":12635,"cati":12636,"ĠÃ®mbolnÄĥ":12637,"pea":12638,"Ġlocuit":12639,"Bo":12640,"ÈĽini":12641,"ĠColegiului":12642,"ĠOprea":12643,"Ġcamerele":12644,"ĠDuhului":12645,"Ġreferendum":12646,"Ġimobiliare":12647,"rÃ£":12648,"Ġisla":12649,"Ġochiul":12650,"Ġrupt":12651,"Ġprietenilor":12652,"ĠproducÅ£ia":12653,"63":12654,"Ġantrenament":12655,"gnul":12656,"eniu":12657,"Ġnormelor":12658,"ĠFunc":12659,"Ġvarietate":12660,"Ġtacti":12661,"Ġmoduri":12662,"ĠfugÄĥ":12663,"Ġpagu":12664,"ĠVodÄĥ":12665,"Ġreorgan":12666,"Ġmagh":12667,"Ġdificile":12668,"Ġrobo":12669,"ĠÃ®nconjurÄĥ":12670,"garÄĥ":12671,"ĠNorve":12672,"pti":12673,"ĠcapÄĥtul":12674,"Ġcapabili":12675,"Ġrestaurante":12676,"Ġgard":12677,"ĠKi":12678,"ĠcalitÄĥÈĽii":12679,"Ġcov":12680,"Ġprimirea":12681,"ĠÃ®mpiedicÄĥ":12682,"Ġlicen":12683,"luje":12684,"Ġacasa":12685,"Ġindivid":12686,"ges":12687,"Ġsunet":12688,"geau":12689,"perat":12690,"ĠOfer":12691,"Ġ189":12692,"Ġharta":12693,"ĠConcursul":12694,"Ġleu":12695,"ĠTurda":12696,"Ġmedicului":12697,"Ġformula":12698,"tiÅ£i":12699,"ĠBlue":12700,"ĠTransilvaniei":12701,"ĠWa":12702,"Ġasocie":12703,"Ġterenului":12704,"ĠUrgenÈĽÄĥ":12705,"ĠRed":12706,"ĠCL":12707,"Ġpreve":12708,"Ġlitor":12709,"Ġimportanta":12710,"Ġaparatului":12711,"ĠstudenÅ£i":12712,"ĠMy":12713,"ĠaÈĻteptÄĥm":12714,"Ġmoldovene":12715,"Ġaerona":12716,"galÄĥ":12717,"ĠPlay":12718,"ĠgreÈĻit":12719,"ĠinformaÈĽiilor":12720,"ĠegalÄĥ":12721,"Ġviitorului":12722,"ĠVla":12723,"Ġlansa":12724,"Ġmedicament":12725,"Ġexperienta":12726,"Ġinsolven":12727,"Ġmulta":12728,"bina":12729,"ĠregÄĥsesc":12730,"Ġchef":12731,"ĠExper":12732,"Ġvertic":12733,"Ġsfert":12734,"Sc":12735,"Ġscot":12736,"fort":12737,"ĠData":12738,"ĠCondi":12739,"Ġinteligent":12740,"Â».":12741,"ĠspÄĥlat":12742,"sii":12743,"Ġsupuse":12744,"ĠsuprafaÈĽa":12745,"ĠFondului":12746,"atra":12747,"Ġcelorlalte":12748,"Ġmit":12749,"ĠBucovina":12750,"Ġverificarea":12751,"ĠSpiri":12752,"Ġmasura":12753,"Ġafacerea":12754,"ĠcetÄĥÅ£ean":12755,"Ġaluminiu":12756,"72":12757,"Ġbancare":12758,"Ġluptat":12759,"ĠMode":12760,"Mini":12761,"hen":12762,"Ġraportat":12763,"Ro":12764,"Ġtum":12765,"Ġpano":12766,"ĠSandu":12767,"Chi":12768,"Ġautobuz":12769,"ĠapÄĥrute":12770,"ĠinstituÅ£ie":12771,"ĠaleasÄĥ":12772,"andru":12773,"Ġagra":12774,"ÈĻca":12775,"Ġturistic":12776,"83":12777,"ĠinteresaÈĽi":12778,"Ġvalorii":12779,"ĠAlexandra":12780,"Ġprag":12781,"hu":12782,"IICOT":12783,"ĠÅŁcolii":12784,"Ġlichid":12785,"ĠTradi":12786,"ĠVei":12787,"ĠMature":12788,"ĠFemeile":12789,"ĠpuÅ£ini":12790,"ĠIeri":12791,"Ġturneului":12792,"Ġumi":12793,"ĠDrum":12794,"Ġtratamente":12795,"ĠactivitÄĥÈĽilor":12796,"ĠcÃ¢ntat":12797,"Ġaltcineva":12798,"ĠcÃ¢ndva":12799,"ĠpreÅ£uri":12800,"oanei":12801,"ĠDeva":12802,"ĠÃ®nmul":12803,"stelul":12804,"oscop":12805,"ĠFla":12806,"uratÄĥ":12807,"ĠpotenÈĽial":12808,"ĠgeneraÅ£ie":12809,"Ġ1996":12810,"cÃ£":12811,"ĠÃ®ntÃ¢lnesc":12812,"Ġ54":12813,"Ġrecti":12814,"ĠstrÄĥmo":12815,"Ġemisiune":12816,"ĠÅŁtia":12817,"Ġraportului":12818,"Ġneobi":12819,"fini":12820,"Ġpresiunea":12821,"ĠToÈĽi":12822,"Ġlimbaj":12823,"dulescu":12824,"ĠaÈĻteptÄĥ":12825,"Ġsexul":12826,"Ġartei":12827,"Ġclim":12828,"Ġidentificare":12829,"Ġdup":12830,"ĠveÈĻ":12831,"Ġneamului":12832,"exe":12833,"Ġproprietarul":12834,"ĠCle":12835,"Ġactelor":12836,"ĠSca":12837,"ĠlansatÄĥ":12838,"ĠÃ®ndrum":12839,"ĠCosmin":12840,"ĠreÅ£e":12841,"Ġimpotriva":12842,"low":12843,"Ġcardi":12844,"ĠCurte":12845,"ghiu":12846,"Ġnepre":12847,"ĠpoÅŁ":12848,"Ġpublicarea":12849,"ĠspunÃ¢nd":12850,"ĠAlbÄĥ":12851,"ĠtrÄĥieÅŁte":12852,"cÄĥtorii":12853,"ĠurmatÄĥ":12854,"âĢĿ;":12855,"erban":12856,"Ġimpresionat":12857,"71":12858,"ĠÃ®nchisÄĥ":12859,"ĠintervenÈĽie":12860,"ĠÃ®nj":12861,"Ġsportivi":12862,"Ġclasamentul":12863,"Ġraionul":12864,"ĠBea":12865,"ĠPublicÄĥ":12866,"Ġateri":12867,"Ġdotat":12868,"ĠspaÅ£ii":12869,"ĠIntra":12870,"ĠFCSB":12871,"Ġvitamine":12872,"sÄĥrit":12873,"Ġpresus":12874,"Ġsfera":12875,"Ġregulat":12876,"ĠDirectorul":12877,"Ġdarul":12878,"Ġincredibil":12879,"ĠanunÈĽuri":12880,"Ġreligios":12881,"pului":12882,"Ġinje":12883,"ĠstrigÄĥ":12884,"Ġascen":12885,"ĠQu":12886,"ĠSina":12887,"ĠutilizatÄĥ":12888,"Dar":12889,"ĠpaÈĻi":12890,"Ġizvor":12891,"Ġcard":12892,"________":12893,"Ġharul":12894,"ĠMatrimoni":12895,"ĠinstituÈĽiilor":12896,"Ġcapului":12897,"gerilor":12898,"Ġrecic":12899,"ĠÈĻansÄĥ":12900,"Ġlea":12901,"ĠplacÄĥ":12902,"ĠdescoperÄĥ":12903,"toane":12904,"Ġintestin":12905,"Ġlegilor":12906,"ĠcreÅŁtinÄĥ":12907,"Ġcompletat":12908,"ĠmÃ¢nca":12909,"iment":12910,"Ġnem":12911,"ĠÃ®ntÃ¢mplare":12912,"Ġlitere":12913,"ĠperformanÅ£Äĥ":12914,"ĠcreadÄĥ":12915,"ĠDepartamentul":12916,"Ġcucerit":12917,"numi":12918,"Ġfanii":12919,"Ġorasului":12920,"ĠPier":12921,"trin":12922,"ĠreÅ£ine":12923,"âĢĿ),":12924,"dox":12925,"ĠProf":12926,"Ġstru":12927,"Ġbazele":12928,"situl":12929,"Ġpiesele":12930,"rico":12931,"oniei":12932,"Ġcirc":12933,"ĠglobalÄĥ":12934,"colari":12935,"ÅŁind":12936,"Ġoma":12937,"ĠAlian":12938,"licop":12939,"Ġbum":12940,"Ġpersi":12941,"ĠcompleteazÄĥ":12942,"ĠrÃ¢s":12943,"ĠDesign":12944,"denÅ£i":12945,"ĠpiardÄĥ":12946,"Ġadmitere":12947,"Ġtabel":12948,"sov":12949,"Ġrezona":12950,"pot":12951,"ĠinstituÈĽiei":12952,"Ġsedin":12953,"Ġpoezia":12954,"Ġcreierului":12955,"ĠdÄĥdea":12956,"Ġmoldoven":12957,"ĠMÃ¢ntuitorul":12958,"Ġmotocicle":12959,"ĠÃ®nsÄĥÅŁi":12960,"Ġcategoriile":12961,"Äĥrilor":12962,"Ġinteresate":12963,"Ġsuspici":12964,"pra":12965,"Ġafacerilor":12966,"Ġclau":12967,"ĠorganizaÅ£ii":12968,"Ġ:))":12969,"ĠplÄĥtesc":12970,"ĠimportanÅ£Äĥ":12971,"ĠcÄĥrÅ£ii":12972,"Ġcertificat":12973,"Ġcardia":12974,"ĠpregÄĥtesc":12975,"ĠvÄĥz":12976,"ĠmorÅ£i":12977,"Ġmandatului":12978,"Ġapropiate":12979,"Ġorganelor":12980,"ĠpieÅ£ei":12981,"ĠbrÃ¢nzÄĥ":12982,"Zi":12983,"Ġadjunct":12984,"Ġabun":12985,"ĠÃ®ntrebÄĥrile":12986,"Ġstandardele":12987,"darul":12988,"diatÄĥ":12989,"Ãł":12990,"Ġapela":12991,"ĠhotÄĥrÃ¢ri":12992,"ĠcÄĥrÅ£ile":12993,"ĠÃ®nÅŁe":12994,"ĠÈĻofer":12995,"Ġsurprize":12996,"Ġcombustibil":12997,"ĠrevistÄĥ":12998,"ĠpÄĥstrarea":12999,"Ð¿":13000,"ĠanualÄĥ":13001,"Ac":13002,"urÄĥrii":13003,"ĠOrtodox":13004,"ĠdeopotrivÄĥ":13005,"åı":13006,"ĠfabricÄĥ":13007,"ĠpÄĥstreze":13008,"zÄĥrile":13009,"Ġcablu":13010,"ĠUdrea":13011,"Ġtaxele":13012,"ĠlegÄĥturi":13013,"veri":13014,"ĠTeh":13015,"ĠclÄĥdirii":13016,"Ġanotimp":13017,"Ġmonitorizare":13018,"Ġtraducere":13019,"ĠUcrainei":13020,"Cite":13021,"Ġamintim":13022,"Ġuleiul":13023,"Å£eanÄĥ":13024,"Ġcifre":13025,"Ġura":13026,"Ġghid":13027,"Ġvenirea":13028,"mal":13029,"grafia":13030,"Ġsingure":13031,"Ġconcret":13032,"Ġavand":13033,"Ġteoria":13034,"virea":13035,"ĠCasu":13036,"Ġspecializat":13037,"Ġridicarea":13038,"ĠIlfov":13039,"ĠPapa":13040,"Ġpagin":13041,"ĠbÄĥut":13042,"Ġaccidente":13043,"Ġbiserice":13044,"ĠDirecÈĽiei":13045,"cÄĥtori":13046,"ĠJocul":13047,"ĠforÈĽa":13048,"apro":13049,"Ġdescoperite":13050,"ĠjustiÅ£iei":13051,"Ġextinde":13052,"Ġmuzeu":13053,"Ġ1992":13054,"Ġisra":13055,"62":13056,"74":13057,"gresul":13058,"ĠBÄĥncii":13059,"Ġdiscipline":13060,"ĠUDMR":13061,"Ġcauzate":13062,"vare":13063,"84":13064,"Ġhoteluri":13065,"ĠCeauÅŁescu":13066,"ĠortodoxÄĥ":13067,"stena":13068,"Ġpiciorul":13069,"Ġae":13070,"inclusiv":13071,"ĠCoreea":13072,"Ġtalent":13073,"ĠaplicaÈĽie":13074,"Ġscru":13075,"ĠnevÄĥ":13076,"Ġparla":13077,"Ġmeciurile":13078,"ĠlegislaÅ£ia":13079,"ĠBule":13080,"ĠJustiÈĽiei":13081,"ĠLugoj":13082,"Ġdepozitare":13083,"ĠtipÄĥri":13084,"talin":13085,"tai":13086,"ĠlÄĥmuri":13087,"ĠBNR":13088,"Ġpericulos":13089,"foto":13090,"Ġurmeze":13091,"ĠTwitter":13092,"Ġdoctorat":13093,"ĠMark":13094,"ĠYo":13095,"ĠSenat":13096,"TC":13097,"[...]":13098,"Ġigien":13099,"ĠSector":13100,"ĠMed":13101,"Ġchestiune":13102,"ĠPartene":13103,"torile":13104,"izeze":13105,"Ġanve":13106,"Ġconfortul":13107,"ĠÃ®mplinirea":13108,"ĠCotro":13109,"Ġpasageri":13110,"Ġreprezentantul":13111,"Ġprotejarea":13112,"Ġconsolidarea":13113,"Ġsanitare":13114,"teriile":13115,"Ġimens":13116,"ĠCore":13117,"ĠÃ®ndeplin":13118,"ĠinfracÅ£iuni":13119,"tinescu":13120,"ĠÃ®ndru":13121,"litatea":13122,"Ġoficiali":13123,"Ġcimiti":13124,"ĠMastur":13125,"Ġinevi":13126,"Ñħ":13127,"Ã¢nta":13128,"ĠfuncÈĽiona":13129,"ĠobligaÈĽia":13130,"ĠÃ®mbrÄĥcat":13131,"ĠAvi":13132,"Ġnumar":13133,"Ġzicem":13134,"work":13135,"zau":13136,"Ġsili":13137,"ĠDanie":13138,"ORI":13139,"ĠMeu":13140,"Ġregelui":13141,"As":13142,"Cre":13143,"Ġziarul":13144,"ĠproducÈĽia":13145,"Ġanumitor":13146,"ĠdesfÄĥÅŁurarea":13147,"Ġcampionat":13148,"grafice":13149,"Ġgras":13150,"ĠsubstanÈĽe":13151,"Ġdebutul":13152,"Ġbiroul":13153,"Ġtehnologiei":13154,"Ġrealizeze":13155,"Ġdezvoltate":13156,"ĠsuficientÄĥ":13157,"Ġmerita":13158,"Ġast":13159,"ĠCOM":13160,"Ġmiliard":13161,"VIDEO":13162,"icului":13163,"sz":13164,"Ã¢na":13165,"ĠRen":13166,"Ġfeci":13167,"wnload":13168,"61":13169,"zÃ£":13170,"Ġafe":13171,"ĠSergiu":13172,"azÄĥ":13173,"ĠâĶĤ":13174,"Ġexpresie":13175,"Ĥ¬":13176,"ĠcÄĥi":13177,"Do":13178,"ĠDIICOT":13179,"gei":13180,"ceÅŁti":13181,"ĠAnticorup":13182,"Ġsustine":13183,"ĠconstrucÅ£ie":13184,"Ġpantofi":13185,"Ġtreze":13186,"Ġeligi":13187,"sezi":13188,"veli":13189,"ÅŁia":13190,"IZ":13191,"ceu":13192,"ĠmÄĥrun":13193,"Ġacid":13194,"varul":13195,"Ġtensiune":13196,"ĠMagaz":13197,"Ġ180":13198,"ĠBlaga":13199,"oada":13200,"Ġutilizatorului":13201,"Ġaparen":13202,"ĠcÃ¢ini":13203,"ĠlaudÄĥ":13204,"ES":13205,"ĠrÄĥspund":13206,"Ġiluminat":13207,"ĠSilv":13208,"Ġmirea":13209,"rala":13210,"ĠAlÄĥturi":13211,"Ġpenitenci":13212,"Ġexpert":13213,"Ġcircui":13214,"ĠnemulÈĽ":13215,"reaptÄĥ":13216,"ghea":13217,"Ġregional":13218,"ĠnÄĥdej":13219,"Ġrespectat":13220,"ĠgrÄĥsime":13221,"Ġteama":13222,"limin":13223,"ĠZilele":13224,"ÈĻeascÄĥ":13225,"ĠpÄĥrÅ£ile":13226,"Ġexploatare":13227,"inter":13228,"Replica":13229,"ĠcomercialÄĥ":13230,"Ġsul":13231,"ĠAugust":13232,"ĠNicole":13233,"dache":13234,"ĠRÃ¢mn":13235,"Ġconditiile":13236,"Ġcercetat":13237,"Ġnefiind":13238,"ĠunitÄĥÅ£ii":13239,"ĠBraz":13240,"room":13241,"Ġalimentar":13242,"ame":13243,"bilitÄĥÈĽii":13244,"Ġateliere":13245,"Ġconcursuri":13246,"ĠPoliÈĽiei":13247,"alistul":13248,"Ġprocedurile":13249,"Ġlimitat":13250,"ĠÃ®nvÄĥÅ£ÄĥmÃ¢ntul":13251,"Ġpum":13252,"arch":13253,"pol":13254,"ĠSimi":13255,"stero":13256,"ĠmanierÄĥ":13257,"Ġbucata":13258,"ctatÄĥ":13259,"ĠAne":13260,"ĠdepÄĥr":13261,"ĠamestecÄĥ":13262,"Ġversuri":13263,"ĠdimpotrivÄĥ":13264,"ĠWal":13265,"ĠrÄĥnit":13266,"ĠcursÄĥ":13267,"Ġ1991":13268,"ath":13269,"Ġexprimare":13270,"ĠÃ®ncercarea":13271,"ĠameninÅ£Äĥ":13272,"Ġimaginii":13273,"reanu":13274,"Ġjud":13275,"cÃ¢":13276,"Ġeducat":13277,"Ġmetrou":13278,"ĠTel":13279,"Ð±":13280,"ĠBuna":13281,"ĠFinanÅ£elor":13282,"Ø±":13283,"Ġorganizatori":13284,"ĠValeriu":13285,"ÅŁite":13286,"Ġverificare":13287,"ĠmulÅ£umesc":13288,"ĠAsigurÄĥ":13289,"teor":13290,"ĠUSL":13291,"VA":13292,"Ġç":13293,"ĠsecÈĽiunea":13294,"ĠmÃ¢ncarea":13295,"Ġcalificare":13296,"ĠinfluenÈĽa":13297,"ĠTudorel":13298,"ĠBune":13299,"ĠFrank":13300,"uita":13301,"Ġproaspete":13302,"lix":13303,"ĠIasi":13304,"ĠCapitolul":13305,"Ġjuma":13306,"ĠsoÅ£ul":13307,"document":13308,"Ġretrage":13309,"Ġpierderi":13310,"Ġcumpara":13311,"Ġrochie":13312,"Ioan":13313,"Ġliteraturii":13314,"ĠproducÄĥtorii":13315,"Ġsecretarul":13316,"ĠBÄĥrbatul":13317,"ĠTimpul":13318,"intele":13319,"ĠjudeÅ£ene":13320,"Ġasum":13321,"ĠmedicinÄĥ":13322,"Ġinstalarea":13323,"ingea":13324,"anele":13325,"Ġproteine":13326,"Ġsince":13327,"laj":13328,"ĠcÄĥru":13329,"ĠWar":13330,"ĠnerÄĥ":13331,"metrul":13332,"Ġcreierul":13333,"ĠinformaÅ£iilor":13334,"ĠÃ®ntregime":13335,"sturn":13336,"ĠoferitÄĥ":13337,"Ġdocumentar":13338,"Ġtransportului":13339,"Ġfrecvente":13340,"ĠinstanÅ£a":13341,"ricilor":13342,"Ġfore":13343,"termin":13344,"Ġconser":13345,"82":13346,"zator":13347,"Ġtelecom":13348,"Ġlogo":13349,"universitar":13350,"Ġincat":13351,"tÄĥtor":13352,"Ġgrame":13353,"Ġdezbateri":13354,"Ġrock":13355,"ĠAugu":13356,"ĠLan":13357,"Ġsuportul":13358,"sci":13359,"ĠconÅ£inutul":13360,"ĠCiolo":13361,"ĠSF":13362,"iner":13363,"Ġstadiul":13364,"ĠbrÄĥ":13365,"Ġtranda":13366,"Ġproprietari":13367,"Ġinvit":13368,"ĠutilizaÈĽi":13369,"Ġdete":13370,"ĠbÄĥtaie":13371,"Ġfenomene":13372,"Ġdorm":13373,"unctul":13374,"ĠmoarÄĥ":13375,"ĠAlin":13376,"ĠPreasfin":13377,"ĠinfrastructurÄĥ":13378,"ĠevoluÈĽia":13379,"ĠsubstanÅ£e":13380,"ĠmilÄĥ":13381,"Ġdocumentare":13382,"Ġexpresia":13383,"Ġonora":13384,"Ġarmatei":13385,"Ġextins":13386,"ĠSÄĥnÄĥtÄĥÈĽii":13387,"zic":13388,"ĠfÄĥinÄĥ":13389,"Ġgigan":13390,"cet":13391,"ĠPalatului":13392,"oade":13393,"Ġurca":13394,"300":13395,"Ġverii":13396,"Ġcolegilor":13397,"ĠreÅ£eaua":13398,"Ġmeciului":13399,"Ġdimensiune":13400,"Ġinstruire":13401,"sus":13402,"Ġspon":13403,"ĠÃ®ncercÄĥm":13404,"Ġdepunerea":13405,"Ã¨":13406,"Ġcalendar":13407,"eniul":13408,"Ġfili":13409,"ĠDatele":13410,"ĠAll":13411,"ĠroÈĻii":13412,"ĠLive":13413,"Ġpunea":13414,"Ġbuzunar":13415,"ĠCotroceni":13416,"ep":13417,"ĠasumÄĥ":13418,"Ġdiscursul":13419,"ĠPoliÈĽiÈĻtii":13420,"Ġtemperaturi":13421,"Ġmoldoveni":13422,"ĠISU":13423,"ĠDincolo":13424,"ĠstÄĥri":13425,"Ġcanalizare":13426,"Ġæ":13427,"Ġsediu":13428,"Ġmarelui":13429,"51":13430,"Ġdocumentul":13431,"Ġrisi":13432,"Ġlocuitorilor":13433,"Ġchestii":13434,"gs":13435,"ĠliniÅŁte":13436,"ĠFemeie":13437,"Ġars":13438,"ĠVis":13439,"Ġ72":13440,"Ġdegetul":13441,"81":13442,"Ion":13443,"Ġuscate":13444,"ĠPsih":13445,"ody":13446,"ving":13447,"ĠmuÅŁ":13448,"amentelor":13449,"Ġoche":13450,"Ġzgom":13451,"Euro":13452,"ĠpieÈĽei":13453,"Ġtermice":13454,"ĠevidenÅ£Äĥ":13455,"ĠCand":13456,"ĠuÅŁa":13457,"ĠconÈĻtienti":13458,"ĠputÃ¢nd":13459,"Ġcosm":13460,"Ġvarsta":13461,"belor":13462,"Ġstrategia":13463,"Ġenergetice":13464,"ÄĥrÃ¢":13465,"Ġlegislativ":13466,"Ġromana":13467,"ĠcuprinsÄĥ":13468,"ĠconsecinÅ£Äĥ":13469,"Ġinfrastructurii":13470,"Ġmanifestare":13471,"onezi":13472,"Ġindivizi":13473,"Ġprocurorul":13474,"ĠDorin":13475,"ĠCatedrala":13476,"Ġaplau":13477,"Ġobosi":13478,"Ġcontrar":13479,"Ġabsur":13480,"Ġdescris":13481,"Ġconducea":13482,"Ġspar":13483,"ĠoperÄĥ":13484,"Ġsecundare":13485,"Ġfilozof":13486,"alen":13487,"bÄĥtut":13488,"Ġprocesele":13489,"ĠBucu":13490,"ĠRomani":13491,"ĠÃ®nfrun":13492,"Ġtrupa":13493,"ĠaparÈĽine":13494,"ĠÃİmpreunÄĥ":13495,"Ġdispre":13496,"ĠTestament":13497,"mart":13498,"Å£Ã¢nd":13499,"MB":13500,"PL":13501,"Ġpoarte":13502,"ĠTransporturilor":13503,"ĠOF":13504,"ĠInvi":13505,"Ġmoa":13506,"oper":13507,"rak":13508,"ĠadusÄĥ":13509,"Ġmame":13510,"Ġresim":13511,"fun":13512,"Ġfiliale":13513,"ĠamÃ¢ndoi":13514,"ĠÃ®nÅ£eleagÄĥ":13515,"pin":13516,"tÃ¢i":13517,"cedes":13518,"ĠimportanÈĽa":13519,"Ġorganizatorii":13520,"Å£ite":13521,"buna":13522,"ase":13523,"ĠMaica":13524,"ĠpregÄĥtite":13525,"ÈĻitÄĥ":13526,"ĠAudi":13527,"spora":13528,"Ġcetatea":13529,"Ġacoperire":13530,"Ġadecvat":13531,"Ġgazelor":13532,"Ġvinovat":13533,"ĠÃ®nÈĽeleagÄĥ":13534,"ĠFii":13535,"ĠMÄĥrii":13536,"onaÈĽi":13537,"Ġpilo":13538,"Ġmiezul":13539,"Ġliti":13540,"ĠÅŁter":13541,"Ġimplementat":13542,"Ġprevizi":13543,"Ġclipe":13544,"Ġprofun":13545,"Ġliberi":13546,"Ġretragerea":13547,"grafic":13548,"ĠluaÈĽi":13549,"ĠVeri":13550,"Ġprietenie":13551,"ĠLauren":13552,"Ġtesta":13553,"san":13554,"ĠÈĻtiut":13555,"Ġmuzici":13556,"meri":13557,"ĠreprezentatÄĥ":13558,"ĠDemocrat":13559,"trei":13560,"Ġsuspendat":13561,"tizat":13562,"ĠCurÈĽii":13563,"Ġvred":13564,"Ġindependente":13565,"SfÃ¢ntul":13566,"tionat":13567,"ĠConstantinescu":13568,"ĠMas":13569,"ĠmenÈĽionate":13570,"Ġplecarea":13571,"ĠsugereazÄĥ":13572,"Ġtermenului":13573,"vasta":13574,"Ġinscrip":13575,"Ġstran":13576,"ĠuÈĻurinÈĽÄĥ":13577,"ĠCarte":13578,"toarei":13579,"ĠNeamÈĽ":13580,"hidra":13581,"Ġcosta":13582,"ĠUngariei":13583,"Ġtravers":13584,"osului":13585,"Ġunel":13586,"ĠDura":13587,"viat":13588,"ĠÃ®mprÄĥ":13589,"Ġreusit":13590,"ĠElevii":13591,"ĠexcepÈĽie":13592,"Dra":13593,"ĠtermicÄĥ":13594,"Ġabsolvit":13595,"Ġsimb":13596,"ĠclienÅ£ilor":13597,"Ġparcul":13598,"mant":13599,"Ġrespectul":13600,"ĠarmatÄĥ":13601,"ĠvÃ¢ndute":13602,"ÄĥrÄĥ":13603,"ĠadevÄĥrului":13604,"Ġpah":13605,"Ġbuze":13606,"tifica":13607,"ĠaplicaÈĽia":13608,"ĠprotejeazÄĥ":13609,"ĠplÃ¢ns":13610,"ĠsoÈĽul":13611,"Ġplec":13612,"Ġthat":13613,"Ġrecurs":13614,"ĠinvitaÅ£i":13615,"Ġmus":13616,"grad":13617,"Ġcople":13618,"Ġstins":13619,"Ġlipsei":13620,"ĠbÄĥncile":13621,"Ġbomb":13622,"Ġarmoni":13623,"Ġcuvine":13624,"Ġintegrarea":13625,"Ġtratamentului":13626,"ĠÃİÈĽi":13627,"ĠExp":13628,"Ġtransporta":13629,"Ġgenerat":13630,"Ġmedicilor":13631,"Ġtrist":13632,"Ġfaptelor":13633,"arnÄĥ":13634,"ĠcÄĥsÄĥtorit":13635,"opoli":13636,"ĠÃ®nsemnat":13637,"Ġcauzele":13638,"Ġteritoriale":13639,"mie":13640,"daÅ£i":13641,"Ġtrupului":13642,"derile":13643,"ĠNO":13644,"Ġvad":13645,"Ġnas":13646,"ĠsemnatÄĥ":13647,"ĠResta":13648,"ĠacuzÄĥ":13649,"Dom":13650,"vean":13651,"tagoni":13652,"Ġpatrio":13653,"Ġtrecem":13654,"cÄĥrilor":13655,"ĠDeschi":13656,"Ġsolicitan":13657,"logie":13658,"ĠschimbÄĥrile":13659,"Ġpiz":13660,"ĠJurnal":13661,"Trebuie":13662,"ĠSportiv":13663,"Ġtestat":13664,"denÈĽa":13665,"ĠzilnicÄĥ":13666,"ÈĻan":13667,"Ġtrotu":13668,"Ġprealabil":13669,"ĠExtra":13670,"Ġprecipi":13671,"Î¿":13672,"Ġpredare":13673,"Ġporc":13674,"ĠRura":13675,"Ġmeniul":13676,"Ġaccidentului":13677,"Ġaccesului":13678,"ternÄĥ":13679,"ĠcercetÄĥtori":13680,"ĠPun":13681,"Ġcaracteristicile":13682,"Ġechipament":13683,"Ġprocurori":13684,"Prima":13685,"Ġdiscrimin":13686,"Ġcadrelor":13687,"Ġbugetar":13688,"Ġpiatra":13689,"Ġperiodic":13690,"ĠsÄĥrac":13691,"odern":13692,"now":13693,"ĠTeri":13694,"DR":13695,"Ġcamerei":13696,"ĠAFP":13697,"ĠvÃ®r":13698,"ĠÅ¢ara":13699,"Ġcontractant":13700,"ĠaventurÄĥ":13701,"Ġcolaborarea":13702,"ĠAustralia":13703,"cial":13704,"ĠCodru":13705,"Ġtransmiterea":13706,"ĠplÃ¢ng":13707,"Ġpersonajele":13708,"Ġsatele":13709,"ĠsperÄĥ":13710,"Ġpachete":13711,"vite":13712,"ĠBook":13713,"Ġfide":13714,"Ġbugetare":13715,"ĠcÄĥpitan":13716,"ĠroÅŁii":13717,"Ġmodelului":13718,"reg":13719,"ĠpregÄĥteÈĻte":13720,"Ġsuflete":13721,"ĠcÃ¢mpul":13722,"way":13723,"ĠseamÄĥnÄĥ":13724,"ĠcadÄĥ":13725,"ĠvalabilÄĥ":13726,"ĠOameni":13727,"ĠStÄĥnescu":13728,"ĠÈĻtiam":13729,"Ġcartofi":13730,"Ġpromite":13731,"sÄĥrile":13732,"iem":13733,"Ġ1994":13734,"Ġtarife":13735,"ĠJudecÄĥtoria":13736,"Ġpatrimoniului":13737,"ĠpuÈĽini":13738,"ĠlocuinÅ£e":13739,"Ġmeteor":13740,"Ã®mb":13741,"ĠdouÄĥzeci":13742,"ĠMunicipiul":13743,"ĠobÈĽinerea":13744,"ĠÃ®nÈĽelegere":13745,"Ġdisciplin":13746,"Ġritual":13747,"Ġhormon":13748,"ĠÃ®ndu":13749,"Ġlezi":13750,"ject":13751,"Ġantioxi":13752,"Ġpersonalizate":13753,"ĠPloieÈĻti":13754,"Ġpenis":13755,"Ġvorbea":13756,"ĠminimÄĥ":13757,"ĠOrban":13758,"Ġmenite":13759,"ĠSovie":13760,"Ġratat":13761,"ĠÅŁanse":13762,"ool":13763,"Ġtrag":13764,"ĠÐ¾":13765,"ĠpedeapsÄĥ":13766,"ĠGen":13767,"ĠcreÅŁtini":13768,"Ġpieton":13769,"ĠconstrucÈĽie":13770,"tualÄĥ":13771,"ismele":13772,"Ġvolumului":13773,"ĠpuÅ£inÄĥ":13774,"vierea":13775,"ĠprÃ¢nz":13776,"ĠJack":13777,"ĠAma":13778,"Ġgand":13779,"ĠacÈĽiunea":13780,"Ġdizol":13781,"ĠBil":13782,"ĠToma":13783,"ĠdigitalÄĥ":13784,"Ġcomuniste":13785,"valÄĥ":13786,"Ġfilmat":13787,"Ġreciproc":13788,"ĠemoÈĽii":13789,"ĠÃ®ntoarcere":13790,"Ġaccentu":13791,"ĠCV":13792,"ĠDinu":13793,"Ġdificultate":13794,",/":13795,"Ġdorea":13796,"ĠMexic":13797,"ĠrecentÄĥ":13798,"Ġplaja":13799,"ĠmaghiarÄĥ":13800,"Ġtratate":13801,"stirea":13802,"ĠÃ®mpÄĥratul":13803,"ĠDec":13804,"Ġfrigider":13805,"Mihai":13806,"ĠcunoÅŁtinÅ£Äĥ":13807,"ĠprobÄĥ":13808,"ĠdaÅ£i":13809,"ĠPoliÈĽia":13810,"ĠCU":13811,"Ġaccepte":13812,"Ġcolectare":13813,"Ġscan":13814,"ĠlegislaÅ£iei":13815,"Ġavantaje":13816,"Ġbilan":13817,"Ġcca":13818,"ÏĦ":13819,"gas":13820,"ĠgÃ®n":13821,"press":13822,"Ġvizitatori":13823,"Ġliste":13824,"ĠeducaÅ£iei":13825,"ĠevidenÈĽÄĥ":13826,"Ġcompetente":13827,"ĠadÄĥpo":13828,"Ġtransportat":13829,"erului":13830,"Ġtal":13831,"Ġgrec":13832,"Ch":13833,"ĠcontemporanÄĥ":13834,"ĠimportanÅ£a":13835,"Ġnervos":13836,"ĠAgriculturii":13837,"Ġinimile":13838,"ily":13839,"Ġnele":13840,"Ġdemarat":13841,"Ġ-,":13842,"Ġocazii":13843,"ĠÃ®ncÄĥlcarea":13844,"ĠUngheni":13845,"lite":13846,"ĠnemulÅ£umi":13847,"ĠciteascÄĥ":13848,"ĠCuvi":13849,"Ġcelulele":13850,"ĠIonel":13851,"Ġbronz":13852,"ĠsemnificativÄĥ":13853,"%).":13854,"getul":13855,"jurat":13856,"Ta":13857,"andra":13858,"ĠopÈĽiuni":13859,"Ġred":13860,"unare":13861,"ĠFI":13862,"Ġduminica":13863,"tropol":13864,"Ġabandon":13865,"Ġoriginea":13866,"Ġniciodata":13867,"Ġnerambur":13868,"ĠDimen":13869,"ĠapreciazÄĥ":13870,"Ġdelimi":13871,"ĠVeni":13872,"ĠimpunÄĥ":13873,"lash":13874,"Ġ1940":13875,"ĠEconomic":13876,"ĠFundaÈĽia":13877,"ĠSinod":13878,"Ġdoare":13879,"ficul":13880,"Ġinsula":13881,"ĠPho":13882,"ĠRalu":13883,"ĠMaÈĻ":13884,"alizeze":13885,"ĠChel":13886,"Car":13887,"Ġsind":13888,"niri":13889,"ĠPeter":13890,"ĠliniÈĻte":13891,"Ġmijloacelor":13892,"Ġsuspendare":13893,"ĠVII":13894,"ĠAta":13895,"ĠDoamnÄĥ":13896,"Ġfapta":13897,"ĠOlimpia":13898,"venite":13899,"ĠplÄĥcerea":13900,"Ġtaxi":13901,"ĠLeg":13902,"miterea":13903,"rente":13904,"rupt":13905,"bama":13906,"ĠpoliÈĽiÈĻti":13907,"ĠLiberal":13908,"RM":13909,"aliÅŁtii":13910,"lociu":13911,"2020":13912,"Ġaccesibil":13913,"ĠAnca":13914,"metru":13915,"Ġimper":13916,"NE":13917,"Ã§":13918,"Ġclientul":13919,"Ġinterpretare":13920,"cÅ£ii":13921,"Ġconsti":13922,"ĠÅ£inÄĥ":13923,"ĠMulÈĽi":13924,"Ġasas":13925,"ĠFamilia":13926,"Ġimplementare":13927,"Ġcancerului":13928,"Ġimpozitului":13929,"ĠpotenÈĽi":13930,"Ġierarh":13931,"ĠDvs":13932,"Ġfuri":13933,".âĢľ":13934,"ficialÄĥ":13935,"Ġmanageri":13936,"ĠÃ®ncepu":13937,"Ġautoturisme":13938,"Ġslabe":13939,"Ġmandatul":13940,"Ġprotejate":13941,"Ġmaxime":13942,"ĠjudecÄĥtore":13943,"Ġpatrimoniul":13944,"Ġreabilitare":13945,"Ġdigesti":13946,"à¤":13947,"Ġscoase":13948,"ĠOrganiz":13949,"iam":13950,"Ġfit":13951,"Ġamenzi":13952,"Ġdieta":13953,
[...]
